002b
06f9
055a
03ae
03db
f96a
f9de
fc7c
06a5
fe4f
056b
fd0e
05bc
05e1
fc2b
04af
fc73
fe9e
f855
fb3d
faee
ffe3
fa7a
fd5d
f939
f8c7
fd63
07c3
0388
02de
fdd2
03a9
01eb
0234
fd18
f835
f8a6
0363
ff02
fcd9
0145
02d9
009d
fa44
fc35
008c
fa49
078f
f852
f818
07d8
0082
0726
fc83
006c
ffdc
065a
f87f
02bf
05de
fc11
0471
fa20
04d2
fd78
f958
fef0
015c
fe5b
0589
0404
fafc
fe1e
0343
fa6a
f9b9
0503
025e
ffa3
06d7
f9f6
022c
03f7
0461
fa8a
fca9
fe8c
feba
0713
070d
f97d
fffa
f8d7
fae6
fc6f
f947
0826
0813
052c
0364
f8ee
fdc3
04ae
fdd3
055e
f806
ffcf
0178
f974
fda4
ff45
fe0a
0503
0327
05ef
00c3
f990
0778
fbc0
07ff
066d
fe18
0465
ffe0
ffee
010d
03df
fe29
06ad
060f
004b
ff30
0235
f956
fbbf
0441
fb07
fdcd
fc35
f8f9
fc1a
00fc
009b
fc5b
017c
fefa
0766
fd22
fc90
084a
fa2b
05e4
04cf
08a2
02d8
08d5
048e
06c7
f9ee
fe30
0763
0417
fecd
030d
00b0
00f8
f898
fa40
03e8
f9a6
f838
077b
feae
0476
fc88
07b6
f9e4
0350
0521
031c
00ff
00ac
0723
ff63
080c
fcd1
06d4
0399
0165
f9ba
fee0
f988
02fe
0324
020a
fcf4
074e
06db
023d
01a6
07e2
ffe7
fee9
06d5
054d
fef6
fdd5
05c5
0192
08f9
0735
fe52
023b
f97f
0487
fc90
0648
008e
f8f8
ffa8
002e
fb2d
00ba
f8ba
fc6b
03b9
f970
ffc0
fd4a
0017
025b
fa94
06ef
03d6
fb64
02d7
081d
0551
0020
020c
07e6
feea
0516
0028
03e7
042c
fbff
05a1
f958
009d
0361
fab0
05fa
fe25
fd9a
07aa
07aa
0427
fc96
fe75
fdfc
fd86
05de
fef4
f948
fb37
feaf
091b
f9f5
ffc1
f9ec
fe50
f9bc
00d4
07f6
f7eb
f832
fffe
0147
ffc1
fd96
fbb4
0025
03f0
033a
0079
0757
fb0b
004c
faf0
05ad
f70f
f928
06bd
018b
04f0
037c
029c
03b7
fe98
0630
0132
02a2
f8f9
06b7
0329
0240
0040
f941
ffcb
04c1
07bc
fb62
fde8
feec
fbba
022e
fafc
fa49
fbde
fcb3
02e4
04c9
0982
07da
0307
04d7
0623
fc47
fa08
fe5b
f817
f807
0543
faae
f9a4
fbcc
f8d0
06e7
03ce
ff2c
fc11
f6da
f944
0486
fc53
009c
fbca
010a
01ad
1315
102e
01ed
fdf3
0248
003a
0079
f9a9
f8a6
fd2c
0514
fc3b
0628
f83e
02dc
fd60
014f
f87d
0447
ff29
fe14
f4f6
f815
f664
f43f
00f9
fc14
02fb
11c1
0a20
03fd
060c
0054
0467
f9df
0358
0049
f5e2
fcae
0467
0792
fdd9
07be
f94b
f83f
00f9
03b2
0158
fcc9
019c
fa2c
f91d
fb6b
00a9
fe67
11d5
0b9c
0950
0645
ff97
01d9
f9a1
f7d6
f813
ff8b
f552
060c
fad9
fcfd
07ec
0209
06d4
06cc
fda0
0256
0057
025f
f950
f76a
fb21
f3f3
febb
02b0
0863
0f2d
0d6c
fc19
f8db
00ab
fb6c
f8e1
fe99
fd9d
f844
fdc4
0687
ffe3
f930
fd31
0593
015a
f967
01bd
0515
fbde
fe13
f721
ff85
ffd7
013c
06f9
071f
0741
041d
0613
fd21
ff11
fc9b
040a
fdc5
f8be
f7d5
f90d
0315
0042
01ee
036a
0315
01d7
fa5e
0171
fc0b
02a4
f5ca
ff6b
0286
feaa
01a3
03ea
0426
0276
015e
fe11
fa17
ff1f
ff72
0160
056d
ff71
032a
fb97
058e
fc0c
f970
07e3
06c8
0169
07a4
0844
f98d
f940
fa71
fb2f
f917
0405
0592
0328
0a9a
01fe
045f
f9f4
fc05
fbdd
fc79
feef
06e0
0664
04fc
fde8
0059
002d
fe2d
f944
0683
fe74
fe74
fbbb
013b
0226
feb1
07a1
042e
ff78
ff04
ff1e
01e2
0337
047a
0292
fe23
06ff
fcf6
05a0
fe96
00a9
05f7
f944
fe95
0348
feae
fa64
f9f7
fe43
fd96
013d
083e
fd70
ffb3
fde7
0503
0415
ff45
0329
f903
0047
f932
fb2b
0800
fd9c
ff6d
0120
0414
fe5b
fe3c
f8ef
fa3a
fd54
0042
014e
fd34
facc
0403
fe8a
0556
0109
075c
0067
fc88
05ff
01e4
fc1e
fbc2
fbc3
0590
0a47
fe23
ff75
0007
fd58
0624
fa46
008d
0110
05cc
fa96
fd40
0501
f8ec
0677
fa72
fecf
fbbd
084a
0b1e
0835
052c
061c
0300
06d1
0013
00d6
045e
0312
041d
ffd6
0507
fb93
0782
f93b
ffb0
fc38
f9da
0787
f824
00ea
fba4
fd75
03df
06c3
00fa
06b7
fc7c
040e
06e4
066b
fae8
feca
fcd3
ff09
0802
07a5
033f
07f2
04f6
0657
fae8
05c7
05f6
f97b
04dc
fcc9
00e3
047b
fa06
fb78
0536
fe7d
0175
025c
ff89
fe4b
00d1
0119
fd76
046a
01c6
f948
05c1
032f
07e4
ff15
04bc
fad5
0220
fbd4
0347
059b
057c
06b5
f8ad
ffc0
ff1b
fdc4
ff87
05d1
0565
0598
fd3a
fbef
01f0
0498
0428
0751
f90f
0163
0707
fb0c
02ab
fd84
fb0c
f945
f906
fb55
060d
055f
06e2
ffbe
0002
ff9a
0286
04dd
05c3
fdee
0259
05ac
fb17
033c
fe56
03f0
0350
fabc
03c3
0310
0574
f8ce
f9ae
0134
060b
0302
fa16
03db
037d
ffa3
002c
0446
f95e
0063
04e6
0637
0238
07f4
fee3
ff9e
ffdb
f881
fb8d
03bd
fa43
fc40
0315
fcd8
f9fb
fdc4
0448
fa42
02d5
03d0
0258
05fb
fdc2
f8de
fd2a
fe92
02c6
