012d
04f8
06b2
01a9
039f
04a1
006d
0125
fce1
0532
fcba
fb53
011d
00ee
fd14
f9e1
fbba
0790
0011
f856
f8fc
062d
0264
044d
ffca
05a4
fc80
ff88
fe21
0236
fbab
0181
045a
fe15
f892
07ba
0714
fcd9
0018
fd1c
0532
03be
0693
001f
06e0
ff09
06a8
fd7e
0206
062e
061b
f850
02ca
fbd9
010c
04f5
f9ed
f951
fc99
0547
fa3e
0494
fe98
079e
07b2
fc2e
05c4
f934
fefc
06ed
059c
f9e6
fe43
06f3
0453
f9e0
f8f6
f854
02b2
067d
fc69
faae
ff91
f91f
f89f
0704
fa76
fd4e
fa43
f820
02b0
069b
05ae
fa55
04e6
0422
053c
055f
fed4
0078
ffc2
f7df
f8f7
ff9b
f78c
0448
030c
06b0
fb7d
07d2
02f0
02bf
ff5f
ff32
f8d6
06f8
03ec
0734
02eb
fd64
fb65
fd0c
01fd
faf3
fb50
001f
081e
0312
f9b4
039a
ff57
fc48
057f
ff8a
fc35
f8fb
0009
ffca
0104
f921
fb74
039f
ff47
fd22
0381
fd86
03f1
fe7a
0386
fe02
0290
ff6a
057d
0ad7
013a
0577
0105
02d6
0633
03e1
ff32
ff84
f773
03f9
fc2b
fede
f867
02a5
ff2f
02ca
fcba
044f
0673
fbbf
f81d
fd6a
fc9a
03a0
04d1
04c1
fdf6
0715
00e3
0bb6
0adc
0c09
fc5c
00a8
05a3
fb5a
fa61
f71e
fc7e
fb39
fa67
fe7e
00fa
0722
face
feeb
f949
fdc7
022a
016c
01c8
f781
0505
fef3
fd60
0621
0cf1
0e65
07bb
ffd9
005f
02da
fa07
fb79
fdb2
fea8
f8d3
fd89
fe1e
f9b2
06a8
f87f
038a
05ea
fd46
f7b1
fc98
0087
fc17
048d
fe0a
0721
fe5f
06ab
0769
fd15
0675
0503
06ac
026f
04b6
06ce
0175
0657
fee8
f8bf
fa98
fa22
fd3a
07c3
fa5a
fcdd
faec
ff0d
fdea
03a5
04f8
ff9f
04e2
0873
0302
f94e
0366
fcec
0340
0606
0346
fd7b
0247
069b
facc
fb1b
fd68
ff90
fc79
f8fb
fb13
ff09
f8eb
fe73
00bf
fa00
0679
fd71
033e
fd80
fd49
06b9
fde5
fc65
fc7a
fc17
fe74
0104
fe48
0256
08f4
fd3d
066e
013b
f9e6
03c9
fcdb
fcf4
04ad
fe43
f80f
0048
facb
00dd
fa3e
fad1
00cb
0468
fa19
06b6
fd9b
fc9c
01bc
f87d
f77f
0518
00a3
062d
0790
fda0
0c06
0691
fe5f
f8c7
fbf1
fe4f
001e
049d
0478
fe6c
0289
fb78
fd2e
009d
fb78
fdff
03e6
fca4
047c
f795
fba8
f9cb
02c1
fe16
0991
0315
0844
07aa
09f5
fbed
037b
0163
fd4c
feac
fbd8
0217
fc10
fa09
fa75
031f
ff19
03ea
05fc
facb
0178
fa47
0131
fd33
06a2
0034
fa2f
ffd0
001f
0015
018b
0327
fe4e
face
fa26
03e2
fb59
057c
0620
f9bd
0507
05f2
04f3
03e5
0288
fdc7
067c
fe4e
0052
fba7
0024
02aa
fc45
03ca
ff46
ffcd
0024
fddb
0542
fc51
fea4
fd29
07b1
0437
07ed
f90d
fce5
0407
04f2
fc91
fa42
023c
fbbb
0624
00b8
037b
0999
028c
ff3c
ff20
05d0
03bf
035d
056c
fd02
f856
0527
fcf2
faae
fe79
fa9a
0656
033e
05d8
fd35
fe09
02d8
fe75
0211
fc1c
077b
02fb
ffa1
05bc
0cb1
fecc
05c5
f932
01f9
f8ac
ffee
ff1e
03bf
fd3e
f56f
04ca
0229
04e4
0375
fea3
ffa2
034e
0253
00df
03bb
fd24
0813
ff76
009b
0817
00be
ffe7
fffb
0897
0727
ffd4
f89d
042b
0656
04f5
ff76
ff8a
ffa6
0278
0123
f8b2
00e3
fc5f
fcbe
02cc
fb46
0564
fcbb
02fd
014f
015c
02c3
062a
0322
0d45
0200
07db
0601
0301
fa95
fb25
fac8
f9cf
02b5
ffe3
00ea
014b
fde9
fc2c
ff0f
0626
0360
006a
0137
f9fe
ffde
006a
00b7
ff3b
fd7b
0602
0583
00a6
0340
0568
019b
f814
f8f3
0240
ff40
fc94
0169
fd41
ff34
02f0
fa2a
0195
0563
07c8
fbe9
06f4
fa8c
ffbd
0035
03f1
0401
fac8
01fd
fd9a
ff48
0655
fe40
f897
054b
ffc0
fde0
f8d7
f9bc
ffda
fbe7
0199
0212
05df
fff6
0191
0429
0756
fa8a
0129
0057
00f2
fb41
fa53
fc99
021e
fdf2
fb06
022d
031f
f94c
ffc4
fc3e
f9fb
025c
fae4
fabe
004d
fcea
079e
0355
0447
fbef
031d
019f
07b2
0416
fb2b
0032
fa0a
fcf3
fd2d
05f6
0778
071a
0770
082b
ff8d
06c2
ff51
0480
0403
fcfe
0766
f9e0
ffa8
016c
0425
028a
0011
02f1
fc74
02b4
ff96
07df
02d5
0130
f825
0775
fb9d
f971
063a
f78c
fce8
0271
f98a
0173
ff15
ffdf
0026
01cb
fdfc
056c
fe7b
014a
0389
05c1
fd0b
f977
000a
00d9
faf1
02e2
f84e
f8e4
f87e
fa15
0506
06b7
0152
0579
f8f3
fe09
0428
fced
f85a
0536
0535
f97b
fa33
f95e
fc5a
00d9
008d
07fb
0213
fe5c
fba4
0569
062f
0375
f96f
01ea
032d
fd84
059c
0519
037e
f8b9
fd2d
0004
fea3
05bc
f787
fff0
0550
fbf8
04d3
fd6f
fca6
064d
faef
fdd0
0546
012d
079e
01e0
fc58
fe8c
071b
f9a0
0673
059a
049d
018e
fb58
f88f
fe27
fe59
064b
03ce
fd1d
fa65
062f
0553
0044
fcf8
f967
0560
0634
fbb2
fcde
01cd
01f8
fef6
fc1c
fe60
0337
05df
fa52
fae6
ff2e
fb6e
fc36
0215
048b
fc60
f815
fdd5
ffe4
060d
fbef
fe75
0247
00a2
0609
02cd
fcd7
fbeb
fe0e
fbd9
0198
079b
fc92
0277
fecb
