fc08
fff4
02b2
fdf4
01ff
fbc8
fa5f
001e
fc01
fb86
ff58
04b9
0093
026a
01ea
0360
fde5
fffc
0574
016d
f949
fd25
fc88
050e
042b
f921
00d7
ffd8
fec8
fbeb
f9cb
fae0
ffee
fd60
f9c7
01d4
0412
ffce
fc64
fdfa
ff34
056f
fc79
0763
0265
011b
fac0
00ff
f98c
fcef
f849
f8fe
0767
ff60
0070
f862
033d
fb43
fad9
ff8f
02d9
fc40
0251
ff37
01ee
fd6e
0379
029f
f91f
04c3
0160
0053
fa4c
fb67
fc46
02b9
fa4a
0542
fe54
fa29
05f3
06f7
0446
fb2d
ff7a
0236
f951
02d5
0486
f933
ffdb
fdfa
f855
03e4
f82f
fde0
0829
0171
078e
0867
077d
fba8
0aba
0855
05b0
0608
fd16
fc76
034f
053e
faf7
fef5
ff78
008c
fb4f
01bf
046e
012a
045d
fcc4
ff1c
00ac
fd40
04df
039f
04d3
0262
0648
05b4
fa8d
008c
fffb
ff31
0695
fb23
0119
041a
02d0
0502
fc3c
fb24
fe6a
fa11
064d
02e7
fce4
00c2
ffb9
0607
02e2
03d5
f7cc
0120
fac2
03a1
f92b
fefa
fb08
018a
fb9e
041f
f83e
fd26
fe25
fdd8
fda4
f971
feac
fb34
f9be
f99e
faf6
07ae
0451
f719
0314
f97e
fd66
f8dc
f9a4
fce7
0588
fe59
06d6
07e9
05b4
01e7
ff07
f7c8
0468
0459
fee5
fdf9
f9d6
fa59
04b0
ff84
fab9
f919
fab6
045f
029e
fbbf
04b1
f8a4
f919
01e7
fbe4
fd2d
0c73
0411
0479
09aa
056e
f9f9
03a6
fdab
fe5b
02ef
fe4d
fd7a
fe66
fca3
02d1
ff8e
fb0e
f8a3
fc31
039a
fb78
02b2
024d
fc41
ff21
06a4
0119
073b
04a5
0a12
06e8
fc1f
02e5
0151
ff5e
fc82
f69b
0159
036f
0033
fc42
fb05
fdd7
face
003a
001e
076f
fa7a
001a
f83b
fcd8
f8d3
0269
fcca
fc24
01ee
fb88
08f6
fa64
03cd
f37c
ff6c
f849
fa40
012e
f999
0059
fb73
feca
0750
f9ef
f8e2
05e5
f9e1
0207
fa57
047d
f9d9
fd1c
fd14
ff85
0046
fcfc
06d9
023a
04ba
0505
fb73
f8a8
fd0c
f960
fdfc
faee
054a
faa5
050b
0522
0237
0389
03fa
fd71
02d5
01f4
fae6
0257
0657
0760
fe0d
09c8
05bb
fcc2
fcaa
fb97
fc40
03b4
f5b0
0198
f973
fe23
046d
0316
f9b9
0482
023b
fe69
fdfd
f90c
f964
f8c7
0546
f844
0247
05d7
fbfa
08d5
0925
fc91
013c
07f6
ff70
fd4f
08c9
fd1b
0468
fd25
fc59
05c5
fc2b
0111
00e0
fa08
f902
fd0f
0631
051f
0598
fdad
0772
ffad
ff08
fd49
00d1
0714
fc0e
0a4c
fcc4
0413
fdcb
042d
06e3
0979
fd80
0816
006b
0635
fecf
091e
03c3
02f3
00eb
fbe9
049e
012f
f90a
019e
fc7e
051e
04bd
01bf
06d6
0163
fc0a
0b69
ff3c
0723
02fe
fdfd
fa1e
0084
0880
fec7
0488
02c0
fbde
fb52
0494
0282
0478
f7e4
0298
f90d
05b5
fb6c
fb4a
ff68
03e9
f9d6
053a
f9ab
fc52
0302
06ff
0418
ff5a
ff58
fcc9
0323
fa11
040e
faf9
fc53
fef8
082a
051a
01ec
fc11
0023
f7d2
0032
ffd2
0648
019c
ff8e
0312
f9c8
fae0
fa3d
0184
fc76
fc82
03d1
f86f
f708
fe40
02f8
fed9
fd86
fe68
05ad
0780
0675
0649
01b1
fc35
063f
ff93
fe7b
fafe
07f0
048b
f94a
0520
002c
05a8
00b5
fad1
00af
03ab
00eb
fee4
f96f
f5a8
fbb2
f95d
fa17
068b
fc81
00c4
fb8b
01ef
fd24
05da
023a
fef0
039e
ff90
05e8
fb35
03b6
fa16
fca9
f97e
ff94
02f0
0544
0386
ffb6
f957
fc23
0628
0550
f9c4
05b1
0915
ff3c
04b0
feb3
fae9
0443
f884
048f
016d
06a3
fa6b
0262
f847
0361
f8d9
0052
fcc9
fae5
049b
fe89
047e
04d7
0179
089f
fe20
0441
02aa
0415
0743
fc64
ffdd
f92a
03ab
f642
fd35
fb1e
f7df
018f
009f
05af
04e6
0212
f8e7
000c
f79c
0018
f7cd
f835
ffad
028f
0793
ff64
0167
01dd
0781
fe8a
fef0
033b
f898
036b
f6b6
04b5
048e
fed2
009e
02b8
04db
f830
fad3
0093
06a2
fb7e
0185
f75c
fd7e
011f
fd95
0605
fffd
0073
0c4c
0727
07c2
0484
ff82
fa83
f70f
f687
0155
032d
ff7c
01ad
0324
f9d9
f81a
0415
01ca
0328
f8f6
fb85
02e9
fa34
056d
fb6d
020e
fb70
fd29
0717
0485
f9db
f980
fe48
03ea
f65f
0556
069f
006c
fd48
fb0e
05d1
fc16
0257
ff2f
0022
fef5
00df
01e8
f9bc
fd85
052e
01c7
0681
fdd3
fba9
0169
f9f4
fe6e
ffe7
f59a
0503
0684
0210
f85e
0686
fdcb
fbbb
fd76
fcdc
faa0
f85b
fdc3
fb1d
00f5
0102
01ee
06ca
0233
06eb
faef
fc61
0200
fd5f
00f8
fc5b
f877
039c
0316
ff94
fde7
f98e
0264
fc9a
07a7
f803
feb0
02ae
fe40
0066
fe07
ff75
0549
047b
fcf1
045d
fa61
ff8a
fed3
005d
ff73
fefe
fe57
0289
06d4
fcd6
fe72
08cd
049d
08ee
fb6d
fd79
f96f
02db
f8db
06e4
f99b
ffc8
f92e
07b6
fdcd
faa7
fd1f
05a9
079d
02e7
0283
01ac
0368
04cd
01c2
ff64
075b
0182
007f
038c
f900
fc9f
f9a5
063a
0504
f9c3
fa03
fef9
faba
05d3
fc7c
ff65
0776
0369
02ee
060d
007d
f8d4
fdd0
0537
fe4a
fc90
ff40
039c
fe06
fd82
fdea
06b8
04aa
fb1e
fc21
fcaf
0295
f803
fdcd
0359
029b
fafb
