043e
ff9b
fdcc
02cc
fd4f
062c
0122
fcda
fca8
0473
00ac
ff45
06b1
fbc1
0579
06bd
0531
fbd6
fe47
0315
0235
0587
0094
07e2
0748
04bf
f874
fcd9
0781
050e
f877
f8dc
077a
ff74
054c
02a8
058c
06ef
0258
0227
fa0a
04cb
fe89
fe74
07ca
fb68
f98c
fc32
0452
f912
0117
fef5
0401
05ea
054c
04f7
ff84
0571
01b4
0687
fd4a
f826
05b7
04c9
fab5
fa70
febc
00d8
043c
faea
058d
ff4c
0030
032e
fb97
04e4
06c1
076c
02d7
0253
013b
01db
0715
00c3
047d
02fd
0452
ff42
f89e
ff7e
fc58
ff40
f8dc
fe53
fc6d
0144
075d
0684
fb31
f82c
03c4
f9de
019d
075e
0312
02e1
0419
0176
f842
fb5a
f819
01fb
0332
fd8e
fd81
05ce
f8b7
011e
02ba
f94c
ff5f
0059
fab8
fcc2
fada
04d1
0038
00b8
02bf
04ee
026e
0187
fd57
0156
fd19
0393
fe08
0526
0465
077c
03ec
f8f8
face
0054
025e
f9b0
019e
00b1
f979
f9af
f813
068d
fdec
f878
f8b2
f90f
012b
068d
02cc
f8bc
fac7
0745
05b1
fce3
fe25
06d4
057c
f83d
fa51
0723
057c
05c3
0218
ff64
f899
fa4c
034b
04f1
07d7
f84c
0510
fc5e
ffa2
fd75
fe86
06c3
fb95
f9ef
fb73
033f
fb89
f880
fe14
ff0f
fb6b
036e
faf1
fa57
005b
fe06
0411
05ea
003f
04db
f9ab
fae7
f817
fed3
fc92
04d0
fb09
f960
04a9
f925
01d2
fa5f
02fe
020b
0059
077e
0676
fc4a
fd72
f859
fd96
0109
f8bd
fd98
067e
03cd
ff14
02db
fc96
03cf
fe92
fa22
0057
016c
072c
01cb
fefd
fcf1
0339
05c9
f961
034d
f909
feb2
0172
ffd1
f8e4
ffac
fdf6
fc38
fb29
06b5
0439
014f
f9cf
022f
00e6
f9b6
f806
fdf9
f897
fb16
ffb4
f9c2
fea0
0301
02ae
03f6
020d
f81c
00d6
07d8
fc14
04a6
fc76
06e5
f8c6
ff81
ff8c
f82c
f91e
fb14
fd7c
048a
0679
008d
f8ff
0602
04e7
f849
fa48
fc72
07c2
0621
f9c6
0766
01b7
034f
0121
0222
004f
064b
fec7
0736
ff33
fe8f
fa74
0694
0290
ff72
fe60
0594
f891
fdb6
f91c
fc99
041d
fe38
f873
f8e1
fb80
f90f
0100
01bf
0520
f982
f8f7
0633
fb04
fb8f
0607
ffe7
f896
05de
027a
fc02
0143
051d
fb35
fdd1
fdbf
fcb2
07c0
0309
05c9
fb26
f9c2
fc07
fdd4
faaf
ffb9
fb36
fc77
01fc
03b7
fd3b
05b8
fab1
0684
fcde
fc7d
ffd1
fed8
014f
0611
032f
fc50
fa48
fde0
01a7
fb3d
0095
0468
0414
0216
04b1
049b
f9cb
fd10
00a0
fc6e
0008
f858
fbda
014e
0097
fd54
0591
0521
fc97
f981
055e
ff58
0648
0553
faa8
0084
f8a8
01a2
07cc
0691
f945
f8f7
ff66
023c
fddb
fa6f
fe4b
f8ac
ff8b
004c
06e2
fa2c
01ab
fd67
feb8
fa05
f8e5
fbf0
0647
fae2
f808
fb6d
02b9
055f
0015
0376
0431
fc27
f926
fc34
fba6
010e
0352
f89a
fcef
f8ca
f8d4
fb76
ffdc
0013
00be
01ec
055b
f981
07d0
fe88
0196
fd93
03a0
fea6
03eb
fe1b
f86e
06ab
fe04
fff4
0415
f837
f9b2
fa26
fb03
06fd
01b3
f944
fad8
06eb
fb24
064d
fb00
00e2
0432
fec8
fe89
fa12
04d2
fab6
fcab
fe89
feb4
ff38
065e
fb8c
fe1c
ff0a
06c0
f9fa
0742
fc01
04c1
0126
00ee
057f
017f
052a
fab1
fa98
fab8
00e8
0195
01ef
06ec
f9f6
0066
02b4
f948
0135
0436
ff65
fe77
fde5
f9aa
fc17
fbdf
fa72
0328
0320
0531
f832
fbd4
fa54
011c
0788
0768
f858
f987
01bd
0220
fac2
03a3
fc26
fe78
f90e
fd63
01fc
f919
fcf4
ffae
04b6
fda2
f9dd
0588
068f
0286
fd65
f8ad
0295
0017
0027
0333
065f
0502
0343
f9d6
f999
06b5
fc72
f8bb
0667
0304
f9c8
079e
0357
07ad
0261
018b
f9c0
01d4
f9a4
fcde
feae
07d1
fd9d
03ec
0418
fc4a
fbf6
f9c2
0169
03fb
fb40
04bd
009a
06e5
fc3f
0636
ff15
0718
0793
fe0f
feab
f8ae
0116
fb6a
03ef
faf3
04e2
f929
0340
0470
0600
0312
f96e
fb34
00bb
f90a
f8a6
fdff
fb3d
f9ef
0600
04ec
0060
00d7
0127
009b
ffbd
0115
f9d2
ff1d
f814
fa8f
f971
fcce
fdd8
0656
f9c8
03ab
fc0c
0121
0561
ff53
fd89
0096
0563
0078
fe73
ffd1
0017
038f
056e
0224
06b7
07d6
06fc
0681
01b7
f878
072f
06c1
fbf9
0237
fe2d
fc0c
0654
fe1b
fd74
fe58
fd51
f969
0527
f998
fd38
f97d
0349
04e7
07e6
f806
05c3
feec
fa7c
07f7
fc0b
fd34
062d
0558
fbe9
fd25
06ce
f822
02db
0642
01f4
fbba
0124
f902
f8d6
020d
f855
0571
fa2d
f89c
f809
0772
fb7e
fc88
005a
07ba
f890
04e0
02cd
fe6e
02f5
f999
014a
fd6b
fe8a
01d6
00f6
ff6e
0148
0525
0549
fee6
0569
01f7
04d4
fc40
079d
0606
02da
0247
0033
fb28
f824
047d
0067
fead
fe79
fb16
f95c
fd0e
f917
0688
00fe
0116
f998
fb3b
029c
fd2a
f93b
f9d4
fb45
0211
fdbc
0064
03f2
0036
f824
0568
fd3c
0779
ffd3
ff6b
02a6
f94f
f8f7
fb29
fe34
f82f
026d
069a
f9d1
06b3
0642
fb49
073c
fe88
0037
fd06
0373
ffc3
07a7
fa92
051a
06d6
ff1a
fbee
fec4
f911
