0746
0495
03f4
0144
fee1
0235
070a
0655
fc14
0476
f882
031c
fe8e
06b2
02d7
f892
faf1
0417
029b
fae5
f909
ff49
f87a
03e7
0646
fa63
07f9
f9da
fe3e
fab2
fadf
fa11
f9ed
016c
079f
0670
0730
fb0f
fa28
0567
fe8f
0376
0031
054c
0405
01ce
fe1d
fbd8
022f
0079
fddb
071e
fb92
05b4
ff81
f8b2
049f
0513
02fc
fc1d
0709
07ec
043a
0472
029b
03cb
06d5
0561
fb01
01ee
fad7
fa1f
06fb
036b
febc
0037
0147
ff38
01d8
06aa
0556
feb7
0620
fdb0
03f8
fbec
fa3d
fca3
fec1
0701
07d5
f8ad
f8ca
fa95
0426
0129
fe85
040e
fc9a
fc63
0611
f8dc
06da
0028
0434
04fd
fcb8
fdc8
fa46
f890
f845
ff60
feb2
07a0
079b
0772
0697
fc2b
0776
022b
fefc
ffc0
02f2
f973
f9d5
02d5
01f6
067f
fba3
05c2
f8aa
f9a6
fcff
0227
fc70
ff29
f965
030c
03e8
05e6
fe38
f8cc
00df
fa1a
06f9
fdd1
02da
00d7
0591
fc30
f8f2
0522
038b
0350
0143
0548
060d
0116
ff6d
fa01
ff0a
03cd
f8b5
04d8
0417
05a7
f92f
0094
ff4a
061c
0271
f960
facb
fe55
0655
0020
0581
03b0
ff40
03be
05a0
ffba
fc5d
fea6
fc22
fd65
fa49
0066
018b
fc53
f793
fedc
02de
0636
03bf
f85d
fde5
02ef
0556
01d0
0772
fa1f
fd69
feff
f7e7
05d7
fe32
ffee
0320
0871
05d9
04ec
faf9
fd22
fa1f
06bf
062d
00db
fb05
ff7b
f805
fd37
0383
fff1
0244
fb44
0376
0563
ff4e
f86b
02fc
0656
fd66
0301
0782
05e4
fd7e
f8d1
fb14
0698
06b1
f89b
0490
fe10
04c0
fa13
ffbc
007d
f817
fdac
0184
fcd0
fe08
fae3
f971
0746
f963
fbdc
0642
0561
039d
fc16
0069
00e9
faf6
014f
fa07
ffc8
035e
f908
06d8
060f
005c
f790
0518
fa94
fc37
fcd9
0231
feab
f9fe
0205
fe2e
f89a
0723
0792
fca7
06ee
f950
fa8b
05fc
f8f4
faa6
0395
ff07
00cc
ff27
037a
046d
080c
fda8
06eb
fee6
00b0
0397
fe0f
ff9a
fff0
0330
f8dd
fe21
fc63
fd34
fe87
0247
f8ee
0733
0562
0077
009e
fbcb
049b
0318
fd21
f8ba
06a2
faa7
0729
fe75
fb1b
fb5f
03ef
0428
00b4
fe94
fd10
fc3c
fcc5
05be
04bb
fa21
fa95
f958
0623
fe97
f95b
029f
f8b1
fec3
fa73
022f
004c
0468
07bf
f9a4
0329
080e
0348
f941
fa11
f902
011f
0710
fc8a
057e
00a6
020c
0044
01a9
ff81
faed
fc4a
fbc2
020b
0065
038d
0711
0080
05a2
07c0
f8f4
0340
fa29
020e
fcd7
000d
f99b
f7f7
01e0
fb95
0372
ff2e
0352
0607
002b
0273
0332
fb18
056d
fb1f
0259
002d
067b
05cc
fe61
fca4
fa4d
0523
fd93
f9a6
feed
05f3
fca7
f7fd
fa98
0558
0741
f816
0555
04e9
fd15
037d
fa15
022e
f890
03c4
fac6
fe28
fc10
fdd0
0600
04ff
03e9
02cd
fa75
f9e3
036a
fc5b
fb0f
00db
0324
f7b1
0657
ffa8
fe8e
0437
fc0f
f8fb
04a6
fb08
054f
faf6
04fd
fd5d
f965
fafd
047b
06fc
0615
fb3c
fb81
02ac
fb03
f90f
0534
06cc
05d4
0652
f9a1
00a2
fa3e
fe01
f9d9
067d
05aa
fe89
01d7
0717
03f4
0009
02c4
fd2b
057b
049f
fce3
0668
fb3e
018a
037b
03b0
02a0
0502
fd19
ff99
0336
029f
f96f
f7f8
fb24
f85b
072b
064f
ff5c
0732
027e
fc9c
02f1
fb03
f928
f833
fb1a
051d
046d
ff5c
fa72
fbf6
0607
fdf0
004f
0376
02cc
f9ad
046b
fc3e
ffcc
fd4a
000c
f8aa
ff27
0175
04de
fabe
00ee
fae9
fd6c
07d9
02a7
0296
00ab
0587
03dc
fac0
0768
007c
faa4
f70a
028f
00ac
fc00
089b
01c8
fd2a
0224
058e
0531
fbaf
fafd
02ea
05d0
06c8
ff20
fee2
075a
fa43
0221
0059
fd52
fa82
fff6
037e
ff7d
061f
fc79
0658
f9e2
010f
f9a3
0363
fa72
ffe5
fea1
0501
0713
f905
00f1
fa43
fbc7
fa59
02bf
02cd
07b8
fcf4
0478
f9b2
fb94
f804
0266
fad2
05a8
0749
fe89
030a
fac0
0765
0780
0614
fdde
f96a
fe74
06b6
051e
fd85
fe77
0079
0763
ff18
fda8
ff80
f9e0
04c0
04da
fdab
0168
03bb
fde1
f953
07da
faec
01f8
fd0c
064a
fcbb
fad3
ff3d
fd8c
026e
0187
f961
ff68
019c
fce5
fbee
068e
01b2
fce7
009a
0237
0706
fd15
fb53
072f
03c4
064b
f93b
003e
06dd
fd4f
029e
04d4
f9db
0483
fbc9
0599
fc95
018f
07a2
07bb
06e3
ff49
fbe9
035e
fe08
f842
010e
fecd
fa6d
fef4
fd1d
fa61
0740
0613
ffa0
fd3f
fe90
03bf
02e8
fe4c
fe50
0656
00aa
0090
0041
083b
0299
fe56
fa61
fa49
026e
0273
030b
fec6
0251
063a
fcfd
ff10
03f2
f91f
0027
ff62
f8f2
fba2
ff67
fd3a
f940
fd52
f8f5
06bc
fbd4
f9e0
01cd
0013
fbd1
fdb3
02ed
0783
f8a6
fbe5
faec
019d
01c2
fbc2
fbe5
f8cb
0514
034c
fa8b
ff20
066b
fee7
00b7
03c8
fa32
02ce
fc3b
f7f9
0325
0480
0510
05c7
ffc4
f934
f824
046d
f9f4
02e0
0458
faf6
fd26
0758
fd22
fcdc
04c4
f9bf
f836
03be
ff39
0117
07cf
0520
067e
0775
fa16
065a
ffc6
036b
fa39
0533
056a
0007
04bd
0471
fd0a
fd0e
f8b2
