05cd
fd39
f8eb
01a4
04c1
0302
f840
05ba
f8fb
fa9f
05d5
0684
071c
0277
fe3c
fabb
0681
05c3
fc13
f818
049d
06f7
012e
03d1
fcf9
056a
ff15
fd97
04f1
029c
fda5
0760
06ec
0381
0461
ff47
fb44
fe93
fe23
faaa
0443
f987
fb07
0353
0155
fb2f
05d1
fc3e
011c
0411
ff71
0578
07f4
f95a
0467
fa6b
f975
0315
07ab
00b5
f80b
f9b5
fbf2
fa33
fcb0
0005
f937
fbea
0884
0322
fc48
ff6b
fc3d
0304
004a
fd07
001e
fef9
06b4
fcca
026c
fb6c
fcc6
033d
03a6
fe0d
051d
059b
ff33
fe1a
01b8
0454
02f9
034f
0715
024b
fc06
0596
fc30
fdea
fe6b
0890
ffe0
01e7
fbe9
05b5
fdd4
012d
fb66
03c5
f945
0583
0324
fcfb
f9f7
0406
f9ef
0790
0535
f93c
fdd7
06e1
fc29
0833
fd65
faf6
fed5
fce5
0678
0143
0824
0676
00a7
fe10
037d
ff6f
fe55
01fb
05bf
f8ed
fd5c
0188
f9bd
fd16
0719
01ba
fb34
fcf6
fc05
0369
f959
04b8
00e3
fced
06d2
00f1
08ad
08fd
06b0
029d
fe29
fff6
fa0c
04ea
fb57
ff22
0459
07cc
fb6d
078a
fbc2
0762
f97b
fd2d
fd96
f8bb
ff76
00ed
01d9
0435
f956
ff3a
fd99
0361
fd31
fd08
05a7
0536
04bd
07c4
007e
06f7
083e
ffb1
fb5b
013a
fa06
070a
0370
063e
01eb
04be
0518
0185
fb99
03ed
065f
fff2
029d
f7d4
0096
f54c
fe09
fb84
fa41
fa72
0122
f87f
06b1
061e
fd80
fc18
0666
fb1e
034d
f99c
0310
022e
0238
fd72
fafa
07e5
0126
fbdc
0238
02c9
f997
fbfd
fe22
f5d6
f529
fbe6
fbce
f74a
fea2
fba4
0426
078e
06be
05c0
05c7
05d1
04f7
fee8
fb8a
ff06
fb28
fa55
fc24
fe54
feed
0175
0313
0867
06d6
0271
f9a1
f506
fe0d
f78f
f624
00f6
fdc4
04aa
04e6
05de
056b
0868
fa5b
fdae
fd88
f9e0
fad6
0111
03b9
0523
04d2
fdf0
0978
0bfa
ff0e
043a
feb0
fa7b
f6fe
f9a3
f647
0279
f84d
feaf
01e0
0020
fb96
051b
0010
0775
fb1f
0006
fb6d
f89e
079d
fcbb
04f1
04e1
ffec
0101
02fd
fd67
0455
0688
fbfb
073a
00fa
f553
f825
f83b
fa3c
f908
faaa
fd34
ff11
fc40
fa85
02bb
ff09
ff49
fee4
fb7a
056f
fec2
069d
051c
0620
07c7
00ac
0116
06b9
0763
02e8
fc80
fec6
f7ec
032b
ff8f
fcbc
04d4
fee7
ff9e
06ab
014f
fffa
05da
0111
fe58
fb09
0529
fde8
053b
fb07
fbf9
fb0b
01a8
0641
02cb
0759
032f
0c3b
fe73
fd4d
06fe
0694
02a1
fd60
02a6
fae5
019e
fcdd
fb82
025f
fe87
0506
0427
02e5
03a8
f9b3
fd81
fa2d
fc0b
fcc4
fec8
0062
0388
01bb
0572
06a4
029a
0517
fb57
feb1
02ef
fe69
01d1
f958
fb90
016a
ff04
fd97
027f
04bf
02b4
0186
fdb8
059a
ff82
01fa
fafa
fffe
043f
fdeb
0323
054e
0781
0a61
01fa
0a7c
07da
faea
fded
fb32
f689
0116
032d
fe7f
00d0
ff76
04bb
0243
0797
fcf3
fd86
fa6f
019a
fc7a
07ca
0222
fd91
fcc9
067f
09e0
0386
06cd
0228
02ad
098b
063b
030d
01e8
01f2
0229
f9db
fcd1
02bb
0144
05b8
024d
05f6
fae0
fa63
04a8
015b
fa5c
f7d3
016d
02b8
098f
00a7
0ae6
0cb2
03c7
0b00
0845
033d
ff44
f972
0375
01bc
0323
031f
03dd
ff64
032b
fef4
05be
056c
f8b6
fee0
fd09
f87f
0516
f88d
0068
09a8
0bb7
03f0
0526
0ede
0211
0409
05ad
05cf
01a8
0126
01d6
0060
02f3
0504
01a2
ff6e
010d
fb15
0291
fadf
fcc1
06f4
028c
030f
fff4
fea6
fad0
0424
ffaf
0e3a
0c2b
09df
0b8e
0004
0467
08e4
050b
fdbf
0242
03c7
fe8b
052b
048e
0236
0656
012e
fce2
02b0
06bc
f8c7
fa61
f7c3
f981
fffd
fa08
fe82
0138
077f
0c7b
0262
063b
09e1
ffbd
053f
05ec
07e7
ff91
f9e5
fff7
0248
071a
fb37
0084
03e8
f887
fa58
ffe8
0761
f810
fc98
feb1
f746
041e
065a
ffde
fdf6
0485
075a
03c8
001c
066a
0796
fdbc
0613
0197
00c3
035f
07a6
0908
0059
00af
fce1
fc1c
0090
03d8
fe72
f95c
06a6
02cd
0135
f838
0408
030e
fc6f
02bf
08e2
04dd
01dd
01c6
fed9
0927
0139
0681
fa1d
06a3
0476
fb2a
f9db
fc72
0108
0578
0067
0723
f834
fb0c
fb9f
0425
0119
f862
f577
002d
ff91
f8a0
040a
f9f9
0883
03c8
fed6
fe45
ffcd
06e9
ff2e
0408
fa36
008f
fa2c
f9c3
f854
0309
fb41
fdc4
035c
0579
043f
05c6
fc19
0461
fedf
01b3
fcc6
fd18
fd78
0423
0618
fb18
02d8
f97a
04d6
0692
fbf3
0485
f9d6
03c1
fc44
fa12
fa29
07f6
ffc6
0179
03b1
0455
fbb6
0324
fb54
04e0
fd3a
f95c
f6c1
fb14
0165
ff35
03c1
fde5
f87d
fe1f
fda6
047f
0583
ff89
f999
fe62
fefb
04f6
0221
fa02
f92e
f929
01f0
078e
fee0
054b
0691
fc1b
fd15
fc01
fa8e
f907
0346
f8d4
fd28
0534
00c1
fdb4
fefb
f881
f7a8
fed3
fc71
0046
0400
fd05
fbda
f9b4
fd02
fa8c
fcd5
0198
fe30
fbc2
faa4
faa7
fac3
0790
fa39
fe91
0521
fe7c
0328
0567
fa58
fd26
fc79
0290
05af
0406
fb6f
078c
00e5
023e
0308
0307
0799
