01aa
f945
00b5
fba9
f941
012b
fb3b
0235
fefc
fd59
0032
004f
02a1
012b
06aa
f9af
fb45
074f
07f1
0041
0551
05c0
0494
f88d
05d9
fc82
028f
0488
051b
f9dd
fad9
fdf8
ff7c
03f5
fbc5
0697
059c
0607
073a
006e
fa3b
fc88
fdb6
fa22
fc2b
f92c
00e9
0012
01ad
f9fb
075a
063d
fa24
fc58
04cd
01ba
fc72
fc12
fe58
fb91
fca3
fbc8
06ee
028d
0429
01b1
f858
077e
0460
0370
04d5
05b1
03bd
fd04
fa04
0452
05f8
0458
fcac
04b8
feb7
068e
06a3
ffba
f815
fe49
fbd2
f8e0
0247
00f6
0011
05f2
fc99
05ac
f9f7
f9bb
00bd
04e5
0349
fcd2
0095
06e1
fcb9
ff0d
fd1e
02bd
040e
feb2
f872
fbff
fe2a
f8c2
fe65
000d
032f
f9be
04bd
f94a
fa6e
0011
f8cd
fd43
f937
f9fa
0582
f7cc
00b8
fc5d
01a2
fb5f
fb79
f911
feee
ff6c
fe94
038a
fbdd
028c
0026
0366
fb24
01c7
076b
fa29
0457
03c2
fa08
fae4
fb4a
f87f
f8cf
03d1
f870
00c7
fd40
fab0
00ce
04cf
00f9
f9ca
fa8b
00b1
f84f
f9a5
0325
f9b0
01e3
ffc9
005e
fa1f
ffbb
03a5
f910
0674
0125
fc36
0195
f9d6
0956
01d3
fd29
feef
02a2
025f
03f7
fa29
044d
fe12
f9f2
00fe
fd9d
0079
ff2e
055f
fcd5
061c
01aa
025d
fb46
03c3
0039
fd2b
04b9
0718
fb26
0a0a
ffb1
0507
079c
0000
0652
00a2
fad7
055d
fa18
0686
fd43
fc1b
0048
fa45
fd0b
03fb
fe44
07df
ffb4
fab0
f88d
fd5f
01ab
0819
fff2
048b
096b
0673
05c2
fe1e
079f
0983
ff7f
08f0
06b7
0215
0260
ff05
0052
ff44
061b
ff27
fac9
fad1
0221
04d6
06b6
fe26
05f4
feeb
055a
fa6f
0303
02bc
fcb8
07f4
04ba
07a3
02e3
08b2
020f
ffc0
0067
0e48
feec
0b26
0810
00f9
0658
f7ab
f6f8
0175
0783
fc2f
04ab
f857
0603
fd9b
0376
02b4
04f5
0545
0106
04ad
01d1
0650
0425
000d
fc01
0976
04ad
08c2
0515
ffd2
0c23
05a8
03e3
fe9a
03b7
05b1
01bc
017c
f81f
fc11
06c9
05fc
fa69
0237
067c
fe5c
fe16
02b0
0174
fdc5
faed
f80f
057c
036c
05fd
02fd
0568
081e
0512
0a55
fe6a
fdf8
0211
fbc3
0131
fa60
0561
0202
0210
03b6
0727
fb0c
07a3
fd09
00e9
fcd0
fcfb
fc4e
f8b0
00cc
f705
f8f6
0906
097d
0db7
0743
04c9
0513
01c5
008e
ff37
f967
fa9b
fbed
0615
f911
fa0d
020d
fc50
fd1c
0404
fa30
fafe
01c5
ff8d
f6cb
fc04
f1e1
fc89
0304
07e2
0a61
ff9f
0980
0527
fb1f
ffa8
f874
fd02
ff6b
fefe
fe49
0438
fb62
fd01
083d
0833
014b
01ac
fec6
0506
f702
01a2
fc34
f9fb
f476
f75a
fd2e
0460
093b
ff86
0c3c
01a5
ff44
0748
ff2d
01fe
0171
fb15
045c
fbae
0733
ffef
0715
f88b
fd85
fbcd
fe73
00e0
feb7
fb27
fa6c
0079
f8d4
fef5
0402
034f
0d0c
0040
0452
057a
056b
f81d
ff56
f9be
02bf
065c
fd1b
0707
fff2
f833
f83f
0695
0530
fcff
0300
ff13
f8ef
067e
fae6
f879
0231
0379
fef2
085d
0311
0268
06e0
00a5
fad6
03d5
066d
fb42
0497
f8a7
fb8d
fc0a
03f3
06e6
fdd7
fee2
facf
fe54
fa5b
fb87
fae2
0327
03a9
074e
f99c
fe15
0731
0263
0991
fc89
0724
00ec
f90c
f878
fd8a
0040
f99f
05e1
fb2e
0474
043e
fc03
0582
0199
0000
f87f
fd2e
ffa3
ff6f
0537
f903
057c
0508
0917
082a
01d1
0280
fe5c
042c
03ce
f8f7
fa0d
050c
051d
fa74
070f
fbc3
ff56
f997
fe4b
fc15
fc8f
fe0e
01a4
ff7e
fdd9
03fb
013c
00be
fab5
0151
0280
fedb
f985
0335
f86f
f7ea
f7c2
03fe
fbf1
fa9c
f8f4
0060
f97c
04f8
0680
fa75
f86a
face
fc5d
f94c
f928
014b
fe27
0070
fc76
031f
049b
fe1d
ffce
fb63
ffb5
fa9d
fa68
021b
f7a3
0695
f86e
0099
fb20
fa86
fb95
01b4
03a9
fb50
f8aa
0594
0478
01c2
f8c3
ff45
0077
fc07
fdde
0033
04d0
f918
0301
faba
051a
04ab
f9ef
f7f7
f983
f938
063e
06b6
0366
fd7d
01ad
fe9a
0723
ff76
fab8
01a0
fe4f
fa9e
fe29
fe6b
0220
f950
ffd4
00bc
fc9d
07b8
051b
0062
fad6
06c5
fdba
f7f8
06ec
fead
fe55
fb78
046a
fb4b
fd8f
fa9c
05ee
fe0c
fd2a
0224
00bf
ff1f
fd8e
02c9
0264
fd06
fe6b
0333
fee6
fd78
faf2
06e9
f982
fc84
0424
fc9f
05f6
fea5
fbef
0532
faca
fb45
f8a9
00f4
febe
0198
0064
05f2
00d2
0452
030c
fde4
0934
0243
053d
0646
043e
063b
0519
ff3a
0127
04ce
fe99
0587
04fc
07d1
0338
05f4
01d8
0520
05be
ff6b
0638
fa29
fc57
fc27
fec0
07b2
fb77
0141
06b7
00d9
fce4
02dd
04e5
ff32
098f
084b
fe57
04af
fdf7
fc11
fd57
fd8f
047d
f8d3
fe9d
f935
fcea
fa4f
fcb9
0228
fc09
f93f
facb
013e
fde7
006a
016f
044f
036f
0012
02dd
fccf
0986
fd7d
043d
0672
05e7
023c
ff1b
02cd
fecf
0100
fd0b
f859
fed5
fb60
fb78
06f1
03dc
fbc6
03b8
05d0
fff3
f99b
ffea
ff30
0297
0305
fe81
077b
fa6d
05f4
fafa
fbae
0301
fece
00c9
fed0
f89a
01cf
07ce
fa7d
fec9
ff06
