05b6
0705
016f
f94c
feed
f8f1
0145
fe06
fbb3
f88e
f91c
00d4
0473
fa68
fb78
071c
faf7
0711
fdc2
0514
fbf3
fbe4
0003
fa12
fae0
05cd
0108
fc52
fa7f
0086
fdb4
f95a
fa88
0491
fec3
035f
00bd
fbba
0697
fdcd
fed2
fe4b
fad8
04fc
fcd1
fcad
0551
f98e
fb04
fd2a
0729
fcc6
f856
0649
f90f
0431
06b1
0235
04d0
0252
06b2
021a
06ea
fd0d
f9b1
f962
f872
fd2f
0614
001d
f82e
feca
024d
0573
fe74
f7b3
fee8
fcce
0639
0230
0717
fcdf
fb0f
0401
06a9
006a
fe23
fdb4
fc7b
03b2
fee1
f8ef
054a
0692
033b
0248
fad0
f883
0207
fe4e
01e8
fc77
feab
fdc7
05dd
fd7e
fdea
0097
0716
fe50
0549
fcc7
fda1
f9f3
0509
054b
fdff
0249
053d
fbaa
f98f
fde1
0430
ffab
0746
fcdb
fc1c
fca0
fc00
0222
0352
00e5
f88f
fd2a
fa80
ff87
fae3
ffc0
06c2
fb3c
fa0a
001c
037a
048f
fff9
0255
fe50
f86f
0534
0221
fcbf
06ab
fd6a
0523
02e1
0acf
06e3
fdab
0a3a
fe69
fa1e
0503
0385
f91b
fd67
fa9e
0341
06b2
fa55
033f
fca1
06b1
f9cd
01e2
0874
fd12
ffbb
00f3
fd5e
0b34
ff8a
057d
0686
01cd
05a7
08f9
023e
02e3
0914
fe15
06a3
fcae
fb6c
fb25
0518
0710
ff9a
05f2
05b0
f960
01c8
fd5f
fa26
03b0
025d
02a1
06ae
020c
037d
0671
0a3f
04c7
00c4
07de
0073
028d
077d
0788
fe17
fccb
0313
01e3
fbb5
f845
03e1
fb86
0677
04a5
fd5c
f991
fae1
fd0c
07a6
0543
0761
084d
ff11
043a
0742
0033
0667
0a86
011a
08e2
ff62
0924
0a81
00cf
049a
0624
faee
015f
00a4
fe42
fb81
f90d
f9ff
07be
fd30
03a7
fc7c
085d
02fe
ffa3
065c
ff50
0341
fe95
ff93
08c9
089a
0906
0995
08b2
09e5
ff49
0789
054a
ff54
0238
01d0
fbc2
020e
fd84
0711
fadc
00a4
076e
fd2d
fd01
038c
0495
fed7
079c
00cc
048d
01cb
fab3
feea
079b
0684
0381
0098
fe1c
0597
fa45
0851
fab5
f895
fd36
005a
01bc
fadc
0102
053f
f9d9
0170
0495
0394
06c7
058f
0729
0688
0012
00ef
fd70
fc02
fb24
01a8
007f
019d
0a83
00c0
0585
f946
f986
00f3
fe21
fa3b
00eb
f923
f95f
0471
fb98
ffcb
fac2
039e
027d
fe5b
0a29
fe6f
fedb
f7d6
f7fd
feae
fe77
fd9b
0368
00ec
fd7c
fb20
0537
fe7d
f9a6
07fe
04cf
f9c1
ff8c
feb3
fffa
052c
fe3b
04b4
fc7b
0170
03de
090b
fe0e
fff5
f704
feec
ffd3
0354
f537
0306
0449
052d
0549
f8e9
f8e3
026d
f9d0
fbbd
03a2
ff82
fc87
f89e
f8a3
0469
fa56
04c9
0335
fd1c
0133
00d0
ff48
03a0
f4f7
f9ba
f4c9
0303
ff2a
f6f9
f70c
ffe0
fa39
fd6b
0189
fc9d
05df
fa1b
f926
ff9d
0142
fe4f
f8ca
0550
0366
f9d4
024a
0475
002e
f810
0324
f56e
f8ee
0062
f5ef
fb1b
fff8
fbab
03f0
ff6c
fc00
0169
ff08
02f0
f8e4
fd93
04c0
ffff
02c8
fc96
fa8a
fa16
f5d8
f8ca
f4e6
01d5
fd39
0161
fca9
efa6
fc4a
fb9d
04db
0223
0259
ff84
0527
0075
05d5
fa16
0663
feb4
02f6
ff76
0682
fd32
fbb1
0359
01ef
077a
fea6
fb3e
021d
f893
f8ea
f1c6
faff
f96e
f26e
fa79
fca0
07a6
0101
06a1
fe5d
0608
03d0
fa6b
fcc2
0664
fb8b
fac3
fad0
fb8e
ff42
0451
fe01
06d3
025a
04d0
f871
fbf9
fa6d
007d
fbb3
fc9c
01b5
0759
0050
052d
0055
0781
0619
066a
04db
0670
fa88
f9d8
ffc0
fe89
f8e8
fca8
f968
0162
04c2
ff3a
06a3
0764
0972
07c9
f8a1
fd41
fa86
fa78
faa1
fdf9
fd2f
04b9
0302
023e
0172
fdb6
0067
05b6
0183
00f3
06ec
035c
07c7
0236
fa39
073d
ff3d
ffe5
056e
01b9
07e9
fd39
0739
069c
ff3c
0503
0748
fdd5
0133
0416
feb9
019d
fda8
0411
0092
fb2c
fb1b
072d
03f0
fad0
fbc3
fbc3
052e
0345
0976
019a
0df7
032e
0c8b
01ab
0818
0763
fdbd
0669
01c7
0545
0333
0270
0500
fe7d
05a6
ffeb
00fe
0560
04a2
fdbf
fe90
fd12
fc74
048e
0306
065b
fb89
0a4b
ff57
03b4
016a
0b47
0533
03b2
0a77
fdfb
05a3
098c
02ff
fe8a
0462
fe34
fb07
f99e
fa34
0184
0791
fa62
01df
058e
fda3
ff10
ff78
f848
f911
0534
029d
05e6
0642
02f2
03fe
0b7d
07b8
0ca7
03de
0810
04c7
08fa
fe79
fa42
fe84
064b
006e
0156
ff76
06a2
05a3
0614
0354
0561
0688
f831
038d
fdcb
0001
0538
02b6
0117
ffe2
017c
0558
05a1
fb70
00ad
0459
04d8
fd79
f9cb
ffca
f891
043d
05dd
fd76
000b
fd55
f9ee
f946
022b
f968
fe02
ffbb
01b7
040b
0215
0453
ff0b
0183
f9bc
04bb
03bd
005b
05f9
ff6f
f900
fa07
0520
fde4
077c
05c8
02a6
ffe1
f82c
fb0c
fd6c
f841
04d0
f905
f98c
f960
071f
fad0
0766
fc30
fb47
051d
05a1
070f
ff87
f975
04f0
076a
f9ad
fed9
fe0b
f8be
030d
0610
0479
f8e4
0173
070d
03d6
fcd4
07ea
0145
06c8
0040
fd17
06c2
04b0
fc30
fe68
f8d5
06de
fdc7
057b
076f
f81d
04f1
052e
f90f
fbc9
01b8
fd3b
01de
f9d4
001f
fea9
0521
