fb66
01c1
026b
f8a8
03f3
0797
f9c7
f938
0173
fb2d
04fa
fb31
03a5
06c3
fc1f
01cb
0002
01b4
feb7
fc98
012f
037d
0246
04d8
fc78
00b5
f9ec
02b2
025d
f82b
f867
f9df
f98f
fb8b
04de
0379
fb09
0614
0380
fbaa
0013
fa0b
fe38
0511
fad5
068e
06a2
f9b1
fdca
0026
064e
fc69
0170
05f5
07d5
02af
035e
0589
f936
07b4
01a5
fcc9
fed8
fe91
04e5
0191
0169
f9c9
fbbd
fd2a
fd3e
01b7
02b3
ffc0
fad5
fa11
010a
fe5c
01e7
0564
ffb7
f99f
ff20
fa97
fdae
0074
fe02
f94d
fc6b
02f7
f9cd
0564
f7e1
fb1f
fcdb
fb14
f710
ffcd
0353
f7ba
052e
0688
0444
077e
f8d4
04cd
fca9
03f1
feb3
f948
020e
fed6
051c
f80d
05b9
02e1
fdf9
fca3
0011
0301
056f
06ad
f6ea
04a5
0354
feca
fda9
01e7
fb59
f86a
fb40
01e7
0515
0677
07c0
066e
fed0
0217
024c
03ae
05fc
023a
0193
0325
facb
0440
03b0
fa96
fabe
0518
ff82
fac4
03d9
03e1
f722
017a
0250
fede
0727
fc39
fcc9
040b
03da
0152
07fe
05fc
fd63
f93b
041b
0553
fd81
fbcc
078e
0029
05fd
0639
0732
0433
fb04
07a1
0446
fccf
078b
fc32
0671
feef
0177
ff84
0553
03d5
fd3e
004d
0173
05c1
fca4
06bd
027a
f825
0516
fc96
013d
0299
f917
fa22
0278
fc69
0021
fc00
0123
ffdb
07b0
0714
0342
fc90
0409
fdcb
060e
ff9a
fe17
077f
0964
0733
fe72
fbd1
fc2c
fe0d
02ce
fcfe
01fb
f9e1
0589
f997
03a7
0568
fa23
0601
0023
fc0d
fda2
f6c1
06b5
fdd6
065c
0529
026c
fb61
04e1
fc31
02f3
083f
0086
fc56
00bc
059c
f898
03b0
0189
fd1a
f9e3
fcd1
fd76
0269
ff55
ff27
f8a8
0398
f504
faf6
ff49
fe2e
ffc7
fdb9
048a
0944
047c
075e
fdd0
067c
0485
ff19
feff
0438
0432
fc7a
fa04
0210
06e8
03aa
ff4b
0096
004b
0af9
fc82
0281
f2ef
025a
f6fd
0749
fcfc
06ab
007c
fe02
03ab
f9b5
0164
0164
f8ed
0375
fe17
0067
f892
f802
fdff
fc23
fea5
06a4
0751
0295
0593
01d7
01e1
062c
03d6
0434
0315
08b0
0417
009e
ff9c
fc02
fdf6
f9ea
006f
05ca
041e
fe46
0024
fc63
fa8b
fe09
06b4
fc5d
ffcd
055e
08a3
05f4
05ad
0fa6
0a15
06e2
fb25
0a1c
0538
0a17
fdc0
02a4
fe82
ff19
045e
f81c
fc48
04e7
0791
fbae
f930
f85c
00fe
fc06
0665
05a3
051d
065e
fdd0
0669
08fa
0a63
04ad
02b4
038e
07e3
09f2
0afb
09d1
020d
0695
ffb4
f65a
02fd
fd1d
fd80
0616
fbe3
fb9f
06eb
0377
fc9d
0233
fc5f
0739
096b
0737
0adf
06c0
036a
0655
08d5
07aa
045c
0761
0d97
0927
032e
fa52
005b
0254
ff99
038a
f8d5
fe1c
03b3
f9ce
0070
fc89
05d3
0152
fbd7
0520
0652
02c7
0691
fd2e
03e3
0180
0445
076a
01c7
0675
0ad2
fe59
06be
02e7
fc86
fc56
fffa
0628
fa21
00c5
0110
063a
f955
feb9
fc59
0435
00c7
fdb3
0062
fc97
0646
0553
01ea
fe41
fa03
ffe9
044f
08de
058f
0197
085a
02fa
ff21
fd20
f7ba
fae8
056c
fa55
fcba
03a7
f823
feef
0181
05b1
01a4
fab6
fae2
0789
017e
fd74
fad0
0793
fe2f
054f
0170
0b74
0244
04d2
0460
039f
fcb4
03d1
f798
ff47
0066
0175
0443
03ec
0171
02b8
fa47
f8ce
fe6c
ff02
fa36
fb78
fd3f
f881
f832
f709
fb4f
fb0a
0093
fc25
050c
fc31
ff04
062f
01c8
fd07
f6fb
f81a
03e3
fdcb
fe26
003f
0278
0291
04e0
0209
fecc
f8ea
012a
fe42
007a
f6df
f91f
feb5
fc4a
fd83
0132
0426
ff43
f940
fbcd
066f
fe71
01e3
0559
f98a
fc04
0546
03f2
ff58
fcaa
ff85
06a1
0581
0121
03b3
f8a5
fd20
fd0c
f582
fcb7
ffc3
f999
02d2
fbce
01ac
03cc
0479
fcee
0229
f89c
039e
05dc
fc6d
f9a7
0008
02c6
00c8
fea4
058d
04ba
06ca
03d6
f96a
fbc4
ff0a
f9b7
f77c
fe5e
f9e6
faa4
fe21
fff5
03b2
fdd7
03bb
fbef
fe44
013c
ffef
fcbf
f85c
fba1
f81a
0521
06ad
f8a5
0114
00fd
fd9f
00f1
015a
fceb
f98b
0497
069b
fe55
0308
fe61
fe44
fb46
0341
0656
fe0c
042e
080d
0477
002c
fd35
fe8c
f978
fa5f
0461
0087
fcdb
fad7
004b
f888
0546
0199
fa19
0787
ff75
ff10
0147
067c
0018
02ec
078b
ff5b
0630
028d
06bc
fa34
00e8
ffd9
03a7
03fa
0663
f98c
0311
fea8
ffff
06c9
04be
f919
f916
0079
07ea
f9ac
05ad
ff2d
076c
01a8
fbc7
0156
fddb
05f0
fef7
f9e9
00cf
06dc
02ba
02a3
0819
062e
f897
059f
fc36
f826
02af
f962
fda3
05a8
fda2
04a0
0263
0127
0660
fa0b
03da
fc89
faae
fa72
0232
0207
ff3f
ffa8
04af
fb65
faed
fdf8
05a3
faa9
faf6
fe97
f96c
02ed
055d
067f
0141
0504
fa37
ff73
04f8
fcb6
fb7a
fcbd
fbe3
04ed
0308
fffc
fec0
ff7b
faa2
02af
07a7
fa42
fd87
fa53
017b
0424
fb2f
00cd
fe44
f80f
fcad
f8cb
00c4
0220
05bc
fa7e
fa6e
0152
f804
fd41
0735
fd77
010c
04b7
fcde
fc41
f96b
ffd6
ffeb
ff4d
05fe
f9ec
0121
f991
ff3e
f833
fadd
