fa2b
fe8c
fce7
03c9
ff77
f93c
fda5
fa64
fe7e
fdcd
fe92
014d
06e0
fc61
fccf
fce7
ffa4
0469
f88b
06c4
fad3
fcc9
0181
ff3d
fe6e
001a
007e
f8ef
fe4d
031c
ffa8
f80b
f8cc
04c6
017e
0544
02aa
0547
fd25
05c2
fee2
fde4
fa62
032d
fe3f
06e7
fa2e
002d
fcbf
0358
035b
fdb2
fe30
ffe8
0209
fa72
fee6
071f
f84d
fdcd
f8d8
fcac
f8a5
0527
ffb9
f9ba
0669
0569
fc0b
fa46
02eb
0242
01fa
f99b
f8b2
03ad
080a
f9ca
07af
fb53
0030
fe85
fbfc
02d6
0042
fced
fd48
f9d7
ff4e
0698
04da
ff39
fa9f
024c
075f
fb53
0478
07e7
fcc8
03de
0523
fee6
feea
03d0
0512
056e
0024
012d
0462
0454
fcb2
01e4
0552
f8a7
06db
055f
07ef
f9ba
0815
0815
05af
08c5
09b6
088d
08a2
0788
0157
0649
04ee
ffa0
03c2
040f
03d1
fd3a
fdb1
00ed
036c
01e0
0359
fd14
06b6
0228
06cc
f9e3
fbb2
faa1
f9c1
0703
fd0c
099c
0b1c
fd7d
fc3f
0523
075a
020f
03bb
0504
08c7
05e1
0601
fde6
f983
0655
fd8d
0616
f869
fbf0
fb44
0641
fdda
fa6b
f8f1
052b
019b
ffe5
0b05
0ab6
04f4
080d
07e5
00b3
0484
06e4
03b0
ff3a
feba
011b
fd89
f92b
f912
fcff
fa56
022d
f947
037f
f97e
fc03
06e5
f892
059f
ffe8
06bc
0444
ff9e
fa3a
0710
fae0
03cd
00ea
fc79
ff8e
0829
fda0
fc7d
059a
f985
06f2
f95e
0316
f7d6
fe50
045f
fd45
fbff
ff9b
fdce
fca2
fdf8
fa5d
09f0
049a
fbb1
0399
05bd
03c0
f8a0
02c3
0423
fe04
011d
04db
045b
fa37
fbf6
fc54
0429
f97c
ffb8
fe99
024e
072f
f8f8
0465
0468
026c
f9d4
049e
fb2f
fa03
f70b
f721
f9eb
f649
fb02
fd2b
00f3
fcba
fe9d
0260
fe4b
feaa
07aa
01f9
fd9e
f681
006d
f9b4
0741
0517
f8f1
fb9d
0334
0429
006a
f8e4
f9f3
f80b
fcbf
f9ea
f3d2
fd88
f8dd
01ff
fddb
0776
fbb8
ff54
fe9c
fcbc
0466
fb48
fa7d
fc53
fcf2
064d
0721
04d6
06e5
ff8a
07b8
0125
fa89
f9fd
0160
fb7a
f44b
f48d
feb3
feb2
f3a1
f520
fa31
ff71
044e
ff3c
05d1
051d
038a
fce9
0296
0631
056c
fb34
02fc
03b1
fab0
fbf0
05d8
ff65
014f
0118
f77b
fe6d
01b0
f7cd
f9a6
0146
fbcf
f5f6
ff6a
f87e
0222
03e7
fa27
00d8
fa1c
0019
01b4
fee4
00ac
00fc
f8ff
fc31
056e
072c
076f
07aa
fc7e
f624
f721
fc50
fd16
f969
fa7a
02df
0349
fedc
019a
f88a
ffdf
05e9
fad4
f881
0064
030f
0222
00e4
f95b
fe1f
f8cf
fe46
fb38
ff50
f8b2
f91a
ff3a
0159
fe64
ff77
04ec
0a62
0657
00ed
012d
007a
05de
fa78
ff02
0820
0791
0329
047f
0085
08ab
08c3
fef4
ffeb
fc19
0146
0200
fe21
f84e
02ec
f823
f9ca
06d5
0123
fde0
fe16
02cb
06d6
fe2a
0310
fc40
fd89
fd9b
02a0
fe08
fec1
034f
0278
00c5
fbeb
0316
036b
f896
fa80
057f
00aa
f85d
0779
08c9
0181
feec
0072
0560
0987
060e
fea3
03b8
fdf1
001a
07ff
075e
01d1
024c
0a79
01d8
fffa
fca3
05b0
fc71
fe4a
f9bf
ff5d
008f
00dc
07dc
0237
0259
01cd
0124
00f7
0328
0693
fc56
0328
033d
fbc8
ff96
0177
fd2f
0549
078a
0356
09e0
08a3
0790
0720
fca1
0324
0512
faf5
fbac
fa90
fec5
0603
0640
feb5
fda8
ff3f
015d
01eb
04b1
faf3
fee0
0266
ff88
fd7b
02cf
055b
07fd
ff09
07c4
0870
0510
01dd
02c1
0237
05f0
0394
0060
0687
fade
fc80
097e
09dc
04ec
0553
02f4
f999
06bf
fd66
0198
044c
002f
0477
06e5
0560
027b
0518
082c
0598
fe05
0793
08b9
fe2f
fce6
0305
fa86
01cb
0674
05c7
fca9
fe53
025d
ff61
0229
0835
052f
0625
0a6c
fda5
02f3
055c
0743
040b
0a7e
05f6
08af
ff7c
038d
04af
03e2
02b8
fad4
fbf6
0646
f8c2
fbaa
064c
06b5
01d1
0956
06c4
01cb
012b
fffb
fd01
ff21
0033
08df
ffaa
02a1
07b4
fe9f
ffaa
0737
0609
0675
0475
0258
fe95
057c
07f2
ff4d
f891
0355
057c
fc49
0647
fda4
ff01
0474
0406
fd59
0794
fc5f
fdf7
f998
00ca
0115
06f7
0035
0333
0740
019f
f9bb
0280
fcff
f88b
0181
fb7d
fa29
fd85
072a
034a
017e
0502
0583
ff51
035d
0282
fff1
f8fc
ff68
025e
fc68
0175
f87f
fe82
ffcf
0406
faf4
05c4
06bf
00e8
ff77
fbba
037e
fe12
064d
00f7
00ff
0389
f8fd
fa4a
07e1
f888
03a8
0516
facc
0455
fef7
fc7c
fb0f
ffd6
f9b6
012e
fa2b
fa3e
fcf4
06f0
f88e
f871
fc41
0693
0382
010b
ffb7
f912
fbba
fb7c
0560
03bd
fd30
0612
f879
ff61
0598
febd
f8fe
070e
03b8
0589
034c
04ae
f80b
f9ac
02c9
040a
fdbb
0597
fa57
fa24
fa10
0534
02c1
fa01
06aa
fcbc
f809
fae1
fd6e
0197
ffab
fcbe
075e
00f5
fb5f
05cd
0220
05b8
fb15
fb75
01da
f86c
0240
fcbf
f8e8
0574
0616
059a
02e1
0239
068b
fd95
0549
0639
f948
ffbb
f91b
04cf
016c
fc28
07a2
ff61
071c
faca
0768
0180
0417
f826
fe45
ffb9
fbb5
0652
0587
0659
f951
fbeb
0017
f8e0
