f6e2
0e27
0c76
f280
f7c5
067b
029d
0a2c
f94f
097b
f33e
f515
f389
0952
0ae5
fbd6
02fa
f483
0309
092d
f278
f264
0a7c
03b6
0550
04bc
0982
0029
06b6
ff6f
fcd5
f883
f9ca
03b6
063c
0a1f
0272
fd2b
0da4
0f3d
0e49
0074
fcc1
04a2
093c
f44d
0d3c
f543
0fe0
fa45
fc5c
f1f2
015c
03d2
fbcb
f712
0aca
fee0
f366
027f
0bef
fa56
04f1
fa34
fd31
f7a5
0658
0147
01d6
fd47
f46d
011a
faaa
f8d2
f5f0
f169
f757
08d9
0f80
0f24
f9fa
f737
fe56
0922
fa63
0675
f660
f023
f379
0b20
f467
f6fd
fdbb
fe20
f59e
faee
f930
faa3
efdc
f910
0d52
fc40
0a43
05d9
0ade
fd75
0d82
f027
0cfe
0ab8
0e1b
ff05
0bf4
0eb7
07c1
f224
fd33
04c4
0227
0278
098b
07f7
f55b
0dc7
ffa6
ffe4
f2dc
f691
f4c3
079d
ff91
08c3
f396
09a7
037b
f9cb
f8c8
fa2d
f4ff
0938
022d
07a9
f128
03d5
02c0
0c2b
07f6
fedf
f01b
0601
f9bf
0c79
f219
010c
f3fb
eea5
0d6b
0b3d
02cb
fbbe
088c
08d8
01c3
09b8
09a7
07bf
0ed7
0cc9
04f8
095b
fc6f
049d
07c3
f612
f698
f8f3
fda0
fc9a
f0d7
0132
fcc8
f557
0c8a
f61d
0a61
0c44
ff8f
0e03
08e4
0216
0854
0224
0360
f79c
f2b1
01ce
060e
feaf
0834
024d
091e
faa7
060e
f164
0257
092b
ecca
04b4
07a4
fc36
eedc
fd6b
0f31
01b3
0c2f
f392
0d4d
081c
fe60
f968
f0c4
07b3
f287
fb52
091c
0d26
0833
f20c
f3bd
02aa
f02a
08d3
0ac9
ffcc
f2be
fa53
0567
0965
0d5a
f6d8
0fb7
ffda
0d96
f1ff
f02e
f997
f45c
fcbf
0b3f
f8a4
008f
0958
f3c6
f0b3
f69c
0e4a
f21f
0bff
017b
f0be
0591
efeb
0652
f01e
f4d8
0e2b
ffda
f4e3
fc74
f465
f899
0cf6
f2ad
0894
0453
01c2
07e8
0077
f0ae
047b
080e
f496
0cd4
087c
0ef4
f869
eef7
fa04
07a4
f87c
f568
018d
0e03
0a50
0cc5
f2a2
06f4
0ded
feef
f05d
fa13
f891
0be2
03df
f7c9
f0ea
01c7
00e3
fc12
0b1f
f81c
f155
efeb
03a4
f397
fe2a
00a1
f8d4
f0ba
0aaf
f792
0be9
fad3
0959
f6b3
0917
f118
026b
0d9e
0760
08ca
f9d2
f9d2
09e8
fd59
fb9c
0983
f169
027a
07f4
00e9
0012
0ca4
f9ea
0afc
0735
05ae
031c
0077
0736
0e4c
02a5
09a3
f234
07a2
064d
f0bc
0355
f54e
f362
fc5f
0e35
f70c
02fc
fde2
0b10
08c5
f686
0640
f8ac
f90e
fd3d
fc29
f1fd
f0a7
0c68
fe03
09e6
11c4
068a
059c
eea7
ff5b
0902
0a67
fdc6
ff89
f6f7
fe2e
065c
0c10
fcc6
0096
fb7f
0843
0815
0a8d
f416
0e73
f392
00b6
f735
00fe
fe37
0b7a
0981
f5c8
0d85
0235
f67e
03dd
f94f
0199
03db
f5a4
fa22
0da3
0137
03c4
0d59
ff7a
0a08
00af
feb3
f232
fa56
030d
072f
f172
0416
f07d
f623
06f6
0460
097d
06ed
04f4
f992
01ac
0402
f5bd
fedc
0469
f558
f2ea
0f67
fdfa
ff1e
f9ef
0982
0f6c
f3e4
f5c3
fa0c
fd49
0626
f48f
0bef
fa27
fd63
f7a0
085d
f9f9
0a5b
08c8
fd90
0061
f19f
0a33
0cf2
f0c4
0b2f
0130
0db7
ff2e
fb6a
fcf6
0d5e
0fcb
f0f4
f9ff
faaf
fc6c
07ca
f4b6
f34a
f6e6
ffeb
f7ba
0dc4
009b
07bd
f50f
067a
f031
0259
fb2b
f7a7
f9da
f2e8
0410
0f22
f618
0aff
fed1
02bd
043e
f411
039b
025e
f65a
ef59
fcee
0217
080e
0eaf
f38f
ff39
0a4c
0334
f5c8
f025
eef0
013e
ff49
fc51
06b2
f22f
0ed9
f2e0
fbcd
f86a
f6ff
05cd
0a40
ff02
0c2f
0b23
f17f
0999
fd62
0a79
f862
0ec6
fec9
03b5
0627
ffc7
f7ec
08f7
fb8d
07e0
099b
0b0a
f454
ff7c
0b6f
f288
035d
f8eb
fd3f
0744
0dbd
fe05
f0b0
f3e9
f8b6
feca
f3af
f1cf
f046
ffab
0550
fa2b
f2d1
f2d2
0412
fdc5
0876
ff36
fe1d
f330
071e
f56c
fb67
031b
f57f
f6a0
0f75
fb40
ffef
f93d
efdd
0147
0220
0986
06fd
f2f8
086a
03f6
03fe
f57d
03dc
f5ad
05b0
f203
0a60
02c2
0993
f118
032a
0715
f5d9
f8e9
f109
f0ff
fa40
f4c9
04f1
06b7
013a
04ea
f862
fdbe
f343
093f
09ac
0e0a
f908
0462
f093
faa4
fcab
040f
f592
f633
f961
0d89
046a
f698
f8d5
0e63
0db5
0250
0030
0038
f66b
0ad1
04be
fdac
f39b
09fa
0802
f683
035d
fdab
fd0a
f491
ff39
f828
f936
0237
0900
00fd
f883
0930
0d52
0997
0670
02e2
f6e1
07e7
0045
fc10
05b1
0539
f4b1
0e48
0d06
f1eb
fdb2
00c0
f9c9
03a0
0e6e
0255
0512
fc18
f7d7
f8cc
f9c8
04e3
0ce2
07b0
044b
076d
fa40
0159
fb4f
f623
f26e
ffdd
0bf2
f165
fb98
01bb
02b6
f8d0
06ad
fca8
fa8d
078f
0833
091f
fa5a
f44d
f2d5
0b07
f3d4
0703
f965
fa8a
f56b
f3bd
fbed
0aa5
091e
0070
f1e3
f5be
0680
0bae
f779
08cb
07ed
f0df
f621
f444
0c1b
f909
0c16
ffb0
fb1a
fffb
07f9
f413
f795
02d9
f76d
0cd3
f69c
f52c
f448
fd37
f39a
ffb7
09dd
0760
f9db
fb81
0c66
fa58
fe9a
ff2a
0ebd
0360
0252
0fc8
fec4
0ce5
f20a
0a50
f5f6
06fd
fd95
fabe
fd53
09b1
0175
09fd
f6f5
f8e9
0a74
01ea
