0178
f722
fd30
f925
f43c
0ec9
fa3a
036a
0514
0c3e
fd0c
060e
0ee7
0058
f1e4
0628
f530
f5ae
0a27
fb1e
fc5a
0dd8
009e
04d9
0510
f9a4
0701
05e4
0941
fcb9
f04d
f0f2
0dfb
0e03
0035
fcf6
0242
f82f
f245
058d
02de
f427
ff5d
0ec2
fdcb
f673
0c6c
f7de
0cd3
0d1e
0b2b
023f
0f2a
0e5c
0d8c
fa8d
f3a7
029d
f850
f3e6
f543
0d05
f418
f80b
f996
f433
0a1a
0049
05f7
0ba8
fb27
f896
09ee
f574
f55f
0413
0bdd
081b
0362
0a54
0d59
0188
0da5
0338
0a41
04ba
f5b8
0e0c
030c
0c14
f388
f50f
f969
055f
0d12
035e
f8fe
f555
030b
0f7a
f3be
036b
fcaf
0c68
f749
f143
05ac
fb05
ff07
f4c1
feaf
fb2d
0686
048f
f6ee
0c8c
f46f
079d
f931
0682
02e7
f36d
082a
ef57
036a
fcc2
f4d0
041f
0382
f63d
ff84
efb0
0708
05f6
06d8
0b71
fc97
0efc
f75a
0e4e
f538
066e
faa3
0c10
066e
f449
07b1
01b0
fa97
06fb
f50d
0278
086c
0114
faee
04b7
fcce
09b9
0784
f45d
f69a
0149
018a
feae
f922
f514
fb69
ff00
0381
0ae5
fd96
0e8f
064b
ff70
f27d
f012
047d
0e46
f8c7
fbb3
0d42
0870
fc6d
0e56
fabf
ff84
0b13
0e81
08c5
f18e
f343
fad7
098f
0340
f8a9
f179
fd3a
f9d1
ff8e
06dc
0863
0d39
03f7
0f5d
f827
f5e2
0af1
112c
0410
f2c6
0ce6
f6ae
0381
fe13
f4ab
01de
faf5
01e4
f4ba
f110
0115
f5b1
fdfe
021c
0c7a
02c9
0e3b
043b
f738
0ab8
1003
0d5c
0234
f970
015e
069d
f9df
ffbf
f212
fe86
f618
0099
1070
f1ae
0d45
0b93
00d7
04de
f321
0c3b
fb1c
069d
f717
0b97
065a
0e73
0e3b
0e84
f2ef
f8de
0c18
f2e2
0964
0384
f101
04cb
03ad
f261
102a
096d
1069
0cfc
0850
fd1f
fd2c
0b0e
f980
0d17
f433
fa0d
032f
f441
088d
04da
f2b0
07c3
ffd4
fce4
00cb
0cd7
fdad
0c77
faee
03f7
032b
0a20
fc04
0951
fa81
0778
ff7f
010c
0843
0907
0cfc
f9c2
f8d3
0953
0477
f285
fb92
0c20
0225
0f9a
05f8
0db2
08da
f324
fbca
095e
febd
0fdd
f353
fe5e
0bae
055c
044d
0d68
0f74
f5c0
0bcf
0b6d
024e
0c07
f7c1
0f64
06e4
fd04
f1e6
0325
0db4
0f7d
0d77
0aed
f6ec
0e21
01db
fd44
0e25
fac8
ff83
09f2
0d9e
05af
0da9
f79c
f457
0df9
0afd
f914
09c0
0029
079a
02e8
0840
fc1e
f5cb
0ae1
0b62
f438
fa23
f6e4
0375
06ac
f374
0cc1
0be2
fadc
0d76
f061
0937
f49a
0f7e
facc
0723
113e
067e
085e
fbb2
0aaa
f044
0446
fc4d
0b31
f623
0339
0de1
f738
0282
022f
f02d
0d67
feba
f8c0
0357
f908
09ab
fd34
0f70
fcf2
05b2
f907
02fe
f74c
0d83
022e
f0a9
fed8
053e
0ae5
098f
0bee
fb00
030b
fc91
fcab
0f21
fbbe
0534
fe9e
0198
0006
f2b4
0306
fc2d
f23b
0642
03ce
04cf
020f
0bef
0a63
0347
105e
061c
f935
0982
fa22
f00e
0308
f75a
f213
f0cb
f3c5
0e2f
effd
f3b4
0a9b
f6b7
f4f4
f38f
f0cd
03c6
020b
fe51
0cd3
f48a
0759
f74f
f9b8
f5b8
0bf2
f477
04f7
f456
fad7
ff9c
0fe1
f0e0
01d4
0c27
ffe8
fab5
02af
0cf9
088d
0f7a
f6ae
01d9
fb92
087e
fa62
0ac4
fbf5
0ab9
f0d1
f96d
085d
01a1
05fe
f8b5
f9d9
f065
08e8
0576
04c7
0f4d
0849
f4a2
f61a
0f1b
efa3
0b07
f509
0a30
0b03
f3e4
fb9e
f19d
0dab
f980
023c
0d8c
0b7b
0cda
fc42
f98d
fc86
0a1d
0c2d
faed
010f
066e
fe99
f10e
f965
07dd
f14b
fcd9
f930
f5be
0172
feac
0ab0
078d
0027
f3ed
0d94
f20d
030d
0c1e
f721
0af1
fe66
f9f3
fd18
f7f6
0138
0eb6
fbf8
0696
f80f
f58f
0ec8
fc49
f209
01f2
f19b
008b
f489
01ab
f674
f1f2
f281
0a50
0f17
fbb1
fc94
f1d7
076c
0095
069f
0943
f07e
f55a
0071
f507
f4e6
f271
fadd
07ab
f97c
0826
f4f5
f601
1039
00e4
fcca
0012
0c4e
09c6
fa18
0300
0a16
0c46
04f1
f2c7
f57a
fd8b
fb4c
0a7f
0395
0aa9
f8fd
088a
0781
02e6
f0f0
fb79
04b2
07b5
0cca
f0d7
fb25
04a7
f40f
f497
09c0
f3eb
0c06
fbd6
fe40
fb71
0bc2
0bfb
f24b
f13c
f920
f23c
03f1
07aa
0119
0569
ff8c
09bd
f3d7
0a0b
0896
f7cd
0393
fe16
0226
f383
0a04
0413
0a4d
0909
1112
f512
02ee
0115
f93c
0939
f525
fccf
f47f
fa77
fc1f
fe25
0994
06e0
07b6
f707
01c6
0e9c
0f0b
faf5
0742
f3b7
0074
0ee3
010e
0881
04fc
10f9
069e
12e3
f795
fb22
0f3f
fe8b
f238
f27b
ffd1
f5fa
0f45
088e
0de8
f9e0
0a0e
0e96
f67c
00ce
f867
f62b
f297
0471
fd1a
0c39
0efc
05db
0753
f810
0051
ff8e
f8a4
03e3
0843
f806
f93a
f6c4
f41c
02fe
f6c7
fdb7
0625
08e4
026a
f2af
f019
f231
ff94
0a3b
0fc5
0a56
faa4
03f2
0486
04b5
fe34
f3cc
f8c8
f86b
0d52
0a39
07be
0fc0
0aa9
069b
fd4c
ff3d
0283
08ff
f00f
ff56
f6a3
f765
f6f4
0c57
f0a8
03f7
0580
08d1
0206
f6f0
0753
01f1
f338
0fc6
f6db
fe67
0b30
f298
fcaf
f6a8
f880
f346
fafd
08b0
02a8
016e
0517
00ef
0ac6
