0c3a
02f8
0f90
01d0
05d4
0792
fdd0
f53d
01a5
05cc
0107
f9e9
07c7
0b4a
f246
07a3
0204
090c
0523
f33b
0107
f729
fd06
f1d3
0cce
f280
02db
0df0
fa69
022f
05ae
03e0
f782
fe50
0116
fc07
f353
f5cd
f143
f7bc
0f04
f173
fdc2
0566
f0a7
01d9
0ab7
ff99
0683
f9c8
fb30
0d86
083a
fd8b
0ab1
f160
0135
f7ef
011f
ffc5
0197
059e
fcaa
0b9a
ffc0
044d
06fa
fb60
04c9
01c5
005a
00c5
f062
f65b
0a1b
f083
0e94
0287
f583
fbf9
019e
0335
f9a6
f292
fb2e
fd38
0539
f616
ff41
f8aa
09e9
047c
f669
fff8
f8e8
0dc3
fc04
085c
f962
f79c
fbe2
f698
03f1
0f8d
f033
02aa
04cc
078d
fa3d
fb28
0bd2
0f31
0457
fccb
088e
fd30
f15a
070b
0ffa
fe6c
0297
0a93
fe66
0bba
0074
f78d
fbd8
f315
ff8d
f494
0935
f4f0
0986
fa1f
0ab3
f53b
ffd2
f10f
0de5
f05f
f016
0f24
07a9
f397
f758
0514
f037
04e0
f5ba
f63b
f64d
071c
f905
0da7
f621
f335
fa10
0e4c
09ed
0241
0906
fb61
fe55
f306
fabe
0230
049e
f8a4
0c65
f28f
f687
0d0a
03b4
007b
f61c
ffa4
077c
fcc4
0c26
fadf
00cc
f624
f096
0a0b
f533
fb07
028e
f81b
f7bd
f65f
f31c
f894
fb3a
0f94
014f
f3b3
0def
fa43
fae4
fd1f
fdc5
f492
0134
f179
fc76
024d
034f
fc96
fbd1
08ed
f3f5
0834
00a2
014a
0b53
0015
fcd7
06ba
f562
0a88
fcfa
f0ed
0985
0e9e
0c14
f4de
0f13
033f
0fd2
fb9d
ffd7
03cd
0a20
0164
f2b2
f689
f9cf
0c0a
ffb9
f587
fba3
ff8c
0dd4
f547
0a26
fc6a
0118
0971
0bcc
f50f
066d
fa41
f59b
fe8d
01fc
0311
02f4
fb78
06c7
f60f
f52a
f0d3
fc8c
f927
f946
f690
f29d
09b4
f946
086e
f66b
f28a
0938
0802
0156
f9a0
ff87
fe90
0b46
f3eb
fbf8
0439
f9ec
0125
f98a
ff5a
f2aa
fc95
0b89
fb2c
09b7
0b3a
04c1
09f0
0829
0e9f
f8d0
094a
0908
efe8
fab4
f289
0618
0597
f855
063a
0c4b
024a
02b0
f6d1
f657
f1dd
0c96
ff91
fc21
f0e9
f4d9
0edc
fe5f
ef13
fbd5
02b0
0fab
0b4f
0260
f38c
f407
f300
fd20
fba9
f8c1
f479
efee
f1c2
0687
f0c1
002b
f784
fda2
052d
fb2f
f990
054e
0887
0132
0c2a
0c31
fd99
0cd4
f8fb
0149
0844
f693
fa1d
047c
0a79
f9d1
00d3
f66d
f48b
0c0f
f7ad
fc30
0894
031f
04b2
024f
069e
ffe5
fde7
f59f
f8ea
fce3
fdb1
03e7
f589
080e
fa13
0fe1
fe80
fb3e
f4cc
ffe7
f2bc
fc18
0670
0bb9
f2d6
f232
f935
f596
0ccd
f903
f4ab
fc37
0314
f949
fc04
f7e5
006e
f8cb
f17d
fd1a
f096
0f15
f76c
fc9b
0e4f
f68a
f749
081f
f1dc
f02e
fd1b
f427
0447
face
fef8
f5e5
f1e7
0f29
fcc8
03ff
0f62
f8ef
fe05
072f
0f36
04db
0d8e
f204
0188
fcf8
07fa
fc85
0cdb
f73e
003a
f9c1
0e57
f068
f6ad
05b6
fa9b
0fcf
0037
0e31
f133
f541
fecf
0b7e
0da1
0f6e
f4c2
0e3f
f1bc
fc23
08fb
fc0c
f0c3
0ceb
0851
f4dc
0c87
fdb9
06ac
052d
fc89
0357
ef2c
090a
f6f2
0a79
fc68
06e6
06f9
f227
0928
0e6e
0a4c
0cd1
feaa
f5af
f321
0924
fa0b
0a2a
0d82
f3a8
fa5e
f519
032a
f507
07d6
f295
fb4f
f3e5
0502
f255
f75a
00ca
0549
f299
ff70
f45b
0506
0ba1
0c40
0af7
0b69
09d5
0d47
f80d
0aa0
0869
fb01
f5af
f222
09ee
0c12
f448
0537
0279
f68d
04e6
0115
0ea9
0b9a
fad3
0825
0aa7
fba7
fd07
f115
0d51
0784
009c
05ad
079d
f9b1
068d
f201
1000
0c90
0a19
0226
05fd
f5ba
0e1f
fd40
0a2b
fb92
0a52
0646
0de0
02ab
f881
0e73
f79b
0313
0f20
f506
07f5
fad3
f39c
0060
0bfa
0a42
fd45
f343
f146
f930
f416
0a08
0bf7
fce6
f833
f7f3
f231
f698
f4f1
f5ad
0c33
fddd
fba2
0afd
fc08
fe6a
fc59
f2f0
08a7
f107
fe11
0f21
fe58
0efb
05cf
0e64
f272
f2c6
f8e7
f0c8
0a54
f821
f0f8
0d0b
0be3
f59d
f822
f0be
0541
092e
f8a5
faa5
fcf7
0037
0305
fea7
f669
fd0b
f112
f2a6
0f40
0d71
04bf
01e1
f3e3
f0be
0c76
f6c0
0a4a
f44c
f4af
0371
0b86
0679
f4cb
0b09
025c
0eaa
0006
f28c
00eb
09b0
0dcb
0be5
f4d5
f729
049e
f916
fa3a
04b1
f6bc
f49e
01be
0d6a
efff
0baf
00ef
f0c8
f0d9
fcad
03fd
fe97
fcb5
fcc3
f74a
fd5b
0577
0189
0bbb
fd63
05bb
001c
0e4f
f2aa
0a22
f8da
003d
09c9
09ce
fc21
00ca
ff10
058c
ef78
07c0
ffd6
f864
0459
047c
045d
f34d
0458
f84f
0e31
f56d
f89c
0543
fbb2
0112
09a7
feb3
f9ea
0e44
0efd
f5ed
f9cd
faa4
ff10
f44d
f722
0c09
ef97
0eb8
f44e
f1f6
0e0f
0579
f3c6
07e1
f333
fea0
0c08
059f
0022
06b6
f457
08ba
f4d1
f9d6
0a14
0c0a
f526
0e40
0e67
0ee6
f58f
f649
fe7e
f0cb
fa23
fc6d
0ec3
0b59
fda8
f14f
0857
08a0
09e4
0430
fdfd
0623
0b63
0f12
ff9c
03db
0320
0ac3
09a1
08d6
f514
f8ce
0c32
f558
0c9b
fbdf
0a4b
0d0f
05b6
f930
fc34
f449
01dd
0dea
0b28
0930
fede
f3eb
f816
f2ee
0f5a
f94a
0856
