0c30
064e
f406
0b0e
0ffc
08d7
0781
01f1
fa99
005b
0fbc
f1d9
f946
0dff
f5a3
08f9
0a3e
fa91
080d
f438
fe84
0834
f732
024c
f953
0f5e
f95a
08e9
006a
f27d
ffd2
f906
f094
fdfb
0bb6
fba8
056d
f298
01e8
fa9c
0a58
0f49
fa70
f9ce
0bb0
f8f0
0e9e
068b
00fb
04a8
0e4c
fb98
f84b
fb59
0a6a
0e56
fa6b
06ea
0127
fefd
0833
fc86
0869
0b4b
ff0c
f7c1
0034
0957
f9dc
f6c5
053f
0ef5
ff2f
f9f4
f91a
f03f
03bb
0d87
0ad5
f711
f394
0d5d
0a0e
ffd9
f637
fe42
0e9c
fc7e
f096
0e6f
f43f
0be4
0868
07f4
f76e
0ec7
0815
f9f4
0923
febc
f5f4
fcab
02bd
03e3
08ee
01e6
f71a
1005
f89f
0f00
f923
0eac
0adf
f61c
06bd
0453
0562
f42a
03a7
f47c
fbd9
f9e1
03e6
fb46
0d3d
099a
03e4
f902
fcde
02f0
f190
00c2
f67f
f27e
f115
f66e
0d5c
f0ca
f1a3
f740
0fa3
0ccd
0c2e
0d82
f213
0816
0090
f974
1117
0f8c
f90d
f498
0ef4
fc37
0ae5
0b86
fd02
0828
fee8
02b3
f3f9
f6a5
f921
fcf7
01d7
0264
05f9
0d42
0b86
fc0a
0abb
f1cb
06e8
0bfc
0485
f2e5
fb30
101f
f73d
0f37
0c1a
0d91
0d73
0e09
0b99
f013
0773
0c2e
0c2e
0bad
f376
0b18
f4ec
09f3
046c
0ba7
00e6
010d
0559
f94f
f599
0cc4
f129
f427
01f3
f41f
09c7
fc8e
f3ec
0ee8
f2ad
0d18
f9ef
0663
fa1a
f9ab
fdc1
0299
fd40
0c21
fd79
fa47
fb10
ff9f
f8e6
0f58
086d
f250
0d32
0f26
0e43
0b92
0b39
f76e
01eb
03b4
0c24
0087
03a4
f425
f086
f82f
0cbb
0596
fc86
0ae1
f3bc
07cb
f1b6
f7a0
0768
f9e1
0edf
f04f
f111
f432
091c
033a
fa71
f5ce
f54c
0a32
f0b7
05dc
f70f
fff2
f6b0
fba7
03a1
09e6
fdb2
f7db
0cc5
faf4
0556
0ba0
fabd
084d
f491
01cb
fd45
0fc6
f905
fc19
078d
f4dc
ff6a
f876
040a
0925
034a
f4cb
05ba
fa62
0122
f1fd
098d
f229
00ec
f8ef
09cb
f178
058e
088e
fec3
0ec7
0090
061e
f57a
012c
0d82
07a0
0903
048d
fd26
f1cc
faa4
ef62
0311
09a0
0082
09d3
f4bd
0e97
f843
0010
f2b7
0d68
f04b
0a3e
f734
f105
01df
f390
0160
f3d2
04d2
0684
0d9a
fe49
fe4d
fe74
fe68
0f1c
0463
fb3c
091d
f7c6
01c2
f767
03e8
054a
008a
0815
0b5b
09b7
0a8a
ff34
fc81
f9f5
f8ef
0be0
0746
fb51
029b
0c25
003e
0bef
0a8d
0e5f
f955
f70f
fd5a
079d
0821
fd40
0306
10cd
f75a
07f5
fcac
f571
02d2
09fc
fdf9
0739
f247
0ce5
fdac
05ea
f1fa
fd92
ffdf
0d27
098a
fe62
0931
0620
fd78
fc6a
0fda
fdaa
f6f1
fe24
01ce
f88d
11b5
1236
08ac
0e82
0fe7
f4ef
fa77
026f
0db2
0b58
f0e0
f0fd
0c7a
fdb5
fee7
0fe0
f16d
0239
f21d
04b8
f834
0197
f784
fe72
f714
f944
fb0b
0058
06b0
0bf1
0669
f923
0a2f
f2d6
0b14
f657
f8ba
fe96
f0bb
f7b8
f319
fd87
f9f7
f76a
03bd
0ec0
fc7e
0f21
0a30
0790
0255
0819
0904
05a2
f529
fd9b
fa7e
0705
101d
0c63
021d
0bc5
0fda
f2fc
f5d7
0ccb
f0d0
f39c
021f
0b6e
fe93
f35e
fda9
09b9
f15c
f639
f3ea
f63e
f72a
f370
f6fb
0ca8
0e43
0603
0083
02db
0a16
0323
04e5
0b20
04e2
fc5d
01cd
052b
0047
0d7b
f67d
f973
f8c8
0976
f065
fa4b
f095
0266
08bd
f2d2
0ac0
0905
f053
f291
f56c
fc0a
fa48
07bc
ff83
073b
0cee
f446
09b7
098e
f26f
fb64
06ba
0246
0ca3
ffd1
f660
f89f
0199
fc3b
f6af
ff9d
04a9
f16d
0903
fa6c
f706
0179
eff7
0b66
fa7f
0743
f212
f655
ffc0
0b14
0c81
f098
0554
f969
f67d
f0f1
0661
fbb4
fa41
0cd7
0071
f5d3
fdc7
fc3a
fdaa
016d
f959
0520
ff9a
f192
ef4a
0304
02cc
f69e
0cd6
00e2
0ca7
0ba3
0bf0
01e4
fd32
fd04
0b34
fecb
0bfb
094c
ff24
043e
0b83
0b7e
0386
0dbe
0b2b
0ebb
f777
fc67
06a9
fa18
f727
fa69
0179
03c8
0235
0f13
fe57
f8e4
f13c
015a
0090
fe4c
f778
ff40
0fc3
080b
f960
0c34
0b09
01f7
f3c1
0b56
0477
0e26
04f1
f901
06c9
02bd
f350
f5b9
fa50
0c66
04b0
f1a7
00c0
012a
0b9c
0976
f222
f8c4
00b6
0c2f
0129
090d
f51c
f03d
0e93
fdbe
0e97
100c
fcf7
f27d
0502
0075
ffca
fa08
f1d6
0280
fb2f
0a31
0d68
0101
fe49
f0d0
fd72
0f58
0cd8
0d07
f60e
f935
0693
fa67
08fc
fd09
0429
f312
0878
04f0
0238
f431
0078
f35a
0729
0974
f9bc
fe3e
ff3c
ff43
07c6
f938
0519
00e0
02f3
f24a
0187
f71a
fdd7
0b54
0c81
f748
0dc0
0b91
f237
0d1c
0994
0d34
f8b1
0927
0545
f1d2
0ea0
0a85
081e
0bb0
fea5
09a1
f728
0439
ffe2
0281
fd83
06bd
0658
f26e
0a23
0974
f884
09b8
01da
0fc9
fa6c
ff4c
fe54
0e27
02d0
f80b
f74d
03de
f47a
fa3f
02f4
f002
f700
f83e
f7c9
0a9d
081c
f8d9
0cf7
02a8
f836
0fca
fafe
f917
06a7
f396
01c4
0398
041c
0e80
00b8
f945
f4df
0f56
f963
fbbf
0764
0602
0f6b
0c67
f8d2
f761
0c69
033c
03a1
0b87
f3ef
f299
fb6b
0108
0f65
fbcb
00eb
f5ef
