f8ac
f6ce
f158
f4a2
eed3
0e03
fdbc
f362
fd4c
0778
0ba7
ecf0
f66a
fcc4
0ef9
0016
0b04
06b0
efee
0076
04e0
f550
fe56
06af
03f8
fc4f
0580
0421
f0b9
036d
f81a
fbb9
0292
f489
0cef
0da9
fd7b
ffe2
08bb
0777
05b2
0484
01ad
0755
eefe
f9d8
0547
ef8b
00f4
0c8b
12c0
f522
fd8b
017b
0920
f732
f985
fa25
f255
fdb0
f6df
f01e
0850
0664
