0f2a
0d9c
08b3
0928
01bb
09c5
0227
0197
f2c1
0fd1
04e1
0c16
0b9c
fdef
0822
f50a
04ed
f9c3
0681
0ebe
f791
0d1e
0df9
0638
0205
ff97
f809
fc2c
0215
fc88
f6c4
070c
fbc8
07d4
f768
f735
03e9
f9cf
f080
0b76
f438
0aac
f0c7
0ab2
0f59
0714
fb8e
fa15
f134
0d16
0731
ff3d
0270
013a
fd03
018c
0549
fe7d
0ad9
f3b4
02e4
038b
fcc8
fd32
f75b
0594
f308
f1a4
f077
f969
0260
fdec
0427
fb37
010b
fe20
0f4b
f972
0cec
070b
013e
0cb5
f15a
0a03
fb6a
0cdd
fb9f
f176
f5c2
027c
0323
0fd2
0b24
ff89
f7a6
fe6d
0e43
06af
f50a
0c34
f3ad
fb5f
067c
f52a
fbb2
0460
06a1
fc76
fc4e
05b1
f30f
0581
0af2
fe4c
0caa
089d
fef5
f9be
f215
fb6a
f26e
0947
011d
f1b4
fbad
fab4
0b64
f975
0a93
f167
0aa4
0e16
f30f
0439
0002
0b13
fecd
ffa4
f3b9
04f3
0fc7
f8ac
feeb
0361
fdf2
f58d
f64b
0fae
00e2
fcce
0500
0627
0adf
07d7
043c
0987
f09f
fd37
f16c
03bf
0a72
01a9
fef9
0686
f7f7
fb17
fc41
0d76
f799
0abb
0e4c
0ccf
f172
f633
0767
f367
0e6e
0362
f8d0
feb5
06d3
0197
0425
fae6
f2b3
03d4
f4ee
f15b
f7ed
f9a1
0b75
f4e3
0154
0e73
0a51
02a1
fe7e
088a
fcb6
f9a9
f208
0832
0a4b
faec
fff0
042d
0799
0368
f1fc
0695
08c7
0a05
f574
0900
f5b6
ff86
fc6a
efc7
0c8b
098e
fb7b
06c4
f85b
f775
f159
f954
08e6
fa82
f3bf
f5e3
0000
fa59
0320
ff26
f649
04d0
0080
056c
f0e0
0eb5
f458
0b7f
0bd1
f428
f2a0
f238
00ee
f67e
f5f0
0ca2
f1dd
011a
f14b
fd4b
0d46
faea
fa4b
f03d
f954
0018
03e0
0621
0b8a
0c21
0e84
f6f6
fef9
f234
09f8
09c0
0555
faf8
ffd2
00c9
fb3a
0286
0790
f3e4
f66c
09b0
0ca9
f6ff
f4de
f50c
05f6
f325
f42a
072a
f9ac
f62d
fb6f
02eb
f7ec
f100
fb13
0b44
0e28
0163
f834
f145
f4d4
00f3
02dd
f0d4
fd2b
f5b6
0eb7
0480
0195
00d7
f30e
0d77
0733
0c6e
f6ae
0745
0e21
0270
f670
f893
f5e5
f193
ff1e
03a4
0e90
f764
0786
fd88
f70a
f124
0643
fd3d
fded
f406
fb4f
02d4
fa3e
f83c
f3b6
f210
f630
0b4a
f1e1
fb10
f20d
019e
0ee8
ff50
f2c4
fb68
01cd
0144
fb6c
f815
fd18
ff0c
0398
fbb0
0cf3
021e
0192
f24f
fa78
ff23
fbcf
0420
f21f
08b9
0387
0f09
083d
f243
0bcc
f34d
f5d7
fc79
0ef4
f703
094f
f01c
0458
f3f1
0e80
fb97
f499
f71f
02a6
fcb6
0024
fc1d
f529
f514
f122
f50d
f9ba
092b
03e8
0b35
07ed
f306
f1d1
07a4
0cbc
fe32
f2a5
0536
fe39
0f70
065e
06b2
1005
f21f
ff25
0a80
f5e2
0137
f13d
ff76
0b24
0b52
085a
0ba8
ff6e
0cf7
0f41
f93a
0b5a
fe48
0132
0a1d
0842
fb03
f24d
f980
01b8
fa80
f486
0758
f35d
f162
06be
fad2
09fd
09e2
fa59
f582
0fe3
0234
0778
f3f6
0068
0065
08a9
0c3e
fc1f
07bf
ef41
0c53
0d5f
fbe7
fbe1
0c8a
ff77
ffd4
f3ec
0805
fcad
fa5b
fd6b
f2a0
01a7
0580
09d7
fb77
0859
0640
05f7
01e2
0d60
f2fe
f470
0218
0459
0d2e
fd36
04ed
f1f8
f087
fb46
faaa
f5c6
f6b1
10fa
f91a
00f6
f242
fdcd
045a
0b3c
f073
f0d8
0720
0784
f7e1
04fa
067d
f1bc
0efc
08f0
0379
f87e
01b9
0975
f912
0bb8
0422
0702
f338
f8f0
0e05
098e
f365
0774
0256
0465
f73d
0bd3
fd96
f3e8
f3b9
f95e
0720
04b5
f706
0a10
ff8b
f4cf
0be6
f027
037d
f1d6
0cdb
0cf4
ef05
0b59
fe68
f642
0297
078c
fd51
fe34
065c
ef50
ff7c
fa07
0bee
ff67
00d3
0d2b
0f39
0eaf
0bdc
ff9f
f609
006b
f75d
f19b
f665
07cd
0b16
f7c7
0bc1
fec4
08bc
0e6b
055d
03a6
00c2
f919
08a3
f0bb
0dc0
024e
08f7
038d
0543
0f7b
06ca
f998
0ee5
0b0e
0480
0fb0
f57e
0d1f
f3e1
0a5a
fc17
f45d
012c
0d70
f0e6
fcfb
f8b8
040f
01d6
09c2
f058
0f52
fde8
00d9
f5d5
0a27
028a
0e0d
0722
f068
f2a1
ff9b
f5db
025c
0958
f9fd
00e2
f2ef
05ef
094d
07b2
0337
fbaf
0f59
f0f8
f5d7
fd0d
f510
094c
f86b
ff9c
fb20
0b1a
fc21
ff34
0506
f86a
f73a
0cfc
f289
fa4f
f98b
f7ee
0c82
0ba8
0d9c
002a
f931
ef72
fea3
0563
05f1
04b0
09e1
f88b
0a7a
0c02
0305
008e
f655
04ad
f27a
0bf4
fff3
038c
fe64
f1b2
01d1
0bc7
0068
fbd9
f785
ffff
fb63
f389
f579
0d7b
f393
0052
103f
08f1
fd59
f74f
05d2
0153
0288
fdd4
0edf
0b54
0769
fe79
f127
0ffd
ff33
0076
f7a0
00c5
fd4b
036b
0ba6
fb28
0978
0774
007f
08d6
0dc3
f6b0
0389
04cc
0f8e
fe16
059f
07e7
04e7
f4f4
0766
fbc1
fa41
02f8
fd38
0c55
0ae9
0db9
02c9
f160
f5a4
fa34
f1b0
065a
fedb
0cf5
0cff
04d5
0f5a
0373
055b
0130
ff75
0c0c
f21c
fbf9
0cf5
0ab1
053b
0796
0877
fe60
f767
02ac
0528
fd35
f10c
f354
fccb
fa75
f6a3
0bb7
f1d1
0e89
f4f9
fda6
0397
093d
fb94
02e1
095a
03e4
f46a
f187
f648
05b0
fb73
f47d
05a4
ff46
09ab
f783
