0a27
f426
f79b
f1ff
f982
f8ab
f420
fb8c
0368
fbd7
0a55
f90b
0777
fc05
04b1
fe65
0b77
fc1e
f179
fb31
eec1
04bf
f05a
ff82
01d3
fc69
0695
f9c3
02dc
f70f
1113
f467
00d7
f632
0c84
f5c7
0a46
fd2f
fe88
f584
f385
001f
1677
088d
f97d
0096
ffff
f57a
fe94
fd23
0f06
09aa
0d00
0a89
fc19
ffe8
035b
fe99
0641
ff4f
f2fe
f1d7
0a6d
0048
