f639
0d45
060e
f12a
f5dc
0130
05bb
fe04
0791
f0f0
fc75
0054
05b8
f978
faee
fc4d
fa43
0292
087d
0c3f
0ac8
0b26
01af
fb1b
0822
f3e3
0179
0437
fcea
0232
04ce
f758
f2b4
fe54
0319
fcb5
0194
0b1d
026b
0196
f4c7
0251
f466
0a1a
f06a
06db
084f
0d00
0be2
0e06
0335
0500
0b46
066b
0ca8
01df
0868
0efc
f338
fa26
ff99
0102
f09e
ff6b
00d4
f807
0dca
0b6c
0482
0630
fb5a
0cf9
f18f
f334
0aaa
02ad
f33e
f709
0921
05b5
f2a8
0c99
0669
fe4e
f881
f478
0761
f14c
f018
076c
fa3b
fede
0526
04f5
fe54
04cc
ff32
f271
0414
0dae
fdd0
0a96
fd20
0c86
faea
f7fb
f1ee
04fe
f2f7
00d5
04a4
0fea
f048
f109
0eb3
0dd8
fb77
03a9
0cc6
fedf
fba0
0150
f333
f049
f4ab
f0b1
035b
f416
04df
0646
f738
f927
fd30
f565
f464
f9c6
00da
012c
0489
f7ac
f42d
0ca5
04c6
0265
0df0
0e87
03e6
f76f
06ae
fe53
f922
0d8b
0785
0801
0650
0c10
f78a
f9d0
0d6b
036c
090a
0e9b
0f0e
f60b
07a0
00b7
079e
ff4e
f795
f8f1
0fd6
0dc9
f261
016d
0893
f381
f5e3
099c
f111
f4ff
0be5
f967
fcff
000b
0bd7
0983
0ad8
055c
07ae
efc9
0128
f87a
f61f
f607
ff20
0678
0f2e
099e
faf2
0b7d
ff9f
f27c
f75e
0cb6
06cf
097d
f931
fa40
0085
fb46
04d0
052b
fd7f
fff8
f5f0
f583
f649
07db
028e
f285
03c3
0685
0483
f542
fd88
0203
f428
f0cf
f1e9
fbaf
fbc7
03ee
f07e
084b
fecd
f8c6
fb5a
0d34
0339
f929
fe98
0234
f98c
071e
032f
f9cc
f030
0b68
012d
f722
0da1
f42d
fdac
04df
fc2c
01c7
fa6f
f4b2
0c67
f153
fa60
fa07
0e5d
0d9b
fae3
f7fe
f11a
0b64
f49d
076d
feb4
f3c3
0d03
0bcb
fc28
0f73
fe80
02e5
f951
f127
045d
fdca
0c08
0a89
0a04
fa5d
f820
0092
0b52
0feb
f2d5
057e
f763
0ac1
fef2
0ad6
f0bd
f3c8
00d6
0d2e
fbb3
051f
fb1f
fbd9
f114
0736
fc20
0b0f
fa23
f070
04f8
0db3
0ca3
fb46
fa9f
0add
0d81
fd51
f84f
f3b7
08d0
f9fa
fd28
fd51
f749
fef1
f5e3
f25e
0c84
0385
026b
01da
ff72
ff90
0bf4
032d
0c77
06db
f047
f025
0610
06cb
1082
1148
f4be
fe1e
f9d9
fb67
05d6
01e8
f9c7
f7e0
0134
09eb
f93a
0cbb
fdc2
fabc
08d9
faf1
f1a2
f9fd
011a
f627
f546
0d4a
f64b
f4f2
f75b
0ff1
08db
f705
0935
fcd1
f502
078a
0661
edff
f37b
f0ac
f9fc
f07b
04d3
05eb
f8f2
f88c
0fc5
f685
0314
ff39
feee
f663
f7aa
06e0
0c1a
06ce
02fb
071e
02b4
f535
0cbc
f26e
0cba
0026
f3d9
fb04
f981
ee4c
f636
fa11
0c8f
f7e0
0285
f80d
02e4
09f5
0da8
fb23
07f4
0cf4
0592
0f2d
fa81
f4c8
f4eb
fcde
fda2
f423
0ed7
000b
ff3c
0639
f48e
f959
f13b
0c2a
fb81
0232
0606
0900
090e
f12a
f32d
0749
0179
f9b3
f58d
faae
f01f
fd20
091b
030c
0521
f970
ffab
082b
086f
02b9
02e3
0a7b
0aeb
0a43
f930
f208
0709
fafe
035c
f4b2
0aa5
002a
ff6d
04f1
feb6
0c2c
fe97
0d9f
0586
067e
0d16
f1bf
ffe7
088f
f262
067e
056c
0624
fbe8
ff01
02cd
076e
f330
03ff
faa0
0b17
fed3
0515
f24b
f716
0858
073f
09f4
f72a
f6c7
003c
f2cc
fd33
f17d
08a5
f4cc
f0c6
04b7
0a1e
0ad5
087f
f56b
f577
f629
fa7f
f061
f2b7
06dd
0ea0
ff8d
0319
06d2
08d2
f76d
f142
02a2
f80b
0b7d
fe5e
00c3
02f8
f4f7
fea9
f17c
0bee
f1a4
f6dc
006a
0566
0903
0cec
f737
f7ef
0474
08d7
f9b8
09b1
fcac
0b70
0464
fb79
fe56
0db8
fd5b
ff70
02eb
0506
fd69
021d
f621
0757
f830
0d9b
fcb7
fcfb
00d4
082f
0852
0ba6
03fc
fb5d
f440
ffc8
0466
f273
00a9
0a82
05b3
0428
0767
01f3
f911
fde0
05fc
fd0f
05d7
0627
02af
f5da
f417
fee9
0832
0768
0b03
f3c6
0060
f3c0
fd7e
f973
0a53
f4c6
0626
0623
05ee
0794
0895
0d4c
022b
fa28
0f6d
053c
0663
0984
f789
f38b
fbc9
f752
f7d8
f197
0d6f
f36b
f0f4
052f
feea
fba2
069c
0171
084b
0dad
f4d9
f0ea
0737
05bd
0742
f11a
0810
fd88
f0da
0110
f03f
0a33
f86b
fb2a
0eac
0277
0308
f4d4
0c46
f287
fcde
0a0c
0524
f931
f702
0b9f
fdea
f30a
00dd
0861
048d
ff2c
09ce
ffbb
0c54
06a0
0401
0d8c
ff5c
0c9a
0e44
0e81
f0f9
0de7
fce0
f118
fc80
0c89
f97b
f3cb
0129
0afa
f11b
f7bd
fd82
01ab
f2bc
f77b
fad1
fca9
f88f
083a
02cd
f9a8
0307
0372
f3a1
f742
f615
0fe5
0f7f
004d
0eaf
041f
0b41
0c6e
0916
f37a
09c1
f45f
09ae
f1f3
fb0c
fd0f
0025
0bc7
0f03
0eea
0d89
0493
f0d0
f303
0d26
fe11
ff09
f7da
00e6
07a1
f33b
fc1b
fd56
0e9a
0e39
fd62
0f4f
f5ee
f4d7
0828
f522
06c9
0893
01ba
0307
00d6
f7f4
0329
052c
f614
f2ac
0928
0879
fcd8
0c69
0a6e
07c3
0fce
088d
03ad
0500
0030
0dc8
fb1e
fba2
f32d
0c43
03df
04a6
f996
0e30
fb28
f794
f44a
fb7e
fd79
f6d8
fa55
0e50
0b63
0dc9
0b6e
0677
05e5
