0107
04c9
f368
05ce
f3fa
0c4a
050d
f355
fdbe
fe03
f5cf
fbe6
f75d
0d93
0ebf
0c04
0fa4
01bb
f1e1
f3e5
f9f6
00f9
08d5
fee7
0be8
f937
fc2f
0773
fe58
ff1b
f8b8
0c83
0079
0427
049a
fcf1
f486
02af
fb30
0233
f436
fd40
04b9
0854
fabc
08b3
ff50
faaf
fef3
f54d
f1ed
f479
0a59
02ff
f8ff
ff42
fc55
fa1e
f24c
f881
0704
f53c
00f6
1008
f153
fd32
fde7
f2a0
fc8f
ffdd
f9b5
04b3
f85c
065f
f6ff
f5c8
fc22
f6af
f8c5
0ed0
068a
fa2e
064e
f44b
00e0
05b0
f708
f448
0ea8
f130
0d9f
f258
0867
0c58
fb4a
f678
0ede
0ff3
0a5d
0fd4
037b
06e2
07c4
0727
fe10
0a8f
ffc8
03d8
06bc
0bd7
0547
071d
0dda
0d46
0361
fd7b
f822
04bd
052a
f632
07f7
eff9
0ae6
0573
00a9
0796
04df
0275
f4ec
f78b
0bba
06e9
f554
00a8
0312
f3d1
f4ba
f347
0133
074c
f179
0377
0ef9
ff19
08ed
fa1e
f359
0d98
03d5
0452
fd02
0bdd
fb88
f873
f898
0720
fdea
0d2d
0d6d
f6df
fcc5
0b31
f848
0755
f20d
fe64
f77a
fe8b
09e5
09a3
fd50
0447
fafa
050c
f392
f133
04e5
f427
fe1d
fff4
0e2a
f38e
066f
03c0
fa2b
f7d5
f06e
fb9f
0b28
fa81
fc12
0cb3
f7af
f14e
0f41
fb90
f63a
0426
fc21
f42f
f359
04c1
03aa
0367
0605
0cde
0589
055a
01d7
08c7
fd52
f185
f8f5
0d03
f82f
044a
ee93
0af3
0425
06dc
fb6c
f6b9
f065
0d9f
0c4f
0d32
fb03
fdfc
0791
fb20
f034
f406
05ea
0254
0d34
fd0e
fcce
03de
feef
0696
fc11
fa9a
0a66
eff2
08bc
f1ac
f7b5
fc96
0b9c
09b4
057d
06f2
0768
fb3c
03fa
f90e
f2dc
fffd
063f
f200
fa82
f275
0a1b
0c23
f0f3
f78e
ece8
fb03
059b
f594
0105
f7f9
eda4
0175
fd02
f24e
0c43
0fe3
0a5f
f5b6
072c
f7ed
0591
f503
0a00
fe6d
08ac
0ef3
f9f4
016e
0747
0c2f
ffe4
f3bf
0361
01ac
f2f6
05db
faee
093e
f412
0b57
0a4e
0ace
0630
fb47
f0d8
0ff2
097e
fdeb
f085
f5e6
0168
0e7a
0890
082e
0ecb
098e
05df
099d
f9cc
f5f7
f141
f500
fc6e
0656
048f
f977
0404
f18d
0a1c
f23f
f064
06e0
0ec4
fa84
fd3f
08df
fe1e
0c55
006d
fb79
01f0
03b4
06fd
0bb6
f5ca
f9d4
059e
0ad0
ff56
fb8b
ff1b
0b78
050d
0172
f7bc
0d3d
f4e2
f3fb
fe52
f1d4
0bea
f9b3
0657
f94a
0be6
f482
0e94
f245
0f4a
ffbf
fe29
015b
0dd3
fe91
ffe8
0bee
fc32
032d
0316
05e4
f5bc
f698
04db
f76d
0bab
f5f6
fd53
0947
f666
f6b4
08e4
f88f
0067
f9ef
0b92
ffcd
10c4
0e34
fb72
017c
039e
fd7c
110c
0810
fc82
02cf
0ff2
104a
0e4f
0ca8
0bfe
f815
fc6d
f2a1
0ca9
0645
f446
f78b
0a03
0a9b
fe71
0991
f0ac
f984
0e3c
fa96
0517
1399
f846
1161
0651
1055
fecd
fb30
0120
f38a
00dc
0397
04f6
066a
0268
034f
f424
06ba
0112
fce4
f662
0533
02c3
fac3
fedc
0436
05f8
f337
0ab9
0461
ff1b
f63e
116e
0985
0a42
0753
0e1e
0b70
f016
f30c
0522
05a5
f0fd
05c9
0f4e
0306
0464
06a4
f74a
0dee
0919
f75e
f1d5
ef87
f7b8
008f
091f
0552
f8d9
f955
03df
f9ab
0962
021b
f8c3
043a
06d0
f729
01ed
f696
fa21
00c5
fcf0
f782
f76b
078b
0326
0961
fee5
f300
f456
f9b2
07cd
00c3
0f9f
fb06
0bc7
09a4
0a36
f815
0af5
05eb
055e
0841
0936
ff0c
0e8e
f957
fcd0
05dd
0abd
0c3e
04d2
0a59
f26b
016b
0b5c
03ee
02f2
f80f
0c32
f9a6
f61a
f53c
0c34
f8d4
fd5b
07ce
f20f
0661
0034
031e
09fe
0c95
01da
0d4b
fc49
0e94
f07e
005e
f23d
f194
0de1
f4a1
012f
f77f
0cf6
0b64
0a2e
0551
07d5
fd97
f458
fd29
fd14
04f8
fbc7
fcf5
f58c
f409
f4ee
0329
0848
0c6b
01ec
f759
fac2
07da
f831
0a71
053c
f92d
f6d3
0a52
0bf2
0af0
f81d
08c1
f2f7
f5fc
06cc
f5b0
f361
0bc6
f658
0aac
07c6
ff5e
00ca
0aa5
0840
0927
0978
f880
f599
0921
01ac
05d6
f9fa
fa68
0dd2
f7ec
fbc7
f164
fe3a
f4e4
0291
f2b4
0461
0bcd
fdf0
f7bd
fe51
f179
fa2c
f558
0fd3
f3ac
0470
0459
08e0
f608
fae1
feba
fc05
0bc4
f6eb
04d8
091c
0c66
0f22
0ef6
f613
fc29
0346
ff5d
0b01
f0d4
042d
00ed
fc0f
efb2
0f28
f9ee
f4c0
f79a
f534
09a7
fac9
0fa6
037e
f6fb
0ab7
fa30
0b83
f961
f44f
fd23
ff96
f710
fe0b
f382
fcdf
0cba
0ee3
09a7
0b95
f3ee
f7ce
0861
0383
0424
fe17
ff74
0d0f
f2bd
f510
fb59
0803
054a
fa36
0068
fd17
04d2
ff6b
0bde
016c
0113
08a2
f635
efc0
f53d
f1dc
fae7
0147
f6a6
f51e
06a6
0072
f26e
0e82
01ec
0365
f3c4
feb0
074d
0b29
f7ef
09db
f61d
f6b1
fe5b
0036
f30d
09d6
fb7b
04a0
0bc0
f368
05c4
ff99
0451
0e2d
f6de
08de
06ff
f2fc
04c1
fc53
fae8
f405
00f4
0dbe
0fbe
f2c4
f188
0b44
f78b
fe33
f88c
0e5d
0fc3
0ab6
0716
0ee2
f378
057f
0c8a
fc80
0c7e
fd3d
0410
fbec
f379
ff37
f3bc
f28c
f661
f8d1
0e40
07ff
fe52
0533
0c68
0ebb
0787
