032b
f63e
00bb
fee3
086f
047d
fd03
05dd
058e
0d9a
ff96
0663
f608
fad8
0600
f01e
0798
f907
00d9
0f71
0a01
f29e
fe54
0760
095c
f493
0702
f959
fb43
02d1
0224
fdd3
fc32
094a
0534
fb06
0092
04c4
ff2b
fb5c
fbf4
104a
096d
f199
00b4
fabd
f0f1
fc8b
fb0d
05c1
fc8e
ff1f
fba0
fa34
03d6
f641
f8f5
05c9
fbb7
f666
0483
ff12
fa0d
f07f
