f4ca
016a
0e08
09a1
05d0
eef2
0259
04bb
0083
07ce
f0d2
f7c0
00b6
f1af
06a7
fbba
0a8c
0525
f922
0548
fb3f
027b
0c10
fb10
041c
f8f7
0151
f65c
05af
f722
0c25
fa44
018a
f83c
07db
f50e
f990
fd33
0111
fe6b
f6ac
fcf9
0425
0441
f6bd
fdd4
f933
084f
061e
03f6
08f9
f244
fc6c
f66f
02ba
f5aa
f983
03ee
0177
0066
faa5
fb53
f537
fa25
