f0ec
ff14
fe82
0120
fbe9
f313
051e
f15d
06cf
0845
fb5f
f04c
fa00
f59b
f78d
0979
f335
029a
f94f
0059
ff77
011c
f085
083b
050a
07e7
04ab
0827
0f9b
f838
043a
0bb9
0ed6
0340
0adf
fd18
fb76
0da2
0afa
0ebb
0c7c
041d
0fd6
f618
f3a2
0b55
0796
fc82
fbc2
fc29
f0ba
0a80
f175
fad5
ffbe
f84d
00cb
00c7
086c
0cc7
fbf4
00f5
f2a5
0134
f19d
0bec
0440
fa56
0100
0407
0721
fb5e
0f35
0909
0057
fd5f
fde3
0a37
fc3d
f189
0f84
0ed9
0b82
f654
05d6
fb49
05b2
f916
f6e0
0761
0a6c
fffb
f674
04c0
f877
f55e
0787
0175
fde0
04e5
f129
0e12
f349
0203
fc7b
ffd4
f20e
04f5
f6e1
0cdc
0b54
fe20
08a3
0500
0313
f720
0d6c
0f0b
f836
f434
0586
f7fb
035b
f476
100d
f93e
062b
0472
0667
f475
0ed8
f361
0df6
0519
fc10
f585
f4fe
ff50
f28f
ff07
0aa0
0b04
f0d6
f73a
0bcb
063d
f1fa
f6d2
f3ab
07ba
0461
0f29
f211
f8a6
0733
fd54
f04c
0ead
0876
0203
04ba
f1f2
03bf
0527
0b12
f9f6
f7fa
02fa
082e
fc30
fe76
fb45
fd80
0e68
070f
08b7
f49a
f3f7
0f97
fc33
0677
fb4b
fa7a
fa70
0c72
fa3f
094d
f5aa
05d8
098e
f839
0d1b
fc07
fb26
0ede
0ac3
f73d
fe5c
fe73
f5ea
0f21
f980
0d16
0d1c
f73a
fade
f70b
0404
0cb1
f6ea
eea3
fb5e
04d2
01a5
f9c6
1108
012c
f793
f89d
03e6
f205
fd21
fe03
0cb7
0c49
f506
0336
f545
07f0
face
f286
058e
f532
f3f5
f584
fd4c
013a
07d7
030b
f5f7
fc0c
0f79
fda7
00c1
0835
00ab
067a
f7ef
089d
f949
f015
0d38
096e
f9f2
f1a7
0264
f2f9
f3fd
0575
f63e
ef58
0348
f4c6
0b4d
000f
0f24
0206
fcf9
f4e0
fe0b
fa6a
04e9
06c3
f5db
0ea4
0954
07d3
f73a
0df4
f9f3
ffd8
0a3f
007c
0894
f5b7
f78f
06ba
0aaf
0106
042f
0162
f22f
f94f
f6fd
f232
f9bc
0b9e
f794
0682
ff74
f537
09c6
f774
fbc3
fe49
0cfe
f0b7
f7e0
0a4f
0176
0159
096c
fa1a
efb0
f958
f6c0
02e3
fb6d
0914
fa63
0856
0a4e
06a0
fc87
f909
0180
0024
0485
fffd
fba7
fcdd
fe6b
f745
05f0
fdb5
f41b
0697
ffd5
0ac3
084c
0851
f72b
f206
0315
fa03
f1f7
fee0
f622
0218
fdfb
0bad
eca0
f907
f268
fb95
06e8
00aa
0a3d
fe6c
f3fa
fd47
fa79
f9e0
0a95
0811
0f32
f2f0
08e9
0570
0bd7
0a5f
088f
0a4b
0bd4
f2f9
0bd8
fc3c
f15c
0660
f954
0980
f2c7
0cb8
fbfe
ffe3
0c61
fc49
0e5c
fb3d
0972
0848
0152
0d90
073e
f3fb
fcac
0599
0aff
f1d8
f77e
0446
021f
f6d3
0211
0409
0ead
f32a
ee9c
0897
fbbc
f491
f36b
00ea
0ab0
0c2c
1028
f99f
f425
068a
f5a3
fe8b
0c97
01da
0004
090c
f74c
10c0
fb37
04c9
02fd
0af9
fa6f
f81a
f27c
f214
f590
f7b1
043c
03e4
0444
0d82
f031
00ce
0b78
fb6f
f2fc
0116
f093
0bb9
0099
fc5e
0cab
08dc
fa2f
0626
0ed4
111a
06c1
fcd6
fa27
00c4
046e
0d76
f064
fbde
f2aa
f937
f428
0c42
06a6
0b39
fc7a
f775
0319
f207
0236
061a
0fdf
0161
0612
f893
0221
1076
0a88
f51b
0280
f924
0b48
018b
fec9
0e66
fd31
1073
0f69
0bd0
0d43
0110
07da
0153
fe39
f7a1
fd3a
0d65
0a1b
ff01
00f0
fced
fc4e
0e82
11a2
f7c5
0dbc
fcd8
0c82
0f28
f22b
f647
ffa0
0695
fbb5
f325
f345
1110
f126
08d2
015a
fc88
f2ea
0c61
f1e0
08f6
0312
0d0c
f214
0be5
058a
0254
0a94
fc8d
f4e0
05ff
fea4
078b
f952
0bfe
f4a2
f622
fdcf
0bfe
00f7
0202
000b
08dc
0eba
f37f
0c86
09bc
0510
f86b
09b3
ff7f
fc75
fcbe
f029
0824
0d8c
0e07
0106
0302
f734
0493
0b30
00eb
f836
faf9
02a9
f6b1
f84b
03ef
f5ff
0d92
05ae
fcab
08fb
0917
f2de
0d0c
019c
f72f
0bb4
06ed
f093
fe5b
0a8a
0340
0646
0e65
f467
0dd9
f69b
f63c
02e4
f5dc
fe50
fd92
f8e9
ffa7
f3cb
0467
0bab
0942
f3e8
0ca9
f090
0a25
fe0b
02bc
fde6
0280
f4ec
0eaa
0192
f389
0aa4
fb08
f583
f17a
f85f
0c5b
f95e
06af
0bb4
0537
f9e0
f70b
0dba
057c
0665
0af9
0f52
f43c
fa80
f7e4
f3e4
0fd7
0036
f272
fc95
00c7
fa49
0442
fe21
0389
0c2b
0027
0d5d
0296
0825
fa99
fde0
fe11
f292
0eb3
f7a0
fe51
f3ed
f97a
07c7
f6b5
0960
0c27
0caf
f458
06a5
f497
081d
0802
0cea
f61e
06b3
03a7
0723
05db
f000
0856
0702
0dff
06a5
0786
03e5
f2ba
024f
f53e
0878
fccd
fc0d
098c
08cf
0246
096b
f9ed
f0f3
0746
06c1
f95e
079b
f54f
f8de
fc32
08eb
f8a9
0029
0158
f2b2
f484
ffbd
f67b
09ea
f14c
fe1d
0e72
057c
0ea7
08c0
f51f
0cac
09b7
0878
01ad
ffa8
f33a
0e40
0da6
f0f8
f474
0f43
0b78
f8d3
f8d4
0eca
015c
0971
f857
fa60
03d1
0176
0010
fc14
fea7
096d
f38f
fe40
0930
fb5e
f68d
f986
0294
f06f
f286
0b0f
f143
f133
07c6
fe03
f015
fbf5
f9a8
fd08
f0ea
0d50
04cf
fe0c
0300
086b
0ce0
026e
039b
fef5
0fa2
fc6f
0030
f9af
0137
f754
