fadb
f547
f6dc
ff3d
04c4
0296
fd8e
0573
fe95
0520
0044
0448
070d
0689
0a95
0283
0087
0d3e
00d2
f4aa
07d1
0e16
0d0c
f29c
03d5
fa17
f984
0b44
f615
00b6
030f
f74b
f099
fc4e
f6de
0751
0cad
035c
0346
0ef2
0b5a
0525
0fa2
00bc
f0e1
07f1
f0c3
fdf9
f258
f6d6
f360
fa40
0d03
ffb1
f971
f7a0
044d
fbab
004a
0021
0026
06fb
f60d
066a
fef8
0a74
066e
05bb
0d54
0728
0e71
fd5c
012a
f897
0dba
0b91
0425
f821
fabf
ff0b
09f2
020f
0c37
01d0
0171
fd21
f6fe
f261
ff5d
0a63
0a58
feee
f282
fb80
f49e
f25c
08ea
f63e
fde4
0f83
ff25
ef1a
013a
0911
f93b
f800
096d
0649
0fee
08b5
0a2d
f99f
f8a1
0025
f6d6
f11d
f8d3
063f
f4a2
f390
f69c
0a0f
fddc
fc1e
09b2
0325
0c71
f9e2
0beb
04ae
f795
fcbf
f977
099e
f504
ffa8
036e
f721
0069
f0bf
0aae
0f68
f501
f2e0
00d5
02c4
0d35
0373
fa62
fbda
0907
f4bb
f2f8
f572
0b02
0767
09ce
0eac
0a86
001d
fa57
fff7
f308
fda4
f5bf
fc39
f9ca
fb1f
0752
fdc8
0c97
0a8c
ffd5
05c9
03f8
fe6b
fe6e
04bc
f7a1
0c4b
0d10
0665
f981
007f
f46a
0a25
047e
0945
fcf2
f88c
0baf
fb77
0e54
f1f5
0b75
f675
0021
0906
f0f8
f118
05be
0b1a
0841
f3fe
fc5d
0bad
fd50
fbba
f634
f2fc
ff4d
09a6
f7d9
01ec
fd46
0671
f32e
ffe4
0ce8
f4bd
0d05
0dd7
0052
09b0
fcdc
011b
0df3
0746
fa77
0b33
0d3e
0c5d
09bb
0a3e
0fff
07f7
0a29
0140
fcf1
052a
097d
f596
03aa
0fda
f2e5
100d
f8da
f094
fba5
faa5
078c
0603
f1a7
fad3
0bc7
fc03
06b2
0f8d
0ed8
f82d
01fc
0415
0245
061b
061f
f022
0a7f
ffd3
11e4
fef5
0dc1
f8ec
f98f
f30a
f334
f621
ff4c
f86b
066e
f25b
031f
fbcf
0a8c
041a
fcf8
f973
01d6
f2e0
f55d
0d33
f58b
05cd
fb25
fe4e
002f
f594
020e
1160
1160
fd3e
039e
fe20
01c3
fbde
f274
fc06
fd2f
f8d8
fd52
fc43
f267
0d74
07a0
f962
f510
fbea
ff69
eef5
05bb
ebb8
f6ab
fa87
fa95
fb62
ff89
087e
fdf8
f88f
0e62
0a2b
0c60
f55a
08dd
f373
f1d5
fc27
0574
0baf
f684
fc6d
f763
f769
f902
f3f4
02e1
0af6
02c8
0827
fb82
f794
ffd4
07a6
ff3b
fbde
07b6
09a7
00ee
f2eb
f7bc
087d
f9a3
0287
0a45
0580
f360
fc76
0daf
f15f
fbab
063f
061b
f7d6
f78e
f5ca
09a7
f6be
fd1f
f1cd
0a23
02ab
ee1d
f4ec
038c
0ae0
0324
f795
0713
f922
028c
fc99
f147
04e6
0a37
0255
0693
075c
ffea
f033
fdae
0c9f
faa9
f943
f26f
f3cd
ffa9
f1ae
f8c2
fe63
014f
0cce
0494
0ec4
fd11
0901
08b1
fc5a
0faa
0177
082e
fccf
04fc
f9ce
f13f
f148
0bf5
f9c1
ffa6
ffdd
fd19
0994
076d
fe53
f855
ffeb
04e9
f58b
091f
f2bd
0216
11ab
fcbf
f90b
02eb
fc9c
079e
fc59
0380
faf7
f2e4
0313
f682
f333
f6c1
0843
f8bc
f0b0
05c6
097e
0af3
fa58
078c
fc1c
0c2f
0839
f636
08b6
0f72
fd02
f740
fad3
0453
0bd7
f40e
f639
f9ea
0de4
0164
0d3f
f81d
f0f0
fc02
f96f
0a1c
fab4
0413
f897
f525
0d7a
026c
0ce8
022a
099d
f92f
03ac
f886
f963
f657
0062
fb59
0d67
f336
0dd9
06c8
03aa
fa29
0c1c
075f
0908
fcf9
04d3
0286
01fe
f1de
0201
077b
0ba0
08ae
f532
0f82
033c
0b04
0300
fb95
f334
073d
0a3d
f687
f70d
f415
01f8
f5ce
fa76
0679
07de
fc7f
0c0e
0f0a
0231
0005
faac
f1c5
0fe1
07e2
ffcd
08fb
0cce
f7da
089a
fc0e
f821
0c4c
103e
f7f6
f7eb
0363
ffde
fd46
0c71
05b0
03e6
fc7b
019d
0f66
0677
034a
0c2c
0f5f
0af9
fe45
fed6
ff7e
08c1
04e4
01aa
0697
efa4
fb10
020e
f0ac
0052
fc4f
1142
fb21
0735
fdee
066c
f634
0240
0370
f9f9
095b
fd32
0769
fed6
06fa
f68e
0d7e
0a55
f763
f81f
0866
0e28
fc2f
f030
0393
078f
01ea
02af
fae6
ff9b
f4b4
f423
0af0
fb5b
f12a
0f65
fd08
f63f
fe41
f2ec
06e8
0f78
f646
0844
064f
0923
f566
0c0c
f74e
f812
f25b
0e30
fc44
f0d6
fd6d
01d6
f610
f833
f58b
0dab
f234
fd9b
f473
f120
f1b4
0958
01fc
fadb
f21b
fabe
04e0
fcf4
fe27
f443
fcc8
0d58
07ee
fdb3
f258
05b7
04f2
f33a
f896
f69d
f2d1
0f20
fe5f
f450
f068
078a
0795
fc0b
0f72
fb27
f888
0159
01af
0d3a
f88c
0004
f529
f46a
f44f
ff3a
fa60
fe3b
0698
f87d
f775
fd58
fea1
05e2
f7b2
f06f
0a2e
042d
f76e
f8dd
0f82
0ba4
fdd5
f742
f7c8
faed
074e
f097
0b48
f617
f6cc
0ec5
ffcd
0829
002c
ff84
fe43
ffa1
0f0d
fe33
fb63
03cc
06f8
01f6
f9e0
0de6
076d
0ced
fd69
06ab
0c96
05d6
00c1
03d7
ff21
f1da
0fb5
fdb5
06dc
fb8f
f0b3
f5c6
f50a
05e8
0bf6
f4b3
05a0
0b58
fc07
05db
07a1
fda8
fcc6
f92f
0bb0
01c1
f57c
f9aa
0b55
0303
ff02
ff6f
0fd7
fac9
f6ba
0c40
0791
f4c1
faf6
faeb
f4a0
f8b1
08cb
f952
0572
08d4
0d33
f1f5
fc9a
f69d
0145
0bed
f86c
092c
0256
0eba
