06a3
f76f
f326
05a5
0389
0f31
0b23
fd5d
03ed
0067
0255
0e14
f114
f688
f974
fd1e
fb06
0348
f7b0
0cc8
089d
faa1
0278
0212
f3b6
026b
f77f
0d41
f826
0615
fc6e
fbfe
f247
0b74
0e01
f5fa
f4e7
f8bd
fc2a
f5da
fbd3
0b48
0bda
058d
fbc9
f036
08d8
0483
f0d8
f614
fcad
f07f
0875
f623
ff34
f1ec
f6ba
f52e
0af9
fe04
f202
f21f
fdec
f956
0530
057b
0456
f123
f9f8
ff9e
f843
03f6
05ae
0ada
fa3b
f67f
0e18
0668
f526
0a4a
00d0
f386
f3dd
f63a
02bd
04c4
05e1
09eb
f07e
fb9e
0960
f959
f9af
056a
03cb
04aa
0cd0
f7f3
f0a5
0c4b
0224
090e
f73d
0050
0f45
f98c
02a7
f6ba
fa3b
05e6
02ff
029e
f7ec
03d0
0943
fb50
fad2
0179
0873
f5fc
ffb7
f4b6
fd64
0841
0c56
0861
fee8
fae1
0fd3
f5a3
03b2
0400
0a42
f75f
fee2
f6df
f9f1
087d
01dc
fc63
0e77
f0ef
0bc8
f622
06f1
f0bc
fa50
f1ec
fcde
01a6
f502
f6bd
0fe9
077f
f2b5
06ec
f6d0
0d72
0161
fc9c
f149
f6f3
f8ff
f1e0
f5de
0a8b
0271
f316
f788
0122
f77c
0d35
027e
03fa
0af9
033f
0a90
09bb
ff26
f1a1
050a
f650
fc26
fb5f
020d
0136
071e
0324
f67e
0912
f9fd
faa6
f02c
f4c2
0f46
0f13
fdfb
f117
fa3f
06dd
f74a
0b29
f489
fb07
fa51
031b
0ded
038c
fdbe
f0ed
0cdd
f529
f7c5
006a
0e29
f716
08de
f390
fd51
f91f
f35b
01ee
0849
0bef
f21a
004f
fe3b
01fc
f624
0539
f438
f801
fc25
f856
f778
030b
f6c0
fa25
f805
f40d
00a0
fb1d
f36f
0e14
0e90
05d9
095b
fcbb
fd9b
f024
f250
0223
0348
f2a5
08d4
02f7
0128
f955
f601
0986
0a62
f01f
f968
efcf
fd85
080a
fc30
058a
0f86
f29f
fd67
0a90
f12c
ff82
eff9
0950
f07a
0631
0927
01a2
f35f
fb25
0ba0
fc1d
0342
00ec
f222
f61d
050d
0253
f147
044a
09e0
018d
0039
1177
0d8a
0a3b
0fce
f493
004b
f3f6
f5c5
fb80
f995
0937
f4eb
04e7
01e0
0b9d
07e3
0934
0961
05ec
feb7
0dff
f94c
02f8
0b16
06d6
ff9a
fcb6
f554
fc72
0099
f3bc
034f
01a4
f916
fd96
0e8b
fd3c
f8ac
f276
ffb7
ffad
0b82
0e51
0bd7
ffdb
0d45
fe26
ef37
0e33
ffe6
07fe
f1a2
f919
feae
1179
038d
f767
ff8e
0157
09f0
0788
f7a2
f375
04c1
0c50
0b10
0dbc
fad6
f8a4
f63e
f074
f99f
f5c5
fa5f
07ae
fa21
eed0
06d5
f3e7
f000
0521
09d8
0906
fff4
0ece
02ea
0652
f214
f235
080b
f16d
f9c0
0b37
0c10
fc29
fa55
fadb
f162
f5a5
0448
fd45
0d2b
f277
04d5
fb0a
0b93
01b3
f2b2
f42a
060a
0859
0591
0538
f771
f032
018a
fe80
0cc6
09d1
f136
fd08
013a
f69b
0300
071d
f8c6
f94f
05db
f129
fe28
08fd
ffe9
f32b
0baa
0511
ef01
f61d
07d1
fcb7
f8f8
fe42
fbf7
f505
fb0b
048e
f86a
0345
f992
f393
fc85
0498
05c3
0c46
fff9
0fbd
f806
0602
fe55
f94f
089a
00c7
03a0
f173
0849
f5c4
079c
fd66
059f
f291
0e6c
019f
0d94
0515
fc7f
0f11
064b
fa61
0b99
0a5a
fe3e
009f
fd77
f39d
f4b1
f909
02dc
f2de
fd48
0dee
ff6d
042b
075c
f13c
fde3
f46e
0823
f2ea
01eb
f460
0c0a
00a3
0214
083f
fc64
f91d
fe3c
09ff
07ff
0ead
f4e1
00a6
0f7b
0896
fa23
f5b7
028f
f044
0304
fc49
f01c
fa9d
0aa6
f86d
f77f
f54a
ff70
ff72
fa83
ff26
faa7
0543
0e8e
08af
f2bb
0b1b
f5ba
0c57
f21f
ffc6
041f
f398
0fe0
06cb
03dd
05cd
0125
fbb3
fabb
f441
0a51
eeb1
f4d1
09eb
09fd
f217
fd98
f475
026d
0973
0824
f178
ff36
0cf3
0e84
fdf8
fa2d
fa33
07a4
0dc2
fdba
06a7
ffcf
01b6
f2ec
03be
05dc
0baf
0799
fe0c
f463
f45d
01f6
0b8c
084f
f350
fdac
0e9a
0641
0475
00b0
f0b3
fdab
0d55
f418
00f1
0aba
fa1f
041a
f080
0259
ff34
01ab
0fbe
09b3
0d0f
fa40
0762
05fb
f143
f108
f878
058e
0ec3
fe70
fec7
00af
f817
0c45
0e61
0ddd
f43a
f215
002d
f08e
fa31
0392
f508
f4c6
00c9
0012
0136
f145
0e52
01f6
0144
04f5
feb7
01b9
feee
efac
fa2e
f65b
087b
f33c
0092
fa1b
fa72
f2d0
f72f
0dac
f606
0d8a
0e93
0bf2
001a
ff71
0a8a
f5e5
f4bd
0b4e
0dc0
01a1
0631
02a5
0f92
f582
0d02
fa59
f7d6
011f
09d9
0bd6
f564
fecf
fee2
05c8
029b
08d2
0bb5
0c71
0233
fde3
f7cd
f94b
05fd
f8a7
0bba
0543
0de7
0404
0c68
0e61
f7b7
0008
fcea
0dd2
022e
0046
0123
fb92
0391
f38a
0174
f719
07ba
0206
04f8
f5cc
f33c
07d2
01a4
f3d5
0346
007e
f7b9
f633
f81d
03d5
f394
fa9e
f067
fb10
0dfa
0705
06dd
f831
00a9
055f
0908
0af9
f169
fc0b
0540
0247
fd32
f133
0502
06e5
0f7f
06b3
f90c
f05a
0b94
053b
f4a3
fb0f
0c61
0a46
0e7a
033e
f067
fbcf
fee7
064c
03f5
0937
032b
fe07
fa40
fffe
f0b3
f8dd
f85e
06be
003e
0e24
f5cb
f7d5
fdc2
f99e
0f2d
f454
0c11
fd53
0e10
f6e6
0f23
0318
f8fc
005c
f34f
0dd6
f759
fecf
f539
0157
f27b
f96b
fe45
