f2ee
0030
fa4c
fe96
f648
f3d8
0514
fddf
fd48
f17b
fbfc
08cd
fd65
fd99
0617
f715
f50e
fcec
0401
0836
0ed2
0d99
f1fa
0ffd
fa05
f00b
0d1d
0119
02c1
04cf
09fa
f499
f0a2
f1b4
f28c
f20c
fb2e
fbc6
f40c
0266
032c
046d
08a7
fb73
0390
f808
0565
0401
0caf
f312
0657
fe98
f704
f177
002e
0848
f766
f93a
04d9
f597
037d
f424
f94d
fc40
f7a7
0f21
f19d
08f5
ff28
0ca8
03bc
f340
0e66
fc55
070f
0d10
fb01
faad
fe99
fcd0
006f
044a
0cbc
f6cc
f0e4
fe52
0940
f16c
fdc0
f920
f95a
100a
0586
f2ed
fd6d
026a
09e9
08cf
f7fd
fd7c
f6a3
077f
0b89
f58a
02ca
f76e
0363
f522
0886
faec
05ed
0212
0626
0c3f
013c
08e5
f962
0b6a
0f37
08a5
0d36
fb90
fced
0722
10c3
fa49
0c89
0200
0278
fb8c
f057
fd4f
f1d0
f3a1
01e9
f1cc
f20c
f727
08e6
f131
0e47
02ed
ff8d
f80d
0e76
0b5d
061b
03d0
01cb
0dc3
fd75
0804
03ce
0c1b
01e4
ffef
062a
ef9e
f017
007f
0585
f6f8
0531
0084
ffe5
f2c2
0954
fa62
000a
0c01
f13a
070c
f500
0231
01f6
f1a0
0231
fd2a
00ab
f8ce
0579
fb67
0827
1160
fbed
fce9
0339
f6f3
f288
f5bb
04a5
0081
0960
f794
f612
f81d
0c0a
f9f8
00ed
f42a
05ed
fe53
01ca
0136
fb51
f269
0d3e
f9cb
0458
fbd1
f5f7
0b9f
123d
110e
f9cb
f487
0624
f21e
f779
0272
ef49
04fc
fb1d
0525
f702
f8fa
030f
0e7a
02d6
10c0
0ffb
f044
f5c4
fa3c
f60d
0714
053b
f95b
0bfb
0c51
08f3
1126
0436
0817
0755
f08a
089e
f56c
f6ae
f4b5
0cf8
fbe5
0ab7
02bb
f6dd
004d
f3ac
f94c
fb8c
0e1b
0756
fee3
0142
f74e
fa6c
0c5d
109b
0040
03b5
f48a
0150
fefd
0b4e
f136
f670
f200
09b8
f024
0e55
f923
0851
f479
ffd5
fbb9
0ee3
0fa4
04fb
fb4f
f511
0b0a
01ae
0c2d
06b7
05d8
ff21
05f2
0b4e
f79a
0866
0d1a
f4dc
04c1
045e
f9db
0b8c
0676
fcc6
fcbf
0310
0418
f96e
0486
fd16
0ebb
f15d
0b4f
0159
0ca6
082d
fb3d
efa1
0066
0e2b
f3b3
0af4
f6f1
073d
0127
0745
0811
0876
081d
fa94
f1bb
f0f7
051f
0f2e
fe01
04a5
0c0f
fa08
f4ae
03c0
f63f
f639
f85c
08fe
ff56
f64d
00da
fe17
0693
fe67
107a
f610
1174
f84d
f2f2
fd99
fcea
0434
f3b0
022d
0f31
f771
fb93
0eb8
002a
f561
fbb4
08d0
ef88
f12a
025c
f0ad
edcb
f98e
fa08
f830
0760
01eb
f9b5
fb77
028d
0434
001e
fa74
ff69
f56e
fd17
0116
f06c
0b2e
001a
05bc
0d50
0839
0d32
0278
0a82
f467
fbda
fe7e
fc1b
0a53
0501
f64e
feb4
01d7
0c80
f9ef
07a8
f57d
fb98
04b1
01fe
f16c
fea6
fcbc
f9c4
0a70
0d0c
08a0
0b13
fb99
f505
07fa
0904
faa8
05eb
045d
fe54
ff40
0ae4
f6bd
0873
0d28
031a
0d87
0707
fe64
0330
f601
0ce8
f2be
f988
0dde
0a55
0b96
fb80
03bb
0a1e
f974
0462
0b8d
08dc
f806
f2ed
feb9
0800
09dd
0f2d
f60d
f71c
048d
ff04
f523
0cc9
f4db
0a7c
00a8
faf0
f95d
f80a
f58b
06b4
f87f
0ad8
f6d9
ff07
f2b6
fa2e
f802
014d
057a
08b1
f210
f12c
fa93
f5e0
021d
04a3
0c4f
f23e
071e
0421
0c05
0028
f3a5
0061
09a0
fadc
fa0e
fb9f
062b
fb39
f4c3
0ca9
ffde
fb1d
029d
f964
0b35
0702
099c
02e6
0c6a
f921
0568
f13c
f29d
fba3
f3a7
061a
f534
faeb
fb09
0bd0
0b7b
f72f
fae9
fbe9
0ade
03a0
f75c
0f66
fdc6
f982
f7fe
fdef
0225
0a16
f8c2
093f
f4d0
061a
f305
0d0e
0725
f2ee
0afa
f9b3
fdab
f82a
fb20
0e28
0c06
06b6
f5e9
f403
f368
0cae
0402
f286
fb09
075d
0740
f286
0b04
fdc6
ff14
fb57
f130
0ac0
f892
f632
f5d3
f2dd
f835
f974
fa89
09af
f802
0d56
0bfb
0080
fd56
0186
f16a
0620
f08b
fe68
054e
0af3
037a
f75e
fdf0
fac5
fd97
0023
033d
fade
ff16
0bef
02a4
fc93
075c
fe5e
05ad
f4c0
0545
07e2
0468
09f4
04cb
f7c7
0fde
07ce
fce6
08b2
06ad
0dd1
041c
0593
0b40
f92d
0d91
0b5d
ff0f
0b8f
fc45
06e4
f63d
f85e
0a62
0800
0308
f94b
0ded
05b4
0679
010f
fa37
0823
f4fe
0a41
f105
f631
f1ee
005a
ff5f
f317
0aa6
f670
fee2
f54b
0067
fe64
f95f
f7d4
ff71
0891
0cfe
0ad9
fb14
0c20
0852
f17b
f89e
0d07
f6f4
0dd7
078d
fa69
0095
0f04
fe9b
f9c9
0564
0103
0b6d
020c
022b
f188
f9d6
0d79
024f
f1a5
1111
f356
02cd
f0ac
0677
0b07
0393
f32e
0cbe
f18e
0007
f062
f9b3
0f1f
04aa
01ba
0f06
0b7c
0d12
f67f
f529
fc0f
fe45
1005
0a22
0d4a
0b0a
f8d7
f32c
0892
f3ef
ff88
0e05
0a01
ff00
0438
037b
0675
0941
f0b5
0591
f536
f4c1
fc3c
fc87
f52f
1032
0907
f744
0893
0cd1
f765
0b37
0f47
09c4
0b97
0686
0891
f279
f91b
f5ac
f42a
f2d5
f4a6
fcad
fd8a
09d9
f45b
0b12
0054
07f3
ffd9
f077
fc91
0cb9
fc31
037f
0821
fc24
fca0
f181
0ec6
fd6a
f1d5
fe52
f403
0f40
ff18
0df7
f828
ffed
0880
0bfa
076f
fc29
0303
