fdcc
f64c
08f0
0e71
0760
fda1
fe07
07c2
f7fb
0eda
005c
0948
03a9
0e97
06b4
f3f8
0c78
019d
f5bb
fcac
0dd9
0675
05c1
fd33
0664
0996
0b1f
0faf
f94a
09c8
06cb
f07b
0a60
f08e
f564
0bfb
f71e
f109
0d91
0a47
f19b
f0d4
0199
f654
f428
00c6
08e3
0cc2
0c67
0bdb
ff05
fdaa
0b1a
fa79
f844
04c2
0372
01e0
f891
fb52
ff78
f8b0
0f50
f4a5
f8af
063f
0a16
00d7
02dc
03e2
fa7e
092a
0f63
f322
0d76
f8fd
0470
0c2b
f703
f462
0309
f5ad
0cd2
0d5f
01ac
024b
ff19
f093
f45a
0f83
f78b
030a
0547
0bf8
f485
0089
f1cb
0bae
f8d9
058c
06f9
091b
f7b1
0dd3
0d12
0f9a
fc17
fb2d
ff5e
0dfe
fb88
0e22
f7b4
f800
fb5a
f70f
0198
0e46
f187
f489
f398
0a81
08c7
f511
0a75
0d21
076a
0df3
11c3
0b0d
f93b
0db9
06e7
f091
041b
0597
0ae1
0c5e
ffd1
016a
0cd0
f6c1
0fdd
02bf
0ebb
08e9
f13e
0eba
f47c
f615
0988
f72d
f98d
0fdc
0f60
f851
f586
00a9
0363
043c
00e6
03b3
01be
0145
fed0
f9ca
03c1
f14a
fd63
fe2b
f547
033c
006e
f22d
0475
09b1
07de
fcb7
ffaa
016d
07fd
f423
0ae6
f285
ff69
f99f
f8de
0c67
f191
f728
f7c1
f7f2
f3cd
0a63
f591
f336
0b04
0b13
0a83
f2c1
0f74
0a35
073a
03d1
fbac
0c72
0b71
fa53
f783
f4e2
f8d5
070f
0492
0c16
0172
0d02
f51e
f992
f4df
f2a3
0515
0fb8
018f
0120
fe59
015a
0ca1
fafd
fea0
0433
0099
0387
0329
f8a2
063a
0e89
0df9
ef14
f490
f120
09e6
0861
fa3a
fac3
0327
f1db
0989
f4b3
fe44
0ed0
045a
fcc2
0fb9
09ba
0d63
fcfb
f0aa
01cd
0a74
fcdc
0521
f4f0
0593
0596
029e
0d08
0b20
f962
f471
f496
f381
0784
fa26
fa3c
ff51
f4fa
000a
0a17
036d
fdd0
0575
051d
f3ad
0996
f512
f9fa
fbb9
f153
f1cc
036a
034e
f982
048a
00de
f284
feff
0377
0b05
f508
fc20
f75d
f5ff
040d
0504
0d89
f6fd
0b7a
0b6c
0fb4
fff7
02cd
fac6
01aa
0a27
fddf
fe07
f83c
f22b
0352
f5ef
ffbc
04e6
0b06
f2b5
02aa
fb38
0374
f8b0
0331
f5d8
0f22
fa03
0830
f4d4
0dbc
f8ca
f867
f479
f0c5
0bdd
0388
0990
ff3f
0313
0828
0002
fde3
fb24
047a
025c
faf6
ff45
0028
085e
fe65
ff5b
0527
0e8d
0769
ffbe
f5f6
0221
01c1
0e93
f8ca
fd2c
0ad9
f9f9
01e4
f754
fbc0
042d
00e9
fd61
0914
f736
0ead
1133
f42e
f554
f850
f0e0
fe88
0a74
f33c
fbcb
f91d
0724
02f6
03e7
fef2
f05f
fa69
f5be
04cb
ff84
fc81
098d
fd14
0baf
fa5c
0246
0716
f590
0e87
0095
0140
ff69
02a3
0369
05ae
fcbb
f36b
02f7
0dce
0326
08cb
f8eb
0cac
05eb
0cfd
fd27
0255
09bf
007d
fe66
fbb2
f21d
f396
0d9a
0686
08ec
f1dd
f3c2
f92e
0a1e
0c28
0124
04b0
fb74
0745
0908
f8a4
0616
fbce
f09a
fed2
05f1
f7fa
fac9
f4e3
0e00
0dbf
f387
0135
f508
01b3
0307
fd49
069c
06a9
f742
fdef
001c
ff99
f509
007c
fab6
0f2d
0188
0d85
00f9
0d46
0a93
0e9f
f6b3
03e0
ff44
031b
0a8c
fc47
f01a
fc84
0c63
ffbb
081e
fa41
f90e
0b1d
0833
f7ff
f23b
0c01
05ad
016e
0d6e
f339
f83d
11a5
f40d
0f36
03a9
0589
f1ed
f7fc
f5ab
f6fe
fddc
f2d4
035f
0472
f79e
0401
f894
f5c9
08fa
fd31
f2d0
fee5
fed1
0199
fd24
038e
1135
fe59
f80b
f7d9
030c
03a7
03c6
0e55
0561
0d2f
0830
f48f
f5ef
0a0d
f907
f6cc
02d4
10ad
0c0c
0d36
11e3
03a7
0897
0d78
fd12
ff25
0694
06d4
fdce
fe2c
0a00
09e8
fd99
f82a
f933
ff04
09b8
0487
f59a
0e69
f343
ffd0
fe1f
0be0
0f2d
0fd4
0859
f842
f8fc
051c
0e4b
0660
0ab8
0a7d
0c68
fe47
03d6
0ae2
1170
0538
f737
f612
07f4
05b5
0bc2
f731
060c
fcc1
011a
103c
f8f0
0880
fbb1
0ae2
fb38
10a5
0a3f
f74c
143e
fc55
08a0
0c00
09f0
1117
0cc2
0328
fc8c
0a3e
fdda
0f79
fbd8
0b93
019e
ff8e
01f3
09f8
045b
fee1
0ad6
f645
ff12
0dc9
01cd
046e
fc79
ffa0
0bd4
0a0e
09da
f636
f5be
ff94
0889
f36a
0d13
097e
fc1e
fdc9
0fa7
fc97
070d
0aeb
f9d8
0fc1
fefc
0cae
0558
f1b0
f9fe
fe15
06bb
0086
fc8f
0180
04b3
f27b
fc5e
f84f
f5b8
0083
f0b2
09a1
fc38
0cd7
fdb2
fff8
f178
f05c
08f0
0a3c
f24a
fff7
f48b
f745
f63a
0c20
0344
fe95
0423
0503
0963
0d6c
0759
f4fe
f36c
0834
f548
f3f6
fddd
084f
fddd
f880
0864
ffe5
f3e3
06bb
f3db
f85a
faf6
f717
fffa
0fa8
fd7b
fae6
f6f2
00af
f0c3
0d7a
f617
02fa
f4c4
f41e
f324
0132
0032
fe03
fa09
0bdd
f206
f6a4
0f64
0c97
07e6
0d95
0861
0433
074d
f3c5
0805
f2f3
f9ba
f5d6
053e
03d0
ef93
0a85
f6f9
fa8e
0da6
f8cc
f8d0
0763
02a1
f98c
04cd
0cc7
f52c
0598
f0fe
f463
000f
f541
0b6a
06cd
f01d
0726
02e2
0ee3
0faf
fa12
f904
f2ac
f8dc
09bd
fff7
0ee1
0de4
f2f9
0b46
0634
f2b4
0246
f16c
f051
0fb4
008f
0c19
0689
ff57
0a04
f794
