0261
fb62
fbd7
01b2
f2d6
f4a4
0c76
fe5b
074c
f60f
f7e8
032b
0525
059e
0904
09c5
07b7
0619
f4a5
fd25
ffd5
f753
f706
0ecf
ff47
fba8
f3a2
f22d
04ef
08eb
0f48
0c25
0c98
fbbc
03f3
f28c
f396
f3e9
0943
0cd8
0a6f
0538
f61d
0f81
f69b
0413
052e
021e
0996
f6d6
fde2
0822
fb2e
009a
0b45
0726
0982
f609
050e
07ad
f29c
0fdd
0d3a
02ff
000f
0bac
f25c
057f
07c7
02f5
0b7d
0ea3
fb52
fdd4
0b69
fa09
06e3
f715
f502
0b2b
0c24
fcd0
0504
0950
f440
fdbf
0674
02cc
f5a9
f724
faff
f04c
f0ed
f1f2
fc45
0d8e
f3ea
0084
fa50
07b3
08cb
ff53
015f
f12b
0781
01a3
0ae1
072d
f496
0d4f
0521
01ae
ff43
f133
01fb
0697
fca1
0df8
056f
f98c
044d
f815
f0fa
0b5a
f922
f593
fbe0
0222
f17e
0bdc
0fae
0181
f056
0d49
0d7c
f0c3
f46f
0570
0d71
0767
0810
f3a4
0666
f790
04d9
f484
f7af
fb07
f0a6
f027
f258
0acb
0d3f
0a8b
0a32
fd74
f840
f9f3
f814
004f
0b8d
0d22
06b4
1032
010b
0da8
f96e
fa76
fd74
f0bf
f91c
0631
0159
08e5
f097
01b3
f546
f485
f979
fe5d
018e
f8fa
f28e
0116
f593
0933
f4b2
005e
0867
0ebd
f5df
f355
fa26
0c91
0a3f
01db
fc34
09d0
fdf6
040b
0d57
f0c9
f706
058f
f34a
03ce
0285
fc10
f6cd
fc42
f5ed
100e
f984
07d1
068c
0eeb
00d6
101a
0698
fe29
f6fa
f8ee
021d
fbb9
0c08
f7af
0e7f
0d7d
f087
f781
0b6e
06a0
fdf2
0846
051c
fcdd
0c22
0fb3
f56e
f620
fb9d
f468
0863
f7f1
0ea9
f5dd
f449
f26b
0076
03e4
fe44
0852
f552
f4fc
f9be
f042
f60b
067d
f6c1
00f6
f2f5
0800
02c2
fe8e
03aa
00d7
f58f
fa0c
f815
09d4
f2c2
06cf
f179
0feb
f8e4
fbb5
ffbf
fff6
0f53
0b08
fd56
00e1
f926
0d09
0c9c
024d
ffe8
f1a9
0a67
f166
04fa
0b98
f02c
02a1
05f6
1007
07f6
ff5e
f280
f43b
f967
0541
0c8d
04a7
0c2f
0275
f4b3
faee
027d
0d34
0122
073a
0120
01d6
0a54
02ae
f364
fb6c
f3f9
efc0
0606
f394
0cf7
f47c
f5fe
ff5b
f692
091d
0883
f2d3
0f2d
f2c1
0eae
0373
f3e6
0321
04a3
f8e1
0886
0781
ffa6
f354
0834
fdc2
02e3
f42c
00d8
f390
ff8d
fdc9
0cb9
ff96
0fe6
099b
06a4
03b4
ffed
f74f
0f1b
008f
f734
02ef
0cd5
0b76
03f3
f472
0fa7
faba
fd25
0a8f
07d5
f272
0e7c
fb0f
0cd2
09f5
09f8
f7b9
f2ab
09ee
062b
fa2c
02a9
f674
0653
05ba
0840
0339
f08a
f676
01b6
f29e
fc2f
0305
0c29
072e
06d1
f06a
f59b
f31c
ff0f
0302
fd22
fdb6
f2ff
0a26
fc34
0c49
fe8a
fe29
f19f
ff32
0861
0f95
f74f
f8e6
0826
08b0
09f0
f974
fba5
0b11
f421
0411
0ef6
0c1f
ffec
0bf4
0c76
f8f2
0a26
0743
fa7d
fbb7
f971
f73f
f289
f52d
050a
0083
0252
f8e0
06fb
05b9
0cec
0c59
016f
f3d5
f611
01e6
f595
f189
07b1
0ce9
0c6d
06f4
f5cf
fe29
0015
0ed9
05ec
01a1
f6e7
078d
0c5c
f2fe
fd2e
fe56
f2fd
f495
03ba
fb88
f7bb
0826
f0b4
fb53
f7e2
fafe
0c83
f76b
0e6f
100e
05f2
f354
fbd9
0179
0f0c
0919
091c
045b
02fe
0326
f80d
fc65
fc33
0a02
f705
0f50
05d3
fe4f
0a23
002c
f547
f06a
f4b7
f67f
006b
02bd
fc22
fb5c
f59c
0e97
066e
ffbb
f2f9
0bf7
0796
f70a
f2a1
f7f7
0e17
f147
0c51
039d
0415
f6e8
0a88
0984
032f
f8e0
f8da
fd7f
0239
ffed
0404
0d34
fdc0
089a
f0db
01c2
fddf
f174
fc66
fc4d
f727
efa4
fd84
efba
fce4
0c29
0ab5
f402
fd14
03d8
fd30
f3f3
fa6b
f787
0010
028b
06c8
06a5
fe96
076f
094e
fc68
f2eb
f605
0bc6
0652
0609
f317
f966
f957
0bb0
0147
f9d9
f79e
0210
0adb
0e55
f67d
048b
f291
f2e9
08ea
0092
0b2e
fdbd
f76e
0efb
0c22
07e3
f85c
ff4a
0659
f362
fc16
f3b4
fc14
f094
fe9e
00e4
0893
f707
ff04
fb02
0a0e
0fa9
ff64
fc01
0d59
030b
07ab
0730
0eb7
fb51
fbbf
fde5
0b11
0c75
1069
f966
04ef
ffc1
ff87
fa22
ffdc
f070
0006
0ce4
0146
f308
0aca
f26c
0f08
f18c
08cc
fb97
0da3
f4f7
f60e
0c21
0181
0d02
f3e4
f893
0313
f89a
06dc
fc46
09f3
026f
f555
f45a
04a2
0034
fdc3
0fbc
fe08
01f2
03d6
ff6b
ff27
0be5
016f
fe25
082a
ff9e
f569
f335
0190
044c
0618
0fa1
0d0b
ff8d
061a
ff37
f884
01f6
ff37
fb1f
f9cd
fc99
0302
f0a0
0be1
0a73
f3b1
03fe
038f
1039
0f55
f41e
fbcd
09e7
f496
f663
091e
f4d0
fe97
009d
0c3f
fe10
f630
f058
092a
f99d
fa53
ff07
f5ad
0727
fa91
0246
f38e
f52d
0e04
08bc
f861
05ad
f47e
f1be
0288
fd74
0a2c
0898
0a5c
07b0
f304
02cd
09e7
0f2b
f28e
fb4d
f430
0d77
00c5
0f80
06d5
0c64
f1e7
fedb
03ba
f15d
fc85
f63d
f216
0962
0001
04f6
fb81
0976
0655
fd7c
0924
0d5d
0cf7
0367
ff18
0772
ffd0
f348
0f33
0e94
f0fb
0fcc
05a9
0210
ff63
0b18
f7c7
f4c9
f315
fe3f
f3a5
fa3e
0c09
f372
058a
0873
f66a
0a02
0036
