034b
048e
084b
f250
f1d1
fc49
09ed
f643
065b
0a28
ffca
f5cd
f7b3
02c7
f1df
0d73
0b67
fb83
f57e
faf5
f092
f0e9
f6f0
fd3d
fb3e
053f
0f01
f450
f382
f858
f55f
f78d
fa4d
f3ff
f91c
0f0f
015b
f0d2
f208
068e
056c
0384
f600
f364
0c0c
0ef7
092e
01b2
f3a9
fabb
f775
f2b7
faf0
feac
061a
0e24
008c
f9b3
fb30
0d2a
fb70
f91e
f766
f6e5
0f09
f4e9
ff6c
07bd
01b7
ff55
f2a5
f8ff
ff69
f66e
f95a
037a
05f8
0a24
f81b
f397
fb84
f895
f540
fe2e
0f57
0533
ff55
0a9b
0a8a
0b81
fdad
fdfc
040f
003b
f9e8
0f42
01bf
f8d5
0232
0e8b
f35c
f33d
02e6
05bd
073e
0311
050f
0654
0317
fd09
0a56
0df2
fb1e
0bf0
005d
0be5
f8c3
f60c
0bcf
0c55
f965
fdbe
0abf
0e76
f156
095e
fae2
06ff
f1ff
f701
f4fb
0b2f
f544
f439
f22b
f2de
05eb
082a
0a60
00d4
fb5f
0325
fff5
f8e7
0c10
fe49
fbfa
f079
03bb
fe30
fea1
fe5f
f041
0582
f127
f13a
f535
fd8e
f076
f098
f65a
fbb3
05b3
f577
04fc
f620
049f
0b4a
f202
0c54
f7c1
f730
0ba7
fc4c
0d42
0e5f
f758
feb3
faf0
f2ba
fc2e
0094
0ddf
08b9
f869
fb49
0a47
fb03
094d
ffde
0665
ff0e
0ce8
fe8b
f1ab
f986
f63d
0843
0d06
fb6c
f730
f2cd
0e3c
04c9
fd30
f18b
009c
f5b5
07a3
03be
fa32
02ab
fc88
f535
0b65
07e5
0bef
0c3c
1443
f9de
10ce
04eb
ff40
f7be
fcd7
fcb1
ffc4
fc44
007c
0a6e
f17d
0748
0a31
07f3
080c
fcf4
0857
0456
fd1c
0ba3
0bf9
04dc
135f
03c9
062a
fc77
ff2d
0a87
0af1
fa17
01ba
0900
fb4e
f53a
0baf
093e
f8d2
07d4
f51a
f9db
fea0
fc3a
fb4f
066d
0f95
0a7c
019d
f945
0ea0
01e7
0d6b
f885
03b9
0a7b
06b9
f9e0
0887
fbc9
0f1f
fc74
0b1f
f143
0a7c
04e3
f0c1
05be
fd42
0d01
0337
f1db
019e
ffca
04ac
0768
01e2
0c4c
f1b5
f2e5
05d7
f266
fb9d
f404
f94e
0692
f36b
02b7
032e
ff28
f90d
f8ed
f93c
0887
0c34
0e7d
0546
0a95
fed8
06de
02da
0796
01cd
f898
fb31
09e9
f2bf
0098
0a50
096a
002b
093c
fb3e
f41f
0357
ffb1
fc09
fa9c
0220
000e
0a3d
f120
f826
fe45
068d
ff94
fc52
f76a
fa76
fb53
024d
fe82
063e
f167
f1a1
f107
fb66
fdc1
078a
fc91
08d3
f352
fa05
f020
0db6
074a
0927
fc0c
005d
05c4
0af9
05b7
02ff
fa48
00ff
f7dc
fd9d
f50a
f3d1
0bb1
f307
0aa7
f5dd
fddc
fa18
f033
fe36
fdcc
0bb2
0e6a
0b0f
f823
05e0
00f3
0233
0120
f837
0e1e
fd4b
f5a8
0617
f1cb
0e84
f435
0bba
f97b
f8a8
fb1d
02e0
0468
f9a6
0b0d
f6ef
f27f
0721
f6d7
ffef
f64e
f723
fd81
00df
f4ca
f263
f673
f856
0f56
fa4b
02b1
fa24
f467
00bf
f5d3
f3c5
0b78
0c4d
095a
f812
0e64
fd8a
fe99
f813
f352
f174
000f
00a6
0314
f981
0f1b
0b2f
f399
f088
03b0
0bef
f418
f8fe
f158
fcff
f3b1
fd0d
f93b
f413
f9e0
01bf
ffc6
f1da
faaa
f8d6
fc00
0a2f
f360
f9aa
074d
f375
0d88
0f28
0e3e
067c
01ce
f782
f730
064f
0b90
046c
f523
05ef
f9a1
fb80
0b3a
07f4
0dd1
0860
f2c6
f9ec
06ea
f7df
0bda
0d54
f6a1
0755
ff1b
ff91
fbb3
f658
0185
09f5
f21f
f036
0dd9
f2ad
f9fa
05f4
f7e5
fc2d
fcd3
f930
ffed
f3f3
03aa
f4e8
09d5
f6ec
f1c6
fb44
0928
f4fe
faf9
09a0
f6cb
04bf
086e
0981
0615
01f4
0738
00fc
fb87
f853
06e8
002c
0965
0fae
fd73
f54f
f1ba
0105
fdc6
ffc4
0103
f0fa
078f
f4b9
0485
f9c9
0950
035e
00ed
f552
0caa
045b
020e
fa8c
fd39
0423
f9ac
0a56
f5b4
f3d0
0090
0100
f926
0d08
0463
fd7c
0a7f
fc04
ffec
f7a5
f220
032c
108b
fd6f
fcba
0804
f283
f9af
034a
f72c
f420
0207
01e0
07fb
ffc4
0535
fd83
fb5a
fb73
0d68
f431
07ed
f081
0550
f353
fd62
f355
0d4b
067a
f8a9
f7e7
098d
f56c
f85e
08a4
f9a1
0edb
048b
f937
f34b
0d60
f6a8
fed4
f0c5
0d29
0391
06c9
0117
055f
0df9
0075
f367
0677
0d3b
0b89
feda
00db
009d
0464
f2a5
f5d5
0de8
0497
f102
fcdd
f374
046c
0515
0e9c
f73a
f001
0672
f276
ffde
0aa3
f7a1
080a
f8f3
0812
0a22
fd12
0bf8
fac5
0e2f
0943
046e
0c18
0ad0
f8a3
0313
08d0
08ed
042c
0636
fbfe
0ca3
0fb1
058f
0abe
fd36
0bbc
fc75
0994
0e9f
fc00
075d
0318
0d13
0c86
1285
fa92
05e4
f91d
07ad
f61b
f762
0f6c
f5b6
070c
0e4e
01fb
0b3a
062c
f2e7
0367
0918
0f18
0de2
04f3
ff23
fdc7
f623
01c8
f0ff
f602
f5a9
f76b
01e5
028a
083d
f3df
f9d5
f595
0167
0959
078a
fc27
f672
0987
09f6
04d9
f7bb
0b82
0225
fe75
04be
0aa5
f678
fd5c
fc05
0b86
ff41
f1d9
018f
f0da
f8b0
0e93
051e
0447
ff0d
0001
0f26
0465
fda0
02cc
067c
0262
0be3
f697
00a2
0cbd
0460
f114
076d
f2d3
01c3
0cb8
ffd5
030f
f089
fcfe
0f69
01d1
0b6f
f1ab
059b
f16f
0c43
05ed
f836
0b62
f8c2
02dd
fc15
0bca
0f9f
fad7
09df
0653
