0a1d
02cc
0ad6
0300
f7a0
0161
00cb
05e9
ff0e
f022
05d4
facf
025c
fd6d
fb71
07b2
00a6
f394
fde4
ff50
03b5
ff6c
fb3b
04ab
0c00
03c6
f1d3
076f
0390
f5a7
08d3
fc54
06a2
0909
f8a8
002e
f6a3
f0e1
f272
f3cd
074b
f974
f03d
f192
f782
f456
fc63
f8f1
fb5a
fac0
0f05
fc1e
ff33
fbc3
fe5c
0d97
feae
09b4
f789
f158
0c6f
0bd8
fa0d
f013
f514
0456
0c30
f4a9
fc2b
050e
0c1e
f3af
f715
f088
005a
ff28
f429
f7d0
0f81
fab0
0ee7
031f
00c3
003a
f4a7
0ad6
fdd7
0e0f
0e2c
fb40
f9f1
04e7
fbe0
0365
f683
f46e
f30a
f26f
046c
f3d2
f19d
f808
fcdd
feb8
01f9
0378
03ab
f35d
f932
f053
f8b9
00d0
046f
fceb
f4bb
fdd7
f7f2
feec
0a98
0e33
eff2
fc42
00d9
f922
0b8d
0049
0a8a
f646
003d
0e37
018f
0a00
0b4f
0fd9
f90d
0e67
04a9
f3b7
0214
0a6d
0489
0df1
f179
0043
f5a7
f64c
0231
0da5
0354
f33c
09ad
0933
ffbb
039e
0021
f86f
0476
0b5f
0b3f
f77f
f2d6
0be8
f9c3
f3c8
0a6c
f6e3
053c
0de7
0a47
0423
f208
f8e1
fcbb
fc99
06e2
f7a7
ffad
f3a7
0b70
0381
fd65
05cc
f9a4
12dd
fda8
008a
082a
fc54
04a0
f5f1
0ec1
0318
f1f6
08d6
0d97
f239
02f3
fcd6
0cbc
f84f
0422
ffd8
0e6e
f295
0a77
f521
f270
f37d
0dc4
f8de
fcf8
106a
044a
f207
0d14
0a69
0895
f5cd
fc0f
0960
09c4
f2c0
f861
07f1
ffcc
0ab0
f82c
fea8
01f7
0aff
f747
fb3d
fe3a
0a82
fe62
07b8
03e4
0b31
f53d
08bd
03c6
fac0
fdf3
0213
f88c
fbc9
06d0
f3e4
0cd9
0b4e
039c
f391
07c2
0fa2
04f1
fb43
fe5b
062c
f40f
012f
f122
f52d
00e1
0b64
0713
0c94
f288
f18d
f9c5
fbb9
f3aa
0eb5
0038
0ece
0a55
060e
0bed
f90f
0b79
04d4
0afb
fd02
0388
fbea
f113
0e5c
f123
0017
0c50
0eb0
fc4b
0dbb
1191
083c
08cc
09df
ee84
0c2b
0437
092f
0b85
ffd5
f25c
0741
0e8d
f4db
0306
fa12
f210
0f0d
fe19
0d18
04fb
f7c6
fcc2
08e2
0099
09be
fa27
f4db
0a09
f61c
fa9e
fe70
f231
fc4e
01c0
0453
f677
0398
0863
0628
f949
f8d9
f5fa
f983
0fdd
fce8
013b
f9b7
f20a
ff88
f751
f057
063f
f94f
f9e8
0bf0
f8e0
050e
f27f
02eb
088e
f522
f4d5
0e5b
f38e
0ead
f6dd
0d9b
017e
0235
fc1e
f4b1
f9f1
f10d
fa3b
074f
fc7a
0195
f225
f829
02d5
fe1a
02bb
0b28
098d
f439
f805
f660
017e
0a39
0af7
0470
f486
fb7e
fe0c
0c72
f5f2
fe80
f364
f5dc
fa81
f5d1
f7e6
094d
0e00
f6d6
f66e
0d97
0d92
f6a3
ff4f
131a
0db3
02aa
0fbe
0064
f4c6
07a7
f655
06ac
0a8b
f73c
f6c3
f3d1
f214
0dc7
f24e
fc73
f8d6
f315
f470
f40e
0ada
fabb
fd12
10b8
f704
0878
ffbf
f551
1037
f037
fd67
ff1e
07d8
0174
f7db
0724
0aea
ff71
f63e
03a1
028f
f801
058f
0b2f
f7e2
fa9a
ff5d
0dbf
0d8b
02fa
f28d
0dda
fc93
004a
0bf3
0102
fb5a
067c
f9b3
0412
f3b7
00b2
fd79
07b9
06e2
f4a3
0ee9
00b7
081a
0e8a
faba
f161
fa41
08ca
f287
f8e6
f793
0d39
fbb0
0308
07d5
13ce
090c
0e12
0f03
09a0
052f
f200
0590
ff22
fe7c
07ce
0632
038d
0b0d
0832
0783
0247
fea3
089d
fb66
fc6a
f747
efc8
0a51
08e2
f21a
04f1
0eb2
0098
0703
f359
fb3f
f403
f92a
fc31
f2f6
f62c
f4c6
f705
f33b
f9cf
0ad1
f3c6
f6bc
f86e
fef6
05cb
0d19
0954
0e47
0e41
0072
0152
1032
0852
ff3e
fc82
f9f4
0f03
0755
0033
fdab
f7c6
f8d4
faa5
ffc9
f169
f889
f83d
f7af
f53a
f3fc
0ad6
07ec
07cc
0ce2
fd59
0775
f5a9
f127
fae3
fb24
f68d
f4ef
0f77
0e8c
0c1a
03e0
f79d
0536
0e68
f097
0bdf
06e0
f4dd
f71c
08dd
fb92
0ecc
02b7
0887
ff9c
0cc3
0b8b
0b0f
f74e
0e2d
0d7d
f3e3
05a8
f63b
ff7f
0c38
f5e5
0da2
091c
0cb1
0594
0279
0629
f160
0251
06c6
f8b8
fc9c
0b49
f1de
06de
f723
0d05
f848
f893
f26d
0740
0e77
0b90
0d66
027f
f4d4
f362
f4d8
04f9
0eba
fc32
fd07
0c65
0eba
03fb
f191
f7d6
f902
08ae
0411
fdd1
0ef1
f02a
00c1
f8af
02ba
0917
fac5
051a
0e8c
0a71
f967
f0ff
019a
f7e3
02cd
f92d
0853
f932
0276
f309
0bfa
f97e
0ab8
fbc3
036b
0107
fb0e
f360
0f35
01ef
0038
09ae
0860
f755
fab3
f3b4
f673
04ac
0225
fe35
fdaf
f1c4
f8fd
f5ca
0b69
f43b
066e
f8e4
0154
f4d3
00e3
09c0
f600
f65d
0ad8
f1dc
fe2d
f85a
0d4f
0365
f91b
f433
f182
0dd8
0b4b
f525
fc70
00b4
f11b
0e4a
f65c
f010
f7b3
f244
faa4
f0a3
f9ee
039d
0ef2
f9dc
0176
09c6
fa40
f4da
091d
09e4
05c0
057c
f0a7
0695
f2a9
0e27
fffe
f066
f9df
f69f
fe15
08d2
0895
ff66
09cf
f8e4
f379
f203
0e1e
0733
f60b
f9ec
096f
f192
045f
f293
018b
ffa7
0f50
0d66
0c53
f191
09c3
06b7
f6ac
0017
00ed
040f
0e4b
fbf6
05ea
fd0f
f64d
f419
05f7
0c0a
effa
0d64
06fb
0755
fe36
0859
054b
00dd
0bcc
00ef
05f9
02f8
09ad
