f19a
fe0a
06e1
fe2f
0220
0ffb
0ee0
f849
0a33
0647
0f5f
f7c7
0ba9
015e
f04e
04d4
fd46
fd56
0718
fdc5
ffd5
f141
06bf
066a
faad
0b72
f444
f161
031c
0b0a
fed4
f806
f7e5
031e
f10d
f441
f8da
02b5
05d7
010a
f36c
034b
0a00
f77b
fe8a
f6e7
0474
078b
06d5
fdea
fd7e
04f7
0125
026f
0830
faa0
f7fb
0410
0a27
08f6
09c2
0a1d
02b5
0495
0046
0641
f4c6
f9ee
0d94
ff15
0f63
f5d8
0628
02e7
0ff0
f9e7
f7e5
fbd0
f6c6
08fc
0dad
03f3
005b
fdb6
fe90
03a3
0d81
06c3
f4d6
f74a
007b
0ba1
f977
037e
104a
001b
fed1
04aa
0689
fdd6
08a5
09bc
059d
0c8f
f852
0ef2
ff6a
049d
f999
f393
f08f
f3f1
0d7f
06fb
0835
f06f
f474
fc5a
0acd
012a
faf5
fa6d
047a
01c0
0d86
faad
fd8d
f78e
f517
f3e5
f376
fb54
022c
0b81
0b0b
fb74
098c
0c4a
faf8
fb8f
0317
005e
041b
f395
0617
f989
fefe
fe9f
07b4
0080
faed
0966
f985
0fa9
f965
0688
0837
0aef
f235
0d2a
0af0
0640
00b5
0630
eff0
0dc2
0005
0710
f75f
0f02
fe5a
01b4
fde4
f862
0791
0304
01a0
fac5
04a5
09ab
fea7
f2b0
fb8a
f48a
f6ee
0e92
0244
059e
f8ca
086a
0d43
ff5a
fe34
0a56
f2b8
f4da
0492
f762
072f
f959
f87f
f4e2
0e92
08da
014e
f0e6
03e1
fdbd
f469
09b3
f914
0956
0efc
fcef
edd1
f4c3
008d
f640
f78b
f91e
07a8
09a3
0ba3
0b51
f5a9
0a27
0652
f503
f601
0f41
f018
0279
f4cf
f8bc
f402
fbcc
fc1d
fdb6
ff7f
f4f2
f582
fecc
f495
fa76
0831
f99d
fe28
0623
f0d5
f047
0bed
fff1
f8cb
f1b4
f14a
fbdf
f07a
0d02
fc8d
f8db
0502
03fc
f9ce
03ae
0b9a
0054
f188
03af
00bb
f19d
fcf3
053e
fdb9
f8c7
044d
f8e4
fec9
f630
f3cf
0ad8
ffbf
061e
f277
0ca5
04dc
07ca
fc90
0747
05c5
0606
f9ff
fa06
0e46
0686
061b
082d
fd50
f122
0b3e
fafb
f20d
f2fe
0974
fef3
f7e6
f447
fb32
f6ba
fef9
0111
08c4
f079
0d72
0a9b
06ac
0cfe
07cb
0392
f44e
f36f
001d
fcb9
067b
f5b0
f5c8
f430
fb3d
f53e
0de7
fce7
f19e
0b06
08d3
fdfa
f037
00f9
f0d2
0f3e
f5b1
04ae
fbd2
fada
f045
0d03
0827
0af9
0ad3
0cc9
035e
0287
faa1
ff85
0980
faf8
0732
0187
1006
03bb
fe0c
0cf8
027f
f777
07b2
0ed6
0096
001e
0ec8
0f19
ffc4
fbd1
f1d2
fd18
fa62
0ca7
0eed
f74f
065c
0ec2
0192
0836
0cc3
05fc
0810
086b
f4f1
0edc
0795
0458
008d
fd04
fd73
0c6b
f17b
0200
f555
06c1
faa9
f8bd
f4c2
0959
fab1
f3df
fd0f
f060
0096
0adb
000c
042a
f595
f596
f5ff
0347
0618
048c
f2fb
09ee
fd8e
f2e5
fc20
ff0d
fdf2
0183
f111
075e
f291
0b06
f25e
fd82
f6b5
054f
0269
0c09
fc34
fc28
f7e4
090e
ff7c
fdce
fcbd
f376
05cd
0b8f
fa22
067b
f33a
f714
00fa
00d5
02bc
f268
f85a
fcf0
f21d
fc72
0c0f
066e
060f
0ab0
0e50
004f
fd62
0973
087d
fce0
fceb
fa54
0728
0dc9
f46c
0253
f9e3
0049
f66d
f670
f4a6
0ca5
0eac
f916
08be
fb85
0eb6
f6df
09c7
f167
0951
f935
113b
0bff
0adc
f245
fdb0
fa2a
0c2b
044c
f776
0c18
03de
03be
f678
0c22
0485
f504
0eec
0536
0116
fe64
0bf9
002b
06a8
053c
0f66
0770
0e7d
00c6
fc7d
08f3
065a
0572
fe04
f15e
0bc4
016f
f901
0b83
09be
036d
024d
fa6c
0eb3
fe32
feec
0bd7
0f36
f736
0565
0686
fe70
f185
0ddd
048b
0c06
f634
fad1
1171
079d
f737
fd0e
05fb
f99c
f971
0c24
fc1f
f8f3
0662
fb9e
fb28
fba4
0f67
ff94
f794
f69d
02c0
fff1
fa38
fe7e
0f17
f16b
f61c
f18d
0e8e
09a1
0dde
fa79
0f24
f86d
0966
05c0
089b
f00e
079f
09de
0c7f
f4c1
0eb2
0dec
0345
0381
0a5b
f97f
0523
f25d
0782
f2eb
02ed
f7a2
f34c
003b
f8d3
fd47
0bc7
fa5e
050a
ff99
f3f0
0422
fca1
06c8
0167
0330
f5db
fe91
08ec
fe9d
fb0c
f85c
f88d
0477
fab2
f990
00d6
0490
0dfe
f4d6
0f74
f6d2
f8fc
f294
fd4e
f369
06a1
0b49
003d
f3e4
f54a
facc
0624
055d
fd0d
09ca
068f
f51f
f529
ffdb
f192
f7dd
f58a
faf9
fd72
f145
0f1d
fe71
f031
07dd
07a2
ff61
01c6
f259
f648
fe1a
0b18
ef6c
03a9
f846
05b2
f066
f3d0
0c7b
fdb6
0028
083f
04d3
f842
ff6f
0910
f406
033d
f742
f889
0f81
f53e
f856
f0e1
fc42
0265
071a
f588
fa93
f539
f4f9
fe48
f42d
0ec2
0733
faee
fdda
02fa
0913
f1f7
01c9
fea5
f733
f60c
fc75
f168
098c
f8f6
f265
0145
095d
07ca
0d23
fa0f
034e
08b1
f9c5
f910
f08a
f9ce
f681
fac6
04f1
fd5a
f7fe
0cc4
098e
020e
0fa0
01ac
f11e
f356
f3a3
0787
fcd3
0e91
04eb
0dbf
0116
0877
0a67
f3dd
08b5
01ef
05d9
f3b3
f482
0c94
fb03
f68f
04af
f5ce
0ad0
074c
06d7
f213
fead
0c37
f115
0d64
022a
0370
0817
000b
f8d9
f63e
fbce
f27e
01d8
fac9
07b5
004e
00f7
fa5c
012a
f65b
f173
085d
0707
0e6d
fcc5
f9e6
048d
06f8
0020
fa71
