f2b2
0348
08cb
f7f8
0070
ff6b
f259
092c
0e72
fe21
faa1
02c4
0e3d
0c3f
0170
f50e
0d0b
fdf3
f4a3
016b
0c5c
fb80
0ec2
03af
0a54
f0d7
0502
0311
0412
fc0c
ff31
f172
0ada
fa6f
0f6f
041b
09b6
f114
f6ef
fae1
0c1f
f3a1
0c1d
f517
0995
0e9e
0f5d
f501
f4fc
0fe9
fd21
08ab
f8a0
0e79
0440
0a40
094e
ff4c
050b
0c19
02cc
fdeb
f80f
0123
f634
0093
fbe9
0df9
f69f
f346
09e3
0d0a
f9ea
07fa
f76c
f3ae
fa00
0c8f
f73d
0163
03ee
08a3
f848
fff8
f10b
0d0a
0531
f85e
f21f
f419
0df3
033f
0d6b
f640
0ff3
02f5
f237
0d65
f52d
05d3
f8bb
0b45
f376
f619
fc4c
fbe6
0279
008c
f39d
0359
fd39
fdd5
f2e4
fc2d
fea8
0f6a
fc89
066b
f1a3
f5e3
0565
fc49
f549
0857
0f69
f2d1
f49f
04d4
0d27
0904
f332
fb74
0325
f9bc
0ab7
06a3
f5fc
0f82
f038
0398
fbda
0f9b
0edc
f2af
f24d
028c
0c51
0c68
f0de
0937
fe44
0225
f4ee
fd6b
0e30
05c1
f88d
0739
ff18
f8e9
05bf
040e
0f75
01f1
05c0
087a
0497
faad
0c1c
f691
fa3e
0a6d
0091
0506
0bcc
f3f9
f1da
0068
0f63
fc2d
f5b0
0e43
08cd
f677
f093
fb18
05fe
0d0a
0acf
0402
ffc7
f8e5
0709
f09d
0021
f28d
f17e
051f
091f
0844
f8d7
06ae
0534
ff26
097f
081a
0e2c
017b
0149
f881
f6de
0a3c
f71c
0d54
0a7c
0d4c
0179
06fd
068a
ff2b
04f2
0201
f3cf
0c65
01b8
0091
0f18
00dc
02c8
00b5
fc98
f5e3
fee7
04ac
0955
f79d
08aa
00ce
ef92
febe
fb57
f6df
ffa2
f448
fe9b
06c6
efdf
fb64
02e2
04b2
f765
f2e9
f351
0a59
003f
f541
f609
fac3
0654
f97c
05fe
016c
f71f
f909
06cd
051f
f125
0945
fef6
ffe4
fe12
0aad
f1b0
046a
0171
f4e3
0baa
f3dd
f417
f1c9
0db4
0c70
f57c
f4f8
effe
0269
fac6
02a6
0501
fdcb
10a1
0dd4
feb9
f154
f069
066e
f1ac
0c5e
05de
0951
fa55
08e0
f9e9
03d0
fabc
079d
05a2
faf6
f01d
f5e6
fb64
f296
07e8
fffe
fd99
fba8
fa03
062f
0e86
05a8
0c15
0059
0bed
0d2b
fa26
0e79
08a2
f644
0a07
fbc0
fdd9
f190
04a1
020e
f743
f621
f5cb
0068
0758
f644
fd88
f0a9
027c
f618
ff42
0b87
fcbf
fb81
f663
f379
f166
f62e
f286
0481
f1ce
0fcb
ff9f
0f06
0cbe
fd7e
f82c
fbba
f598
fc04
f785
f935
0b24
02ad
fb37
104a
f642
0cd0
043f
0718
0ac9
f319
f0ab
fa1f
f5b2
0e91
1059
f3ca
f9f8
f65f
fa71
0e2e
f688
085c
f5f1
07fc
ff2c
0486
0f88
0d25
05f1
f40f
f6cd
01bb
f842
f6b5
11d4
04a3
0bf6
f2be
06d4
f316
097e
f397
f323
f7ec
10ae
f687
0728
f1c5
f8b4
093a
08d0
0a53
f2fb
f4ed
f1a5
0d2e
f07d
fa36
f70b
012a
07b3
0234
08b3
fa6f
00ee
02e6
f89e
0df8
f6df
f265
fc77
0a34
0659
f12e
051a
0c96
10e7
0064
faa6
f5aa
f8c7
06b1
f099
0cd6
045a
fe4e
006d
08d1
0c79
f4c8
fd92
f4d5
09cd
0655
f652
03dc
0397
f383
0594
fdda
0965
07ac
fe42
0af5
01b2
079d
0855
f901
0c2a
05ad
0ff5
fe4e
0a8a
0ba5
f8a5
069e
094d
ff78
04e9
0873
0477
0ceb
f17f
f68d
1017
0097
03ca
f243
fd27
0696
0053
03bb
fa78
0608
fb6e
f42b
0a82
072f
0647
f215
f52e
f7d0
f571
0238
0051
f2e8
f292
0167
effa
06cc
072a
fb92
f5a9
03c1
0248
f890
fb76
0127
f740
09a1
0b84
f9bd
f701
0fda
02ce
f6a7
f2e9
f2db
0c57
0b67
02b5
f0e9
0ae3
ffca
090b
0d58
f0b7
f9f5
fe15
0a5f
0eb3
0a91
f1a2
f378
0819
0b29
0b55
0607
ef56
0e4f
0f64
06a1
0275
fd1f
017b
001d
023d
0000
f8ff
f043
0102
09ce
f924
f836
f3c5
01fe
0aa6
f7c4
fc1f
0e7c
fda3
0536
f90a
f2ae
ff23
fbab
00cb
efb8
0d3e
f32b
f44d
0e69
0c48
f33c
0a3a
fce8
fb19
f3d1
fabd
efab
fa06
f443
f132
f186
04fb
0e0c
05c6
f103
0ae6
01f4
f8d7
092f
f9c8
0a8d
0974
0bb2
f6cd
0134
0e06
06aa
0430
0cb5
f2b5
f44c
faa4
f934
04b0
f83c
0ab2
ef0c
076c
f6b8
04a0
0242
0a8b
0181
095d
f43f
f71b
0e34
f6c8
0885
f10a
0409
f1ce
0c24
fb1e
0d3a
f0ab
0c60
face
fcb4
04e0
f781
0f2b
f0fa
085f
f1de
0ab0
f493
0b8f
ef90
f1b7
0dcc
0c90
fd2c
f24f
f367
0e01
0a53
f208
ff33
0aaf
f112
081e
fb0d
f36b
0e02
f518
f37a
02eb
041a
0641
06f3
0f12
fa9b
fa77
09d5
fe98
f1de
f774
049e
0ba2
0321
f860
fbf4
0a7b
0281
fe40
f846
f335
fa9d
f54c
f563
f503
f0c6
0282
091d
f065
06ec
f3dc
f2d5
0d5e
066c
f0b9
f450
0bdd
f744
f714
08d6
0d07
efa7
0c0e
072a
0d13
fc1a
f8a8
0158
0a19
f303
f0c6
f6a7
028e
f423
f228
0278
feae
f4d1
0062
f571
ffd3
0f57
fbb5
0062
f4c1
0396
f441
0462
fec9
f2a1
ff7d
087f
031e
f842
f465
0dee
f19a
023a
f310
0588
f561
08d7
016f
fe9a
f912
f723
f519
0964
0f3f
0319
f8de
0cc1
f4fe
0ec0
0b52
0511
08d3
fda2
f2d2
ff5c
0a6b
faf4
f3f5
f3a1
fda4
fe40
04d1
0902
