050f
03d0
f4dd
f9f1
00ba
0203
0598
02b2
fbd4
00d0
f5e1
0d09
f3c2
fa80
0eb2
f415
038d
0df2
f133
f198
0115
0f31
f476
fd5d
f888
0a51
f85e
fdf4
fa7e
f2bc
f781
f7db
07dc
06d5
0a1f
f7b6
f12a
f69b
0196
003c
fc9d
0c66
02b9
f70e
0009
f146
f826
f628
0446
0dbb
f495
06b7
005a
074c
f08c
0ee4
0f4c
0bc1
ffcd
f039
01f8
f551
fb81
088f
f4ed
080b
fe10
ff05
f745
f99f
f1c8
f56a
f9d7
0d3f
fcc1
0297
01c3
f1ab
f642
04a6
f06a
ffcf
0e46
f67b
0c8e
0913
f0c7
f2b2
0a97
f607
02c9
084e
f8f3
f74d
f8ff
0a6d
f5e2
f170
f21c
f78c
f62e
0265
f72d
08a8
06f1
f71c
f68c
08c7
f811
f3ad
f767
0649
04a3
fa8d
fc47
0e24
0269
07bd
f543
0a67
0969
f29d
f151
0e92
fc50
fabe
ffbe
0a48
0577
f433
0b23
0662
07e8
0d5c
f037
0979
0d5a
f98c
f1c7
0591
06ae
0c53
f253
059c
07a6
07a2
01ab
0566
0165
03ea
f8ee
f5e0
0e4c
0c79
fa53
03ef
0dee
fa83
0537
000f
f97f
f2fd
0b72
0541
fd72
0316
0269
f6fc
0694
ffae
f653
f38e
0229
08c0
fd7a
fc32
010c
f286
07da
075b
f89f
f903
fde6
f36b
f49d
f11f
f4fd
0bfa
f36e
0d29
0df9
f115
0093
f859
0fad
0479
0a0c
0536
f322
f529
ffc1
f0a0
01fb
0911
f9e8
0783
fa03
f4be
f2b6
fb4f
f5ef
ffb3
f927
fefb
f0c9
fb43
f1ff
0d92
f1fe
f61b
ff5d
faf2
f297
fabb
fe8e
f0cf
f3be
01fa
0ae6
039c
f968
0185
081f
0479
f2d7
003f
f6b3
03a8
0b5d
f73c
0667
05f7
f52b
ff81
017d
ff2d
fbb2
f34b
f2c3
0e03
f7f4
0133
f2e4
f333
0cc6
078c
fd48
0d89
fe9c
0ac1
0926
f4df
0b6b
f283
ff4c
08de
f1c9
f5a6
f6ea
03da
01cf
fd88
0d64
0270
00ee
f014
0084
0ccf
f2a1
f27f
f9e2
0bee
05f6
0212
f33f
013c
fecf
055b
0ff0
0c8a
fd17
0fd5
fd6c
0200
03fc
ffe7
fba7
0d3f
01b6
f496
f86e
06b9
0be0
0d03
fc1a
0cb7
040f
0598
f9bd
0727
fc7d
f139
0705
09f6
faac
fb9a
f7cf
f3f9
1052
0e65
0689
f4b1
0981
f16d
0b10
107c
fbd9
07c0
f44d
f4ab
f5d8
077f
f234
0d7f
0fe5
0878
fa52
fd80
fb4b
0b81
f336
04c4
0801
0dd9
0d2b
f687
fa78
0824
0cd3
03c9
fb00
f9aa
0c32
fa4c
f497
0b35
f76a
0608
f655
f3b3
0ec2
0d4f
f9eb
0406
0b06
0cad
0e57
f842
ffcd
018d
f2d8
092c
fdf5
027d
ff86
0cb7
fca1
f82f
fa60
f409
f167
fbcf
fb97
f4a3
070a
08b4
f3b4
f9fe
0588
fc99
ff60
0cde
fe82
f4e4
fc39
0fec
063b
0410
0bdd
f605
08e4
0341
fb00
f442
ff1b
f0d7
0ec0
f1e9
0a8a
0241
fe23
0dbc
081f
fdb5
0d3b
fa49
0ef3
0bfa
f72e
fc7a
04ce
0cee
0367
f1a3
f30a
0573
fa54
06f8
f20c
f6ca
fa47
ef4f
0269
f370
0a12
0dfb
005b
04ca
fe76
fa97
f82b
f548
fee5
f51e
fe29
f22f
ff63
0f1b
0547
0c10
f161
044b
012b
00b4
06da
0548
f31d
0077
09a9
fd9d
0e4e
0ead
f204
0a18
fc6b
fc02
0831
f1b4
03bc
015d
f287
01f2
f470
fff2
0a02
fe73
0117
f6f7
f24d
037d
fb8c
0fef
013e
026f
0160
efdd
fa8f
f606
fbfa
082c
f1d4
fb3d
f9e9
f41e
0e4f
fd5b
fd71
0e9d
041f
f4d6
00aa
fa46
0a6b
f8d1
f438
ff82
f105
fcb2
f4af
0b45
fb5a
fa0b
f313
0ab9
f90a
f3a0
f688
03e7
0e8e
0cef
fc84
fda5
0634
03a5
fce4
f46c
f71d
f857
f284
f219
09d5
08b1
0195
04ee
f1ab
fba1
f28a
f66d
ff12
ff3d
f869
f42d
0ead
0516
f4d5
f71a
f14c
f2b3
f106
0620
fedd
0c9c
0a79
f238
f035
fab4
0f09
00af
09aa
f3dc
faa8
0e41
07ba
f5b4
fb13
02bd
0a24
09c7
f844
0884
f116
f35b
f35d
0ee9
02c4
ff05
091d
01e8
f5fe
0aef
fd4e
f708
fbee
012a
f3db
f40f
006f
0c83
f284
0b28
feda
086a
f139
017f
0342
0505
fdcd
f505
003f
fb39
f34e
0d07
f036
f81f
0424
03da
f89c
0d26
08dc
ffe3
f6e7
fdcd
f269
0c60
0478
f569
0a42
039a
f143
01cb
0876
0804
fe53
0c2c
f724
f627
0578
03a8
0d0e
f99c
0064
0d72
f39b
0d6c
f1ca
0d7c
01fb
f389
f8e0
fdc2
0114
f1cf
08c1
0247
fd9c
f6ee
0adc
fa7f
0ee5
fb8d
febc
0d38
f4ed
f406
fd96
fa08
04e7
fbec
02e1
09d5
06af
f7c0
09ab
f246
0d04
07c0
f646
f5a1
f0a5
08cf
06c7
012b
06f5
04ac
fc2e
fabd
fc42
f50f
fbde
f2ae
0d7c
fc4c
fe1a
0687
f6af
0b6a
f266
0ab9
008a
0edb
f7ff
073f
0d6e
fb4a
0773
f7bf
fd06
f2c7
f3e1
fd4a
07eb
0774
f1d7
fb90
0992
fd17
01f3
f844
f709
0591
086f
fbcf
0fbd
f0e9
0d81
027e
0f3d
f94a
0e58
0206
0506
099f
fdfe
0718
f7ed
0d1a
fc41
fc75
f28d
0160
fff4
0ab5
07e5
f0cb
f369
fefd
f0e6
f716
049a
0d01
0911
fc52
f792
f74e
0689
fc7c
0061
09c9
0ac5
fd61
05cd
f960
0e5c
fda7
fb61
0794
01ee
0ea6
f303
02a8
0b4c
0876
0bfe
03b1
f5a1
0ffb
014d
f5f0
ff2d
f846
f56f
0c3e
f51c
01a6
fa5e
0a29
08d7
fedc
fa4e
0eb5
f8d9
0094
f557
0327
