fd53
01c9
fdbb
f09d
0812
08d3
0d57
0eef
fe82
f60a
09dc
0836
0eaf
085d
f99e
ffdf
04d1
f38a
0f03
0963
f09f
06ff
fb0f
0ad8
0bd6
0675
f7c4
0a41
0daf
f2c3
f1d5
f780
ff2e
f850
0725
0650
02ae
028d
f09a
fcd9
f378
f1ff
f3c3
050e
fb0d
fde6
0855
033c
f0ad
f465
0e92
070a
f34c
f931
089f
fe40
0941
03e6
f2e9
f91a
f6e0
055e
f3a8
f410
f85d
f572
fc65
fdce
f9f8
fec8
0f7c
fec8
fe55
ffd5
0e14
fbd0
f5c7
ffb2
fa3c
01a3
09ef
0f59
f78d
086d
0c78
f1da
0ac4
0a9f
f367
f053
fa72
f052
fcf5
f8a4
0568
fa45
f6f6
0e3b
f289
081b
043d
0da8
0bb3
f377
f05f
fbd0
f554
0d8b
fb77
09dd
f92f
0974
fee2
0d0f
f2b3
043d
fee7
098b
0090
0c36
056f
0044
fb99
0ea0
fd68
0f41
fe01
fa19
fcb1
0452
fd50
0e80
f214
f71f
01b6
01e0
022c
fa95
f66f
00c3
0b01
f56f
091b
fb08
f06e
fa01
015b
fd8a
041f
0d2f
0cc8
0018
0891
f27b
f80d
0086
0c1f
f0d1
0abb
091d
fca6
fc60
f559
fd0b
01f7
f922
0f48
f364
0a23
f03e
09df
f7a9
f263
f80a
f63f
f6f9
f58f
ff6d
f5dc
f3f2
09a1
fcb7
0da4
01cf
037a
0589
0c6b
f8e8
0cc4
09e9
f322
0460
0127
05b8
0823
0a43
0be5
07f8
f687
0752
0707
fec4
02d0
fff6
f15d
0b29
ee81
fd9a
0ea0
fdd3
080f
f7bf
0c4e
f9f3
fad3
f280
f23d
0614
efdc
fcfa
0c81
0232
f28b
004d
f323
f6df
f7c3
faaf
00d7
fdde
0e64
041e
f6ff
f4de
00a8
f7f0
f7e5
f9fd
02b4
09a8
0bf8
fad6
0942
084a
01ff
03ca
07f1
0581
0501
fb53
0a7d
09aa
f5d7
0876
0744
f604
00fa
fad4
04d2
f121
fa4b
f665
040f
f69a
00a7
f9bf
ff78
02ef
fcd2
0672
02b8
1055
f7f6
f28c
0627
fea7
06f3
fe51
f66c
0d98
032f
fcea
f440
f073
0d56
f22a
0b51
f1a4
049c
ff79
fb19
fba8
fdc9
ff1f
f8f4
07eb
0656
f84a
fecb
f4ed
0f32
04db
f8c1
0436
faf5
f3a7
fa1c
f27f
f7d5
0ad5
fafb
f308
f6c3
0320
093e
f7b6
ff01
f8ec
f81d
eefc
0a7e
0302
06ec
021f
055a
0eb0
ff4f
0baf
f4ab
0444
0beb
013f
062e
fb4a
ff40
feb7
f542
0f42
ffb6
f966
f7d4
f1ad
fbfd
f5c2
f267
028b
0abf
fbcf
fb09
fd0f
0397
f58d
f50b
0246
0e74
0c03
f061
f018
fd64
fca2
03b9
f078
ff5e
05c2
031a
0003
f756
f6c5
02de
f157
05eb
f7ff
f680
0779
06c5
f6fc
0ca7
0b0a
0cdc
f6f3
f2eb
08cc
f586
f9ca
05cf
f0fa
02ff
041c
f8d7
f8b2
08cb
0aa4
f741
0c20
0be3
f9c2
fe21
f744
0772
f8bb
fcde
0d19
04b5
f5f6
0cc0
0233
f7e5
00a1
0971
0cab
0c26
0174
0358
f3b2
f6a6
0992
0f33
ff17
f128
0b25
06b9
00b4
047a
f9b4
0ccb
f205
079e
f630
0352
025c
faa9
0583
fe33
0d3e
0087
03f1
f0d6
0bee
f702
f88d
f6bc
fd54
ff2d
f787
0c4c
fac3
0595
fc97
ff30
fa2f
f809
f086
0ab4
f744
00b8
f226
025c
f84d
079d
f559
f8ab
fe25
fd5a
f058
05eb
0252
0866
0ca0
f6a7
ff95
0a24
f083
f71b
013c
fde7
fadc
f03d
febd
0da6
f41b
042e
0518
0d56
fddd
006e
ef93
08c4
0475
f828
f868
fbb6
f0f9
0a4a
00bf
05dd
f3ed
0fb2
f7ee
0a71
fcb1
0b3d
0e4c
04a3
02df
0e5f
0580
f4bf
10ac
0f3e
0280
107b
fd32
f3f5
0d3b
f508
fd96
fcd6
fcad
0a81
f409
0d4f
0c45
f7dc
f62d
04d4
017e
f393
0f5a
08e2
f566
0e88
0d43
05ee
f19a
0e54
ff0b
06e4
f399
07b6
0571
054f
f195
03c7
f162
0b14
07fb
0843
f208
f2bb
0632
f3ea
1112
fa5f
114b
fc04
f6f4
07ef
0570
f237
fab7
02b3
0eaf
f74a
ffd4
fe7b
f306
0dd8
0dab
0dc0
032f
0728
0429
fa2d
f383
f93a
02c4
0a62
0783
0780
0fe2
0f83
f4af
f73b
0d29
f266
f0d2
0290
0279
0443
fb3f
f635
f683
0313
021c
0d11
0676
f40c
0b99
f60c
ffc9
0443
09a7
03af
0ee0
fb01
092c
fc43
0e90
07f7
fb99
f416
f367
0a1b
0480
fc2e
f9f2
f44a
078f
fc31
f724
fdf7
ff4e
f1ad
fdc9
f898
080f
0c1d
fcd8
f2b1
086e
fdd4
0c33
02a6
086a
05d3
f542
0943
056c
0469
fc90
0339
08f3
06fc
0df2
f7ff
0463
ffbd
09cb
0dfe
0e87
f953
0c96
03ed
fb00
0594
03c2
f7a9
06b0
09e8
04a3
faae
008d
fdf9
0d36
0a7d
f792
06f2
fd00
02e5
fda5
05b7
f3ca
069c
f57e
f34e
0782
0043
0f3f
01b0
f7fc
f2c7
fb60
fb11
0267
fafa
0c18
fd48
fafd
fe57
08b5
0296
fae2
f1b5
f871
fc2e
f7e9
08b1
0f7e
fd1e
f756
0e8e
f550
f3e3
f14c
ffa4
fffe
09ab
0845
fe10
0f1f
f610
0085
0b09
0ded
07de
f470
f4d5
f20d
0f32
05c3
fe3c
032e
f26a
0607
0f93
ffcd
0dda
0520
0096
0368
f1ac
fcc0
f639
f1f5
0c18
f1cc
0e2c
f8ef
0459
03ad
0df8
0e85
fa5b
f06e
f949
f0a6
0697
0379
0460
fe20
f42f
0a78
0b5d
fb74
f81d
0b86
f1ef
0135
09ea
f481
0307
00e3
0ee1
0724
f81e
f54c
01d7
f691
ff87
f8a8
ffb2
f5e8
f101
0631
0ccb
0781
f798
01d0
fc50
05a8
0beb
f23c
037a
0bdc
