0a13
ffd6
f307
fcb8
0593
fa2a
0c5e
fbe9
f339
f55a
0a85
f7a1
f5d9
0563
0a43
f9b2
ff97
0234
f657
fdb9
0267
fc71
0732
0142
fbec
fb00
10c5
f9d8
f420
fa27
f11c
0524
ffec
0b73
f3b0
f5f9
0a40
fa79
fe80
f589
0144
f658
ff84
f2cd
066f
f166
092b
0b9a
f45e
0a78
fbe4
ff58
ee12
02f4
0af4
fc97
0502
00b4
06ef
0490
09c0
0a63
0ca6
fec5
