fc0e
0438
01d8
fd3f
0359
f5d9
f932
0a2c
05c3
0b91
0910
0fa1
083e
f61a
0864
faa0
0159
f29c
f02f
f1f0
f2ae
0461
f61a
0979
f996
fbfe
fd82
0311
f9b3
02c2
fb07
fbb8
f9e5
0f73
f7eb
f8df
f9c8
f08f
06d5
f72a
0b6a
f3da
0894
00ab
0023
0c78
0041
fbdb
0c76
f531
0501
0ee4
f51a
faf3
f0e9
06fe
f26d
f433
04e7
f09c
fff0
0edc
f3fd
0a52
f37d
ff6b
00fa
0b33
0d74
032b
03a9
fe14
02f0
0553
f6ea
069f
018a
020d
0b2f
0c16
fdca
f39a
f5c4
0b0e
064c
fb53
0d2a
f276
0210
f75d
f39d
f69d
fd9a
03e1
0ffe
03e4
0822
f4a3
0711
042c
0054
0752
f3b4
0b23
0ed4
f562
fc23
faed
0a34
0ed8
f04b
f0e9
fd08
fe55
0abb
f672
08c7
07a5
f3b4
04be
fc99
0f0f
f02f
f215
0999
f69d
f8d9
0438
f5c8
f2a9
f2f6
fd6a
0bf9
f9b3
0ab0
03b4
0e61
f3b4
f28c
fc07
0598
f877
0eea
f346
f0ae
079f
fb9a
ff63
f301
0163
f282
0de9
0383
f1f2
fa8b
f6ff
00b4
0679
f4b3
fe77
064d
f2ec
fd18
0573
055d
0975
fcb6
03d7
008b
0f53
f5c6
fe76
0467
0abd
f489
f5af
fa64
0b88
fb0a
0c65
0dc7
f7ef
fc92
0278
f2d1
0748
fb2a
f500
000a
0056
f59a
f0f6
fcd6
fda0
fc5b
fd6f
f8c0
0890
018a
f991
f958
0655
f7a9
fc74
f5de
ff9b
f5bc
0486
0053
f6a5
0abf
073f
f811
f079
00e4
081c
0820
f658
06b0
fa4d
f547
fab5
f0de
0f8d
0744
0873
fdf7
0433
fe60
0b9b
f98d
053b
049a
fb36
0968
fd68
feeb
f245
0ae2
f97d
008e
0aed
0473
0eef
f114
09ce
f053
f158
fc22
f998
fa86
02a5
f753
fa75
07a1
f681
0717
fe28
037a
0265
f9c7
ff80
0bc9
0c68
0f5b
fd62
fcd9
01a6
02be
0142
f2d6
f610
ffc7
f934
f8f8
fd53
086f
f869
fc10
f672
0e73
0707
fc80
0118
f435
fbe1
023a
0557
03e3
f298
02a8
0486
f41e
f9e3
0ae8
0d2f
f362
00e3
0520
0e88
f082
023b
f685
fbb1
f098
f6d9
09b8
f645
f6e2
0097
f663
0d5e
f2a5
fa3f
f18e
0ef3
0aa1
0f23
0d0f
0081
06ee
fa97
fb8a
07e4
ff74
f69e
0d80
0b54
0caf
f929
f347
05e5
f6f5
06b5
feed
fccc
064c
060b
f7ab
f21c
0eab
fd88
07c5
f9bb
ffa9
f453
0b29
f074
f482
f50f
02be
f689
f5ac
08ee
fd62
f08b
f942
f0cb
0185
01c0
0ff5
f3a6
f5f1
08ac
f5a2
0300
f71e
06a0
f5e7
0f5f
0de2
0eb6
fa76
0843
f0a2
f194
fa38
f428
f20f
f962
efcb
09bf
fa91
f37e
f6a0
f43d
090d
0748
f4f7
0460
fcb4
f742
f94d
f8a7
0bac
0f37
fe6c
0f99
f164
0ac9
f873
0dcb
fbc8
fc94
f5cb
0729
0a09
0566
f19d
0bf1
0bb4
0b13
f54f
09d7
f567
f6f6
f802
0dd5
02c6
031f
f8ab
0627
011e
04c9
ff40
f47d
042c
fa50
0e4b
f80a
fd0a
f92b
f952
09d2
f59c
f245
0dc3
096f
f35a
0202
f808
f1ed
f0e3
f6aa
f881
0a5e
ffcc
f67e
f5a9
f6be
0cc5
fdc4
f759
f87c
0d2f
08fb
020f
048d
f1eb
f667
00df
02c8
f354
0e0d
09a9
03bc
f829
0469
0104
f992
f832
0c96
09bd
05ca
f1b8
0721
f178
0c9a
057b
f299
0a5c
0f34
fdb0
06a3
0adf
effc
0225
0695
f7b3
02e0
f93b
f686
08a7
0272
0d7f
f14f
ffbe
0a0a
0742
0a23
f7d5
f844
f075
0c42
05e6
f48d
f94b
03f2
f95a
fcbe
f1de
03df
0793
0901
ef1c
01ac
f195
efbf
0432
0724
019c
f55e
f91b
0f6d
f177
f5d9
f22c
fc6a
0a0a
03a2
01cf
08a7
03d5
f839
f103
05c0
0687
04d3
f463
f748
0146
fa6d
041b
0619
f037
03a5
072d
06ca
056d
f7d9
fefd
f538
f527
fd2e
0c9f
01d4
0d4e
063f
0c39
fb35
f612
f242
0143
ff15
ff48
08d0
0448
f253
fb75
0e5a
fa8a
02a9
fe4f
fd1a
fb58
0070
0604
08a1
f0ad
0611
0432
0bf6
0b84
039d
080e
0dae
fc35
0a07
0d09
0ce3
fa7a
09e2
0d78
02ed
f0e9
fd7e
ff90
fc37
f472
f2cd
0402
f47d
f6c7
0c19
099d
fc9e
f60c
0bcf
f5cd
f60f
f95c
fc40
f38a
fdeb
00c7
f91a
04a9
059e
0d6c
f46a
0157
0d09
fc17
f202
08bb
fa84
f5b2
f8ad
0396
0220
f5b3
f3ba
fbb7
0838
077e
0d27
fc88
f3b0
06ef
f502
ff6d
0a8e
f655
0060
020d
09f7
ffba
fdae
f86e
060f
085b
fe65
f383
0281
f634
004a
f63f
0b03
031b
0802
0bbe
021b
f09a
f2ee
ffc6
0653
f971
f14b
f04d
09c5
02ac
07e4
f6dc
f0a8
f017
07a7
021e
f988
f528
f887
084f
f700
07b8
f274
f13b
f646
fa41
f796
0a9b
feb4
f16a
0603
0159
0bbc
0aa1
f931
f164
0c72
0dc1
06f7
f74a
0984
0074
f208
08d6
f09d
0773
0fef
030d
f63a
f8bd
f76a
0d5e
f5bc
073d
0083
fbb6
efcd
f087
f116
f365
05c9
fc70
0650
00bc
0616
f825
f643
0371
0f76
0762
0846
0f28
0478
02ac
fd18
f12f
0612
0c56
032e
0ade
feba
0c96
f4e5
00e1
f5c5
fd2c
f055
0879
f224
f54e
fc2f
0861
0d27
0e42
fca8
01c2
f55b
f88a
00fa
06d6
ff7e
f44a
f066
00f1
0d65
0d56
fbed
0953
098a
0078
02db
fc04
0d27
f5ae
0e6f
08aa
0129
f53d
0d14
f642
01e5
03e1
0ed8
