04e3
f88b
fdfe
fdb0
0567
0d2a
f594
024b
0efe
fbd6
09c6
0532
0005
fbaa
05d9
f936
f3b7
0083
f209
f7d5
093a
fdbc
087d
f7a3
0a04
0d1a
0ca0
f3d4
0de8
04fb
02ca
0f02
f4b2
f95d
0f61
01b6
0c37
fbae
09e9
0e98
060d
07ce
fa5d
f92d
05d0
f70c
ff20
f646
fd26
f4e2
07c6
f65c
0e0f
fde9
0bfd
faa2
0573
fee8
0830
0a3f
068f
fee8
05ae
f76a
0cde
0127
f272
f63d
f092
0968
fd69
0883
09a4
f950
01b4
f1d6
f4e0
f9ad
f619
f0bc
fabc
0a59
07ea
f746
0cda
f4eb
034c
0e30
fd35
023b
f4c7
047d
f698
f275
0db4
f5fc
f39b
0252
f5ef
fe24
02d3
0ef1
0912
f1b0
f56b
f61d
038b
0402
04cc
f328
0819
09c3
f757
f4b9
ff1e
0e9d
0b8f
0fa6
0c80
0683
fe48
fc5d
07d6
0a3c
f542
03df
f550
0f9c
fe6c
002f
f13f
078e
f10b
06e0
0a57
0e45
feba
fda2
fa75
050b
f690
0e9b
f0d5
f244
fa1c
f350
fd72
ff40
f0ed
f72d
105c
fb90
0b12
0082
01ca
fb07
1054
0dd5
0c72
0057
ffb7
0c4f
efeb
0bc8
0f26
0d69
f5b4
06a7
0c4d
0f24
0ecf
f09a
036b
f844
0a06
0736
047c
fc25
0206
fefc
f479
091b
0db8
0b1a
0ab3
f6af
f46c
0424
08d7
01d4
015c
f5d2
f6b9
ff31
02c9
074a
ff8e
ff54
008d
fb49
f0b2
0973
0a5e
f431
0f0f
f7df
f7f9
ff67
ff21
fa6f
f8dc
f2d1
ef98
fad9
02dc
f2db
fe18
016d
0b33
0516
ff2b
f284
fc20
f5dc
f348
0d5c
031f
0aef
0bb1
fe24
033e
fdea
100b
0057
f59a
fd96
f7de
0068
f903
fc2d
fd79
fa81
0d1b
ffb7
0a52
0911
f72c
0ca5
f9a0
f448
f783
07be
f82d
f3d7
0d0c
fb22
fda2
ff7c
0b67
f221
f830
0a7e
fd26
fc01
0cd2
0c17
0bf4
0921
127b
10d0
03b6
0f4b
f0f9
fda6
fe4f
01ca
0714
0703
045f
072f
fe13
0a55
f0f5
033e
00a1
fd00
f38a
045a
09e3
00e9
09fc
ef7c
f00d
f077
0518
0413
0103
1189
083f
f6e8
f4c1
01f9
0e7d
09c6
f058
f9ec
0244
0c48
0388
f5ad
01b5
fcc9
0c7a
f6e7
0768
04bc
f9f7
f991
058a
0990
fadf
fae5
0b9f
f614
fb57
094f
03f4
0f5f
0cfa
108d
f281
f493
0460
055f
f3a7
f88b
0dd6
fbef
f6de
fe8a
f73d
0406
06fc
f7cc
04a4
fed7
088a
0007
eef5
f486
028e
1110
066b
0e41
0265
07bb
0a94
f9b8
1085
fa3c
0557
fb46
0f29
f454
fe29
f604
0644
0be4
f5cc
0895
05c7
f85f
06c5
f38d
f318
f04b
03b6
05e6
046d
0f68
0c60
0295
fa0b
04d4
f5ab
0989
fda1
0324
fdbf
fc4d
0656
079a
087e
0598
f7ae
0f6e
f723
0627
f9b6
f2e5
08b5
f827
00d6
f0a7
0c1b
faaa
0b82
fe06
07ea
02bd
fbc7
0acb
0e8a
fc1f
0b9a
fce8
0512
f580
05dd
fc71
00f8
0708
f0c5
fc42
f7d9
fc3f
06e7
f346
0bba
fe27
060d
032e
0940
02af
ff9f
09c6
fb4e
f45c
f0f2
05fc
032f
0862
0af4
f99e
fe1e
0d73
f4c7
0d0c
0143
05ad
f5cd
0147
f8c9
f6a4
fabb
0a18
071e
0649
08d7
f313
f8b2
f72a
fdca
f781
065f
f0cc
036c
04b5
0b42
fc5e
fd42
0ade
f8c2
0140
f206
f394
0dac
f327
0595
ffc6
fdd6
f17f
0512
0caa
06a0
fa99
f601
032c
fccc
019f
0557
0942
09e0
09ba
f829
fd6f
0a6b
0efb
f938
f9be
08b6
f4b8
f642
f2b4
f694
f85c
f00c
fee8
0b4d
fad9
0d8e
0453
0bc5
f7af
f8cb
0057
09fc
09f2
f76c
0619
092b
f688
0737
047e
053b
f68d
0261
fd89
0a6b
01eb
fafb
f4e4
03ea
fdb7
0742
f46a
f6cc
f3b9
f488
fe6f
05dc
fc75
09f2
f6fb
02dc
f3f3
f4f1
0e51
08cb
f6a7
f139
f338
0977
f123
034d
066c
f353
0935
09fe
0348
0ad9
f4a0
f380
0853
0278
fba5
0dee
f565
02d3
f319
ffba
0c41
0619
1020
104c
f0af
f6e3
0a14
f795
0d0a
09e4
0bf2
fe1a
07ab
03e1
fd7b
055b
f700
f1b0
0e65
0079
06a7
0364
012f
fd6d
0f8a
f625
0414
f4a0
fb16
f332
10da
003c
04a0
f7c4
09ae
080e
fd3f
f401
0ed7
f5f4
0f2a
0d9c
f1e3
ffae
fbc1
0d21
07e8
07cf
f6f6
0431
ff27
062f
0af7
f691
fa85
0b31
086f
06a4
f267
0d3b
fe55
0f01
0b86
0eaa
f4da
0e62
fe8e
059a
f0f3
f677
fb1b
0600
0de5
f3c9
0638
f272
fb86
f671
0b3d
f97a
0b4c
f38e
fc73
0871
0acd
faaf
fbc5
0121
02c4
06e8
01eb
023a
feee
f0c9
fc41
ff8e
f1ba
fbba
fd30
0bac
f843
0cc3
066f
fd8d
f842
0fc7
fbd5
0583
f0db
0cab
f11d
f0c6
0d80
0566
f5c2
0b39
0047
f6ea
f841
09b2
068e
0290
06a7
f41a
f691
f8c7
0685
0d8b
095c
03ff
0502
f6e0
0adc
0894
fbf0
fbbb
fae9
0e1b
0093
fda8
023b
0c06
0e0a
f167
0200
09ce
01e8
f0df
0090
f91a
f92d
fdea
ff49
f690
f0cb
011f
092c
0fc0
0401
0666
fc95
f26a
fdc6
f9d1
f5f4
f50f
03c3
0d29
0399
0a14
f0ab
02dd
054e
f8e0
fa3b
f9e8
f7d2
f1d7
0801
0252
feb7
f40e
0258
0106
0acc
0590
fa1a
031b
fdba
0d0c
fecc
fe60
057a
f222
f8a8
0b4f
0d51
f9ed
f585
f7d4
fc9c
0be8
0f07
02cf
f113
0f51
fb0b
07d2
fdbb
fa67
f07f
0721
0562
