0c94
0962
0b71
f2e0
09c3
07ce
0885
0628
030d
f59c
f1c7
050f
fe6b
f886
0ebe
0f72
f489
f9d3
0abf
0c57
fbb4
0186
fe3b
f630
ff97
f875
0be0
f361
f200
01bc
f118
f793
0dd4
f645
06a9
08ff
0022
08b7
f1d2
0ded
021a
0423
0f2c
00e3
fb0b
f739
0b3a
0620
0bbb
f863
0446
f981
f4c2
fee1
0f8c
0b3b
0e99
faa5
f360
0884
f0cd
020e
0096
014b
f254
f4e0
f93c
f8f7
fef0
08bb
062b
f9a8
012a
0491
0ab2
0f3a
083d
074d
0fae
0c00
f716
f59b
f6ae
0ae8
f48b
fa7d
00c3
f52e
0936
0a0a
fc6f
0e9d
0656
fcc1
f75e
f21e
0741
0444
ff52
083a
0c8e
0a03
eea7
07f1
f6c0
0351
f9af
f9b3
fef2
fd0f
f992
fb4a
fbe6
07f2
0c07
030e
0cf3
04f7
0b95
0c4f
f356
f8ee
0714
0cf1
0729
0d4e
04f7
fcb3
01d1
0419
fd2e
0072
f3a4
f816
00cf
02e7
ffe4
f2e7
05c8
f2bc
fd62
fdb1
feaf
f4cd
09b1
f558
048b
09cd
06a7
00ad
f38b
0e98
fe18
098b
f4ed
02f7
f5b8
085f
fcfa
06cf
f7e6
0136
09b8
07ae
0152
04a8
fda1
050d
fac2
0ba0
f55f
fadf
00ae
ffab
0419
0998
fe73
f3a6
f207
fdb3
0e53
05fb
fcfe
0d7d
0ad2
0d96
0a14
f838
ffc1
0511
00ea
08a9
0828
0991
007d
0fa2
078c
f699
0665
fed2
f826
05b4
f4a8
0b60
03f8
0804
fd11
0567
0d16
fee8
03fc
f6c3
09ca
07b2
fa2e
0f12
10c0
fc48
f4f2
05f3
f4bf
03ed
fa8a
fc48
fb37
0a90
0d19
f438
f49d
fee8
0b23
022c
06de
f55e
0166
ff43
0f66
ff52
ffc4
02d4
f352
0eaa
0cfc
f177
0983
0313
0c04
f79f
f8b7
f8ac
0721
fc5a
f36e
092b
fc4b
076e
fff4
032d
0ae2
0132
fc5d
0f1d
00bc
fdc5
10b0
0882
f1e4
0a8a
f7d8
090e
0ea1
0730
f6d4
fa68
0a3a
0a95
f9bf
fe5c
0894
0d52
f7c3
f8db
0421
07b2
0568
0e4e
04f1
fe69
016b
133b
039d
0c10
0f55
0558
f1cd
fca5
ee7a
02dd
f367
0d14
fe90
f7d1
f376
f550
026c
f10d
0f61
0f4d
077e
fe8e
0b8b
f12d
fad0
ffc9
0f12
05f1
10f9
0712
fd81
fce6
f9ac
0caa
0c28
ef6d
f038
f58b
ffba
05f7
f4c4
f410
04cf
f641
0022
f38f
fde9
f35a
f801
0e67
f954
0f4c
02ce
05cf
0675
f9eb
040e
fe50
fdfe
ff0c
fcc2
f9e2
f399
ffe7
fd69
fe71
f458
066f
f104
f854
f06e
ffb7
0c65
f1ae
0c57
066d
0421
0024
f637
f2f2
f22d
087e
f305
f7ad
fe18
fb5d
07fa
0136
0175
09c7
f766
0600
ef92
02f8
0447
fcea
012b
f9b1
0da2
091e
03c2
fd88
fd24
f3a0
fe62
0947
01be
ffa5
02ca
0ede
f6b9
0430
f5d3
f47f
07da
0ae8
fb3f
f4dd
0207
ff71
07b8
f31b
f83f
fd7b
ffbd
f314
f598
0453
f232
0943
fa0e
ffba
fec2
f274
0e21
0c99
f3d5
0223
0e52
f3cb
fbcb
f40a
0785
07da
0b3f
0436
f5d5
fcf9
f7ee
0783
fd7f
0980
0d98
0a09
0c85
f123
055f
f736
ffe4
f2ef
0039
0b0f
f3b3
fdcc
03ce
f4fe
f05a
00f4
fcac
0c86
059e
fe6e
fd2c
08bd
f533
ec4c
0c00
f7e8
f519
0ea3
0c50
0a64
0463
0375
03dd
feb4
0ec8
0b0f
098e
f177
0e95
f17b
ffb8
ffe7
07ee
0960
02b4
fa96
fe42
fdcf
f975
f83d
0627
f5ab
f616
02d0
f676
f685
035a
0f25
fd66
0c76
0810
02b7
f034
0b01
f0a7
0071
f065
02df
f1af
0483
0bc1
f18c
fbe9
f59c
f196
f065
f959
fa47
fca0
f172
0a8b
f967
fdff
f6be
f6c6
0241
fef8
07f7
0631
f5c6
fe22
faab
0612
f687
f52e
0464
f39b
f3d1
fa67
f871
fc03
f93d
0870
faef
f49f
06a7
0375
0273
f7f6
f382
fd78
088f
f901
fd3d
02ed
0c5a
0e4a
f5c4
f14f
01b2
fc77
0eea
067a
fdf9
f587
f9a3
06a5
ff8f
0f12
fdc4
0789
0746
0957
05b9
0302
04e6
f755
fdcf
0aa3
0823
0656
03d8
1011
0db3
ff52
f623
0815
f299
0841
0baf
02b5
f56e
0404
f66a
0f13
086d
0566
0e9f
0e67
0ae4
f209
f6b7
fa55
f51e
fd6a
f7da
08dd
0c2d
ff4f
fd0e
ffbd
070a
fc3e
099d
fc9c
0c9e
f597
0955
0b31
f9d2
f595
0009
08ff
0dfa
1222
fd9a
0dcf
fa3c
04dd
f8ed
12f5
f5c7
0b9f
ffb9
0d07
0912
fdb8
0c0b
0932
0c77
f2cf
02b7
f68d
0985
f666
0067
0c8c
f050
f869
f880
ffcd
f4f3
fc57
fb5b
00d7
fc37
fa51
12fd
028c
fae8
0c39
fc62
0690
0eb1
0ee3
0bda
ff03
f30f
f1d7
fe81
0896
0adc
05ac
f3da
f207
fefd
f4c0
09d9
09e2
0381
09cf
087d
07ac
0f9e
faaa
1013
fba3
fd90
0c72
0ed3
f2b9
f082
f98e
f253
0d66
09df
094f
0804
048f
fa41
054e
0139
f1ff
061f
f816
0d7b
0b3e
fe97
05a0
f0f1
f5de
03e9
f144
0a45
f609
fb90
0c81
0bcd
fe7c
0946
fc8a
f563
f9e2
f17d
081e
f492
f9ad
f759
0587
fce8
f93e
031f
f3f4
f3ed
0a94
fc56
0490
07e7
02b7
f45c
f731
f2d0
0902
f704
fa36
f344
05ae
063f
fa6f
fdd4
f221
0ec0
0b83
f45e
f906
0a0c
06e5
0407
fb0d
021e
fdc3
f718
03dc
02c3
f29b
08f4
0547
f9d7
0a1b
fbfa
0a01
f79e
0d19
05a7
ff16
f065
fcec
f2cf
f4fe
080d
0b25
fa78
ff21
f296
