f224
f5df
f9f3
0a50
ffe6
fd8c
021b
0acc
f93b
0983
f2a2
08f4
00bf
0c8b
fc52
0a04
0ddf
0699
094c
0903
f0a2
fcbe
0e82
f30d
fbcf
f5f8
005d
fb73
ffa4
043d
0005
0fbb
fa73
000b
f0cb
0c97
f31d
f608
052d
f9aa
f961
f1e1
0075
fd2a
f7a4
0e80
03f9
f806
0e34
f479
0c90
0f4b
0ccf
0cb1
0e5b
fd13
03ec
f3d5
097c
f482
031f
ff0d
0b6b
fbaf
fa56
01b8
0486
f557
f74d
fa94
fe1f
fa8b
0726
02c5
0d8c
0192
f08c
fd2a
015f
f866
fbdf
0380
0640
064d
02dd
f8dc
00c2
06ee
fd3e
0a56
f0e9
0e09
f194
f9f0
0c92
0ddc
0683
0081
f412
047b
f639
ffa7
fd67
0908
faf8
0e58
0475
0889
06fc
04f0
0a7c
feaa
02a2
0737
f671
f4b2
0316
fcf2
f3e2
fc4f
f921
f8ba
f716
ff73
f384
fd9a
0599
0cb7
0dbd
008e
06d3
07a6
060d
f045
0289
f4a0
fb60
0883
f47d
fb66
03db
08e4
f19c
fc28
fec9
0581
f6c3
f6f1
02e2
f82a
ffb0
0777
0b48
f9a0
f01e
fdcb
f4d5
04a7
f779
ef94
fad4
f0a4
f192
0170
f9b9
0fba
0628
0c68
fa29
f055
f1e7
035b
f3a1
fdae
fd4e
f1f4
03dc
0596
057c
fb24
ff44
025f
0f94
0ee0
f279
fe89
f3d2
0a39
095c
f12b
0319
f268
f7e3
f407
06a5
f6f2
f2e2
f99d
fe71
f8ce
045b
f23e
0a8f
0789
0011
f521
f441
f9ce
f8e6
10d8
0692
05ed
05ae
0626
0e67
074b
f1a9
0785
f6c6
00e9
f1b5
fca4
f6d4
f50c
033c
05e6
f8b5
f32f
09a1
03d4
0ae5
fb14
0526
fe8a
fdbf
fd5a
0a2a
0df8
072b
fdc2
f84b
06da
0c76
f5c1
025e
001c
09d5
0474
fd13
00e7
f839
06a3
0b98
03f7
f3b4
05b6
0765
034f
03f6
f6b7
f98a
f6fd
0506
0064
f39a
f605
0531
0e6b
fa5b
f7f9
f3b7
f382
faaa
f448
0092
fd84
1003
0f68
fedb
011a
fb43
f404
f861
0849
fbcd
fffc
0f1b
01e7
054b
fd29
0dc0
0bd4
f696
ee91
f62f
08f6
0c2a
f25c
f46d
0e83
09ea
f7b4
0da6
059e
0b41
f5e0
f9c0
0443
057e
fd2e
0e88
f414
09a0
0e7d
fbb8
fd83
057e
0716
0e66
0eca
f8e0
0bc4
fc95
eddb
0d8d
fc98
0c82
05bc
fc5f
0c0d
0f9b
f676
fba0
0e0b
f854
f64e
0eca
fe39
069f
08da
f0d3
08c2
fbae
0b79
0b2b
096e
fed3
0604
fd31
02e0
0103
f1f5
f6f5
f284
0fc3
0600
01ad
0502
082a
044c
08d2
07a6
fe1b
002f
f9e2
f2ba
066f
f765
020a
fb89
1057
f5a8
05f0
0abf
033d
0b61
0d91
f36b
0b1e
01c0
034d
fe8c
0b32
f3de
006d
1186
05b6
fcab
fde0
010a
fb2b
09b1
fbef
0d27
02ee
f8b0
03b0
fd45
0e55
05a3
f0c6
fe2d
fbcd
f772
0e12
f610
04ca
036d
f8aa
029b
fa93
05f8
f551
0b2a
f4dc
fce4
0d4e
0549
f116
f435
0cde
f352
0a30
08a9
0c79
0e7e
0b46
03ca
0b3f
0443
f0b3
09c1
fae7
0c52
033a
f500
0909
fd53
fece
0d55
0367
f78a
0737
fc5b
0a6f
fcd9
0bd1
f65b
fc2d
f9d8
0fa4
0da2
0646
f77d
0fb6
00e4
f26d
f7d7
f3ff
fb39
0dbb
0497
02aa
03d0
fce3
083f
fe93
08c5
fdb9
ffee
007f
0aa7
08d2
08ec
0859
08df
f26f
029b
0f7e
0497
f0b4
0985
ffb2
10e4
f22f
f843
0abc
08f5
0c24
0463
fc8c
f331
f838
0c25
f63f
0579
fde6
f26c
083e
f6d6
08c3
f9fa
0857
fc87
f80e
0950
f446
f519
f66b
fc93
06c7
0b2a
00df
fb7a
0f2d
f355
0af9
05c5
f500
f6cd
f1ac
0f02
f7ac
01d1
08be
fe77
f0b2
f80f
02fa
ffc8
0ff4
064e
faed
ff71
0881
010d
072d
fc6d
fe56
fc5a
f58e
f288
0256
ffde
04af
0cc8
0c83
ff7a
08c7
0d1a
0323
08a6
030e
f10a
0903
0a37
f831
f079
075e
043b
feb3
f5ca
f7ef
f5d6
0d71
03d2
0673
0b59
fe9e
f792
09ae
f3ea
f744
0a38
f8df
0062
f21f
f36b
efbc
fb66
fbc6
fab1
08ac
f255
fc5a
0ac5
ffee
f4d9
064b
0d3e
f21b
03b9
07ad
038b
075f
f817
0a93
f318
f708
eed7
f145
f1d2
0ac9
f9b2
02f4
0c1d
f6f6
0d78
0c17
ff4a
0e08
0adf
0408
0513
f6e1
fa4e
0e14
f0fc
0002
f719
f47b
fa63
0e02
04df
fd66
09c2
f357
07f0
ed18
0af8
0404
0032
0210
0cd9
f4eb
ffb5
00c2
fe72
0c38
f2da
fd17
0292
f5e3
ff52
f022
fc46
098a
0562
f053
fcb7
f215
f390
fc02
fe1a
0d19
0289
0da1
0a28
f8f5
04ac
0783
fbe1
fe47
0a6b
0a6b
f077
0ec5
0bd7
fac4
f7a5
ff95
05fe
fbbe
feae
f402
f126
053b
fa05
f08b
0f35
feaa
0eb9
fbec
f454
f4bf
f0d7
ffe8
f50a
0a25
fc49
f274
f505
101b
0f30
0be7
0528
f1a9
f334
f072
f280
f22d
0ea2
fb29
0181
002a
030c
f711
fcf0
f0f5
fa5c
f14a
0be9
01c4
05aa
ff05
f455
0fbe
01c3
0761
0b59
fad2
0ff2
0ba5
0035
0fa8
09e3
0218
fa94
0c6d
0843
fb9f
f411
f455
f719
0c9b
05e8
0435
f638
fac6
f9a9
f49b
f567
0b17
f486
f8ca
0b90
0d16
0f46
0501
02ef
0e7f
09d7
f17e
fcaa
01ae
00ed
f101
f765
fa6e
0bcb
0f83
078a
f691
0c07
075a
0026
015c
0b8d
f436
0631
f6b9
0dca
04ae
f616
0949
f71f
f9c0
055a
0ff5
0693
044b
0bd5
0ba0
08d4
