053e
fe23
f255
041e
0a5c
0756
010a
0cf8
0f54
f829
fd57
01ea
0624
0080
f891
0951
f159
faa0
0405
0e39
fdc3
f5f8
f131
0c49
06f5
01db
fca0
05ec
022d
06ea
05f8
f737
0d8d
0881
00a5
0f00
fcd8
f6df
0bef
00bd
f7a7
00d0
0632
085e
0889
06d2
f840
f890
fec2
fb12
08c6
0de9
016e
0c74
f1dd
0f00
0d54
0230
fe1d
f78d
fcbf
0500
09c7
0b86
080e
f306
0765
f2e8
08e8
f650
0e63
f789
0fbc
003c
0634
fa28
0faa
0840
0d77
03c4
0b01
09e5
0ae9
0e34
0e76
fac7
0b46
f84a
fb41
f749
f334
0ba8
0005
fcfd
f1eb
0e5a
fecd
f9c5
025e
f84d
06d0
f89c
f09f
f628
f660
f460
0a6e
fa02
f68e
fb32
0ad6
0848
0fe9
0de1
0d2f
08ae
0808
f73d
fd46
0548
06aa
082b
04d8
fb81
ffb7
fe11
f63d
f96e
f1a3
f7bb
f6fe
0825
f4bc
036c
fefc
0dfe
f264
0dcd
0e15
071a
fb4c
f803
f32a
febc
f364
fec5
fbf1
f8bb
fa02
f1f9
0965
0860
0892
f085
f2d3
0478
fe2f
0a96
0079
f0d1
008a
fa92
0208
f9fe
f9c7
f029
fab4
fc0f
0aa3
f7bd
f370
f073
fa43
0081
08d8
f90a
f57d
0292
f46b
0b0e
f733
0182
0e59
0be6
f139
fdf1
0c0b
fa9f
08b7
06e1
f324
ffab
f683
f60e
037e
0c30
0203
0057
f0ae
0ec7
0ec1
f70c
f4bb
0690
f17a
0bdb
fda8
0665
fbd1
f70c
f366
061d
f943
0b6c
0497
006e
fe1d
0a44
0cdb
fde1
f48b
0907
08d0
f316
f345
0243
0616
fd22
f528
0b2e
f4d9
fdd2
fd6d
f8c6
f0a1
07ac
06bb
f3a0
0929
f4e1
f795
f732
0d1b
f2de
0896
f471
fead
04ab
0ac8
07a3
fc71
f4e7
fb7b
f07c
044c
ff68
0ae3
0e12
034c
03b6
0c89
f53d
ff19
103b
0cf9
0756
0b00
fda0
fdc6
021b
039d
0d34
efed
08d0
0718
05f6
ff2c
f89b
f9f3
06a6
0184
08fb
f536
066b
08b0
f4ab
0c64
0d46
ff3c
0652
0f55
f3b0
003c
f991
064f
0841
0da0
0a9c
f43e
fd37
fe20
f3b6
0955
f0d0
063c
f3f7
0ca5
fd28
fda9
07e2
02d3
f551
05d2
0903
f580
0429
ffe6
04ab
08f6
1066
fe0a
fe7a
f242
03c9
effb
03be
0d57
0863
00e8
fbf0
fb87
f80c
0eb7
0dbe
0570
0ed8
0ca6
fd14
f49b
0363
0493
0301
0633
00a6
0da0
f4bf
01a3
03ac
f27e
066b
f8bf
fdad
fe6b
0f43
f488
0ed8
0a48
0ae5
fc62
0773
f9c6
f1e2
093f
f02d
f62e
fac9
0bb1
00c4
0e50
06f9
0b1b
0c38
0eab
ffd9
10a1
f465
f148
0560
f54d
ef71
fc4e
02db
0014
fd5d
f571
fc1e
07a8
0661
f72a
fdb1
f59f
f480
0ec8
fec5
0dbf
f5cf
fcd7
05e6
0225
f9d9
00d5
039b
05f8
f3d6
f5ad
fe70
0954
f722
10c0
03ba
fe64
0ddc
f4c7
fe10
0c68
f704
0cfd
05fc
0287
057f
f4b0
f735
0438
fdcb
045f
f1af
099e
f473
0e8b
0a17
013a
0636
02cc
f86a
088f
f51c
011b
0ead
04af
ff84
f40e
0935
f708
f2a1
0213
f85d
f726
ffbf
0af5
f3e4
04c8
f128
f376
f8a2
fe70
1318
f707
1076
fedc
ee61
03ee
fde4
f744
feb8
1210
0759
fd99
fbd7
0e02
f607
fe82
f2cf
fcb3
0bb8
f36f
ffdc
0d7e
f5c8
fdc7
fd07
f073
fc64
f817
0bfd
0fad
03fa
0e5c
0a56
f52a
f013
0579
0f66
f95e
f63f
fdc5
fab7
f7b3
03f4
05ab
f1b3
0392
0c15
f78c
fe35
f1d6
0015
f254
fd50
011d
fcdb
07fb
050b
063a
f47f
f5aa
0cf6
01eb
fb35
0555
f47b
f6dc
ff05
03d7
0bc2
efce
fae3
0c93
fc70
0417
0a2c
f87f
0f2b
f706
0f0c
fe6a
fe99
fa2c
f2d1
0f87
004c
f48f
f673
f2bb
00db
f7ef
fe49
0dd3
f6ad
0faf
f578
0758
02f7
065e
0aec
071c
03da
f4e6
06b0
06a2
03f3
0e2b
0f1a
fa26
0a7a
fc8e
06b6
fbcd
f955
fd85
0ac4
f71f
f735
f9fc
f83f
f253
0c65
07aa
03ff
f1da
f3b9
06d2
0e20
fd1a
fa34
07d7
f4ee
03ca
fc53
fb95
0999
fa9b
0772
f83c
fd74
fbd8
fcf5
091a
f673
0679
008e
0293
067f
0afa
ff0c
fc4c
01ba
0a94
f0f7
f766
fb33
08ea
fa6f
fba6
0bae
f50d
f152
f026
f232
f5f6
0b30
00d5
f791
f13d
fec5
046c
fea6
0368
053d
011c
03c4
0a63
0150
ff44
f897
f05f
f044
f79a
fbe2
fcc6
05cd
f7ce
0ab7
f23f
f9cf
fb80
0eaf
0927
0a5a
f364
00b6
f0cc
f499
0569
f2ff
08a9
091d
f0ed
08be
efd2
f84b
02cf
0385
0856
fb06
f85f
f08b
0f1a
f6a0
fe48
0994
08ca
0a65
f272
0d3c
f7ed
fc3c
f5ce
0a49
0cb4
f7d9
0368
ef2c
0b60
0300
f692
00b3
0432
04a8
0a49
ff37
0e28
0bd4
fc1f
0f18
f805
f8df
f2e7
08e0
fe17
072a
fa23
f879
0459
fa2a
06fe
026f
f025
f02e
f164
f840
ff9f
fff0
08ab
0a80
0942
f976
03ef
055b
0b84
f0f5
f2f8
fd76
0c32
f1c2
f47f
fc99
fc68
f4da
fcb4
f50f
fcde
02d5
fc75
fe94
01b3
fb6b
0305
f666
f7b4
0401
fbdc
065f
fe31
0525
006b
f119
0d3f
f637
fac3
fce5
01c8
03b3
03c4
0711
fdb3
039a
f00d
f7a4
f011
0403
f42b
0a1b
fc5b
029c
08ee
f503
fdb1
0784
f37c
08a2
f9c4
fbfe
0786
009a
f5e2
0313
fa56
02a3
f4f9
f155
0210
fb13
ff3a
f65c
