fd90
f87f
09e1
0154
04e7
0a6a
0364
0870
f3fb
04db
f23f
fdb4
0954
fdcb
f5ae
0be7
f48e
f6f5
fb40
0eb7
02ef
0236
f09b
0642
f982
fa11
0b4d
0dad
fa62
0b12
ff1c
0146
0455
ede4
0aa2
03e5
0c5c
0f66
f7fe
f3fd
fd42
01d4
fe50
fe07
0c55
fc23
f754
0d05
fbdc
fd1d
f875
f627
f982
f163
f07b
f59b
0232
fee8
0373
f6a3
099f
14a8
0615
f6df
