f14c
0fb8
0a41
0951
013e
0dbf
f2a4
ff2a
f910
f6fd
0e9f
04a8
fbaf
0e3b
f739
015f
0a41
f6cc
0891
f963
09d5
f62e
fe24
0eff
f5f0
ff0a
0c70
f1af
0caa
f834
f37b
f6fe
f489
f3b3
fa9a
0d3a
f498
05b2
f63d
000e
f298
06b6
0a88
03db
f87c
f0f5
ff3b
0393
026a
0b82
08a7
f913
0c53
f6a8
fcde
0fd8
f21c
f578
070c
0e3a
0a52
fe88
f9dd
f1d5
0de9
0cce
00b2
0ef7
faf4
f94c
0154
066d
ffd8
07d2
0fd9
0546
f3b8
f79b
0dcf
0976
02c4
f80a
f6f4
fe78
0c4d
f8a0
0485
0053
0156
f956
0370
0ae2
f653
f370
f80d
0105
0b01
0aaa
0878
09a5
0d1c
fe71
fc0f
0188
fd8b
f993
0d90
031a
fca8
09e9
0a20
fb5f
f443
f120
0ab3
01bc
f35e
f179
03e0
f88c
f503
fbc6
05d8
0017
01df
0c47
fcfd
02e4
007b
0717
f0e1
0f13
0bc1
0ed0
f4c1
faac
fec4
0e05
0750
0a35
0385
f197
f35d
f1ea
fe79
042a
0b02
ff98
f61e
0da0
f0f5
0148
0760
0fd0
f561
02e0
029c
fbd7
fa46
0951
f9e6
0b7f
01d6
f4f8
f146
03ac
00a9
0165
0887
f9b9
08f8
0d51
f3db
03fd
f8d7
0d32
03dc
f487
00b9
ff58
0d4e
0284
fb32
014b
0059
0f42
075f
0f00
f9f1
0f56
1011
0ba9
f71a
065b
f11f
0b78
f8e0
fc81
01b8
0219
0449
0566
fe89
018d
fc4d
f450
ffa4
0d69
fe2b
f24a
02fb
0009
fa73
f613
0581
07f2
0689
050f
f38f
0cdd
0ed2
f8ff
fcce
0004
09ab
fce4
00c9
0292
f16e
04af
08ea
0076
f7ad
01c4
f310
f0b2
fb6e
049a
f82e
05d0
0edf
f35e
fcba
fd65
f588
fdee
f25e
0c7d
f85c
0f03
0204
00be
04e7
0c40
f87d
026d
007a
fa16
f695
08aa
f351
f167
fb09
f408
f979
08d2
f9f3
0799
f48f
f273
0ef7
0413
fbb5
f023
06db
fadd
027c
0f78
f570
01c1
0477
0d7a
f48e
0699
0a34
f06f
0968
0a0c
0713
0810
faff
f67b
fa6f
02e9
0e96
f032
f6c2
fa73
f83a
f8a0
08cf
033c
fd2a
0773
0d2f
0e92
0c46
083f
0eae
08b4
fc0b
0b5a
f18f
f6ba
fa85
fa35
f998
0a68
f037
07b9
0b5c
f6f1
0213
fc6a
05e5
05e3
0995
f9a9
fb1d
f7a0
f05e
04b5
fcb4
07aa
046f
fca1
013a
03cb
f0e6
037a
05b5
fa61
0901
f4a1
022a
0cd1
01d5
f968
f377
f42d
0439
fdce
0e6c
f2bf
0aa3
0f20
008e
0d28
fe06
07a7
f56e
fc67
0ed0
f434
feae
f936
f695
f989
0fb7
f598
fdd3
f438
f83f
f31f
002b
fc99
0308
0034
f547
f0a7
fa82
0a24
0afb
099d
0ead
f79d
03f1
f7c8
fec1
0b8b
f377
f58e
f3b8
fa53
fec7
0df5
f5ec
f925
0222
fd9f
07d4
fcf5
f2ff
fa8f
f844
feea
f93d
f29f
0ac0
faa8
0e16
066e
f25d
f707
f4a6
f35e
0652
fa7a
f7bd
ff25
f700
0d41
05b9
f058
001a
fbaa
0440
fd90
fa6e
f332
fbe5
0a69
093f
f00a
04a7
f905
08bf
0440
0fae
0e6b
fc1e
fbbf
0638
fccd
0b99
f9f1
0883
f5b7
f3d6
0fc7
085c
0de2
fab0
f9f1
0874
0cf9
f34e
f6e1
ff2a
fbfa
efff
ff7c
0d7d
f9a7
f535
0543
f3f6
0303
0fc5
fb3a
f488
f69f
0984
fb2d
0218
018b
f82f
0d07
f90e
0640
0dde
f7ba
fb30
08aa
fb46
f036
f596
f3e9
0e8d
f5fc
0326
f231
f6fd
07d0
fc0d
f5a7
06b2
0c2e
0bac
f6b3
0a30
ff80
0793
0aa0
0bb1
fa72
fb32
f915
048e
0e73
0896
fbf4
0233
0476
f426
f722
fedc
fc5c
f7c5
089d
f54d
f316
fb31
f861
f14c
06df
055e
f987
f5b7
03a4
0ed9
f472
0af6
f6c3
fb84
fa9c
066b
f386
f3fa
f5c2
f36f
09a5
fa9e
0e24
f01d
01ef
f589
f2e1
07ec
f4f0
f6fc
f9fc
feb8
fca0
f28a
031b
f300
f53c
f255
0700
0352
0491
f087
08be
f3f9
fca4
05a0
f2d6
f2a2
0fd8
fa8c
069d
0623
f22c
0bd2
09e4
f68a
f077
0da3
f7f4
f573
008f
fa39
01a0
f035
0bc5
f843
ffb3
f78a
f6bd
fa4d
f5b4
f7bd
0917
fed6
fc25
081c
fde0
f548
0e98
f7e8
fb84
fbf3
f0a7
05d8
f462
f4b6
0651
0ac0
f219
096c
fbd4
fc71
fd01
0f3d
f092
f8a1
0c8c
ff03
f87f
00de
0fb7
f6cf
0011
f707
fc44
fbe2
f640
02b0
f325
0fbe
0a53
0669
fd5c
065c
f659
0f55
f359
028d
0b92
0235
fc7f
f981
f791
f84e
0f9e
0b8e
fcea
0c24
0155
0172
fdab
055f
f728
01a1
fd8c
f63c
038c
0c28
f4b4
f7ea
f3d3
ff2e
0cbc
fe5c
0343
f978
0a4c
f6dc
fe2c
0d82
0b3d
0f9a
f3dd
01e6
064b
fbef
f845
0b6c
f29f
f5c2
f9e9
0263
f1d7
0b5d
0afd
0005
f7ed
090d
ffd4
02ae
fc86
096b
045d
f847
030e
0914
f6da
0e45
0242
f04f
f8ff
f4aa
0438
00c9
04dc
fb70
0c7e
f92b
0b7a
f8a5
f55c
ff8c
f22f
049f
ff45
f87b
04e1
0653
0e7b
04a7
0dd3
f844
f3b0
f65e
023a
0191
0466
f1f8
063c
fc87
0feb
fa0a
f542
fad1
0831
06bb
0232
054b
0d7b
fb7b
f3e4
0cc5
00b3
0069
fdab
f207
fd86
0ef3
f852
fa0e
fb55
0691
0be3
04b5
0cdb
fdd0
f1e8
f710
f4e8
0498
f655
0432
f48c
0562
09ee
f8e0
06e7
0bba
fc56
03b5
079a
f574
00aa
f17c
0ef5
f0d5
f336
0b98
fdc6
f1ee
ff67
0934
fe5f
