f53a
ff90
07eb
f7f0
f44c
0dd2
fffd
f2fc
f47d
054d
f44f
fada
0d8f
fd97
f3cc
049a
fd1f
050d
fdf9
f8a6
ff9c
0232
03a3
f5da
095a
f42f
f21f
06fd
0f38
02c3
f8a8
00f2
f6cc
00f1
f759
00b3
fc9d
0f53
ff83
080a
01eb
0685
f22d
f6d7
01e8
0bb6
f04c
0c66
fb20
0154
fce1
0353
0a0b
fc3c
f6c4
03da
0743
fdd0
0cff
04a5
0d99
042a
0f3b
0eaa
077f
f1a2
f7fa
034d
0946
0f25
019a
09c0
0bc1
0b44
0bc6
f38f
072c
f6b5
fa1b
f424
f39d
006c
fe62
0662
0317
03d1
0202
0b42
017c
fb98
05a8
f4cf
0fa6
fe9b
01f7
0fa6
0147
0141
fe4f
f8c4
fc2d
0fb4
062f
0b2e
005f
098a
fc92
ff80
01c7
004c
05fb
0f70
fbdf
0330
f471
0e03
fe54
0b11
f040
07b9
0fc8
f422
f9a3
041b
f73d
f656
0d39
0830
fde7
f659
f89c
f49d
0b5c
0c81
06c6
f068
ff48
fcff
09ef
087b
fa31
f30e
0387
0409
fb93
faa8
01af
fc2e
05ec
0603
02cc
08a8
fd74
fbdf
fbaf
fd35
f342
084c
f8cd
fbb0
fbf6
0ce2
f959
0a89
f7ca
f8c5
0c3a
fd69
0979
fb69
08ed
f1c3
fb69
086f
0623
017b
f46a
fefb
0c4b
0a9f
f185
eff7
046e
f664
0225
f8d4
f8ee
f940
0721
fd8e
0b35
f080
018d
017e
04e9
f657
f883
04f1
fc83
0b1a
fd18
f71c
08c9
05e8
029c
0c36
fd25
0432
ff64
f160
fcb3
0495
f2c6
fea0
004b
0aa3
0ff5
0627
f0e3
0125
0c19
f34d
fd0e
0d35
0633
fecb
0dcb
0a05
f928
075f
0cb9
f408
0ae7
f830
0cd0
0128
0621
0785
0aa9
0b6f
fc91
04e8
10bd
fef9
fb91
0d12
ffe1
051e
f5be
f0fc
083d
f3eb
006e
05c9
0958
0935
032e
052b
fe9d
026b
0a96
01b1
f371
f0de
0665
f23b
ef9c
0159
0411
0ddb
105b
f2cd
fc70
f6d1
f882
f593
03a3
fda1
f4c1
fe51
f0b1
0530
06ae
0620
00e3
f876
0d15
f2c8
f600
f834
063a
04a4
040a
03cf
01b2
0141
fcb0
f925
f395
f5e0
073e
fb08
f140
09fb
0324
0c3f
f126
0622
0de3
ff29
fba6
0d30
fe93
ff82
0242
05b8
fb15
f471
ef0e
f112
0966
0491
f6b6
0142
f7c7
0197
0405
fbd3
f57d
0dec
0214
f479
0e63
06a9
0bf1
0b4b
04b3
f213
08d3
f87a
f836
051c
028b
fb23
fa4b
097e
fde3
ef54
efa5
f7cc
0548
f445
f944
09ef
022e
ef3b
0981
fcda
0bc4
fd45
f268
fda0
0a03
f185
0b41
ffa4
0b59
f38d
f801
f212
0c4d
f69b
fa88
0803
f414
08aa
f004
fcdb
0921
f845
022e
07df
0418
efa2
fb2a
07ce
f0b3
053f
f90d
053a
02cd
0390
fe16
f931
fa1a
013d
f003
0737
0c2d
00a0
fc37
f605
08c7
f207
fd72
0fe3
ffcf
0fbf
fd41
0389
fa87
0d9c
0ac2
fd72
0400
f155
09aa
febb
fbe1
00e5
f695
f026
0e97
f0c8
fab5
04bd
09ea
f38b
01c3
f07b
08d0
faa1
061b
fd9f
fb98
fa8b
05de
05b9
02c8
0cbd
fc15
f340
fbae
0edf
fcc1
f315
f6ac
f73d
071d
0910
fcfa
f8d7
f63f
0f50
fa70
f5c0
fbd4
0907
f9fd
0b7b
0803
11f8
115e
f830
0c2d
f4e4
f2a6
108e
0ffb
feba
f10f
08fa
f1cd
00f1
f33c
f02e
09ae
00ac
0eef
fab9
0675
fedd
f3dc
09bb
0851
020c
0b45
054a
0e27
123e
f51c
f689
0356
f138
0265
016b
faf3
f65d
fe21
02e7
f492
064a
0c64
0c31
0afa
0705
f1e0
fe1d
00ff
0700
fd83
0148
f1b1
fbac
f226
0871
0d17
0d91
f982
f5c8
03bd
f29a
090e
0228
f78e
faf8
1055
ff11
0398
f8bb
fdf9
0481
fb97
ffa4
0d00
0b9c
facb
054d
ffa8
f690
081b
fb80
faf7
090b
013f
f6c1
0c1a
f1c9
f090
0768
f4c3
f4fc
f6db
fb24
f3e0
0d6f
f1ca
f149
024e
0e68
f680
0e4f
feea
f93e
f9bd
022c
02a4
fcad
f8e4
f997
fc48
06bb
fc90
f2a9
f208
f20e
0a81
fc4c
f74b
ef5a
fdac
0841
005b
01e9
0dd2
f348
0b08
0234
0ed7
0c25
06ba
02e2
0b69
0ee0
0f62
f0e6
0b8b
09e9
0e2b
f4be
f5e6
fb02
f744
0413
f2bd
f02a
f0f3
fb3d
fa93
fd14
fdc9
f012
00f6
0a7e
fe81
05b6
00f0
fbf3
0803
0ac0
0502
0234
0a5d
0d2a
05b7
f474
0d4f
ff91
f6d3
0e9a
f42c
fd63
06a1
f74f
0c8c
f07b
0c20
ffbb
f197
0574
f341
f3e8
0b17
04e0
04c2
f38a
04b3
f8c9
0a90
07bc
f3de
07b0
f19f
0ee3
ff9c
0c37
0c37
0e91
f629
f144
04e9
f9d7
0c67
fb15
f56e
f3bf
0a82
0f46
ff99
f644
06e8
f330
0588
0b36
0dfd
f812
0900
0cf5
fccc
f226
0cfc
094d
fbe1
0e23
0e1a
04ba
0dd8
02e1
f2af
0824
0cca
f8bd
05af
0bc2
0a90
f511
f58f
fac5
f3d0
0edf
f653
0881
f545
0f2d
0b5e
fc5d
f9fc
00a0
0a96
075c
fb29
fa41
ffab
080d
fef2
f2ca
0e7c
04dd
035e
0152
f4b0
fdae
fce6
f4d8
fcca
f20a
0045
fb58
026e
04cf
09e2
f3bc
08c4
f5fe
0be9
060b
f4b2
0a61
027e
0486
0f17
f71d
fa33
0ed4
0c15
fa83
f0ac
fb1d
04ec
fa98
0ad7
f5ba
0675
f12b
f0e8
05f6
fbca
fb3e
08b3
0f8e
0f33
0fb5
0104
f4c8
0e61
0ee0
0964
07a0
08b2
0a0e
0005
f3e0
0efc
0a0f
fd79
fa0c
f0d1
fe9c
0371
f116
fbda
0d8e
fb5f
07ed
