f809
ff13
0f77
0a8a
fa8f
04cd
08d5
fb23
f47f
f475
f11e
07b0
fa63
022d
00cb
09af
fde7
f7ea
0ca0
07bf
f885
01ad
f835
ffc3
0525
f7a7
f080
0cfc
fcdb
fa4d
0084
f5d9
f567
0297
fd8b
0cdd
f611
f4b8
01e9
0f9f
f671
fd98
09e8
f7e0
f9c8
07f4
0c14
fbaa
0956
032b
f68d
07a3
05a5
f981
0a14
fd92
fe31
0fdc
088f
0c7e
0cfc
0de2
03f8
0929
02c3
f955
f98a
f4fb
fabd
0b1e
f9bd
0d78
02da
f415
f27d
f2a9
fd37
034b
01cb
fb04
0688
f736
0f0e
0ebb
0614
0cb5
fa0d
fbe2
f6ab
f770
f0f3
ff9f
0c6c
0aa2
09e5
0a26
f68a
03c6
09bb
04c2
f69f
1035
f1bc
fe7b
020d
0ca8
f078
0560
fc92
f505
f683
f1a8
00f7
f8f0
0740
0c20
fb1b
f5eb
068d
0a2e
03e2
0e2a
f5bb
09bc
007b
f9f4
f786
fcb9
f925
f60a
041d
0a0b
fce6
f139
f4ae
f859
ff4a
f41f
ffc3
08b4
03ab
0e57
06b1
f198
0bc0
0d71
04e7
f5b1
0ac0
f657
fddd
f9bf
0926
fdb6
0260
fc74
fca1
fab6
062d
fae9
f69b
0a79
f62a
0c75
fb51
f730
f213
02ad
0160
0924
f3e2
f6eb
04e1
0472
00cc
f3a4
0f16
f0c4
fdf7
fb5f
fadc
f8b1
f27f
05a0
0d8a
fa4b
fdaf
fa51
f163
00dd
05fd
f025
097c
f91f
f0a9
f56d
0561
0522
0d57
fa8e
0811
09ba
f045
fc86
f0f7
fe5c
ffad
ff71
082a
0836
03ed
fa8a
058f
fcbb
08e3
040f
f052
02a5
0a55
f41e
f39f
fe13
f5ff
0576
07e7
ff3e
01df
0daa
013d
0536
fcef
0263
f4f4
0538
fb41
f3f8
f37a
ff8f
0d51
069a
f592
066b
00d8
048d
f813
0dd0
ff9d
080d
0f1c
f0aa
f9ec
0ab2
09d7
02b4
f26f
007b
04eb
0185
fd9b
f68f
013d
f4dc
fbb0
f90e
f35c
03bf
f63c
efe4
fe2d
0c6d
054b
fbf0
fe1b
faf9
f779
01d0
0c73
091f
f64b
03e1
f1ef
0c8a
f083
f6c1
eff2
0ea2
04d2
f906
01f4
09cd
0ea6
01f7
f0ce
f1fb
facb
0d5e
fedf
f997
f67b
082c
fc14
09f8
045f
0d14
fea1
0b3e
f64e
0742
08ad
f705
0422
f28e
f374
fe00
f4c3
f239
093a
0126
f4ec
fd67
fc91
07c6
fe8b
0517
f2b6
0692
fab9
fae2
f0a7
0bd1
02ca
febc
02b0
f0e6
0071
0bb9
f354
0621
fdb9
f3d6
0543
0625
0288
0690
f13e
0bb0
0c3b
fac4
f126
f45c
03ce
fdd6
f83c
040c
0a67
f241
f483
f76d
0b51
0ee4
019d
fee6
0461
0daf
fd6f
0ad9
fd20
0af8
efa8
fcc1
0c3f
f716
0566
f0c0
ff31
f505
08b1
0f93
0396
0761
0b0a
f14b
05af
f4da
fe7e
ffba
f80e
063d
f550
feec
0a26
fc26
f2d3
f629
0988
0976
0e41
0236
0570
0f60
f076
039a
fa94
f54d
f232
02bc
062d
0230
027c
f176
fdb6
f057
0c47
f3ec
0637
0223
f33c
f185
f42e
f25d
09fd
fecc
051e
ff40
f763
f72f
0f02
ff6e
fb40
f2ff
0a9a
0e87
fba1
02bf
fe41
fddd
f499
0415
fa90
ff80
f7c0
099a
07a6
0997
f6fc
f2ea
0454
faef
0f5e
0eaa
fc4d
f96f
060b
0403
f8e0
02b9
02e0
021d
0fc6
0f16
f4e6
0c00
f549
fc43
07fa
0842
0115
06c7
0455
0c8f
f897
0220
0dcf
0397
07ae
0251
f6ad
08bb
f75f
f594
0b5d
f3ee
f6d1
f5b8
01f9
0a50
f42a
0d39
f913
086c
0b1d
0e92
fef3
099c
0e5e
fc3d
fafb
fbe8
0cce
f7b3
042c
f142
06d1
0159
0c48
0488
0ca4
016c
05d4
fc2e
07b2
0ee8
0b28
0938
0efb
0020
f7f1
fec3
002e
f461
f326
f711
015f
f577
0b9b
03eb
0944
fc78
ffdd
0f5c
0269
0c4e
ff2e
0829
fb60
091d
0ff1
0269
0ab0
0856
fa75
f4ff
fe03
0436
f5fb
f252
f4d3
0be3
fd6a
02fe
097a
05b9
0f6d
f597
f5a2
106e
057d
f2c6
06f2
f5a1
0c0f
0c87
fe5e
0bd6
0f9d
0e74
0ee5
fafb
0ba0
fd20
09ce
fd2c
0d0f
f92b
03f3
01f9
0b22
0bed
fece
0256
ffa5
f9fe
f230
05d0
0bbd
037c
0e9a
0d3e
f0f5
f2ba
f974
0750
0251
f07c
f3f0
0a2c
ffc3
0371
f5f5
fb67
f325
f519
0dc2
0d05
f23b
f18d
04e8
006a
0728
f7d9
0192
0de4
0240
074e
068d
fe68
0e8d
0311
f751
f36d
fcf2
f8b4
067c
08ac
fcf9
0dc2
0cab
012f
fb86
09a7
f7cc
f4e7
08e9
0dcb
009c
f8cc
f99a
0b56
fe21
0060
013d
0a08
06b4
0c63
0097
f0ff
f152
09d1
f5e0
09f4
f231
f540
fb18
f2f6
ffbc
019c
0db0
f84d
0064
08b7
0120
03c3
022c
0039
0730
02d4
08b4
ff86
faf6
0de9
fdaa
0fa0
fc87
07cd
005d
f821
f8a1
fe3f
fc3c
0125
0e5c
fd01
07a1
f80c
029a
0619
f0eb
f45e
f56a
0c34
0baa
faa2
082e
00ac
fe50
07bb
0d18
0f86
0e6d
f03a
f301
f6bd
0747
fa20
0517
f4ac
07bd
f3b1
028a
fe3f
f3bc
0ce2
fe25
06ed
0d6b
0a22
fc8b
098a
0235
ff33
f9ae
f85c
f4fa
fbf5
fc3b
04f4
0f62
0077
04e1
03d9
f047
feff
f8b2
047d
fb66
f7ce
f25e
f228
f518
f638
040c
0575
01ff
f2d3
f202
02ba
fe18
f660
fcd7
fdf1
fca4
fc54
f6e5
0f7a
f653
fe2f
f3f9
facb
fccd
0c34
fc4c
fa0e
0b39
f5da
0c31
f796
f8b5
07c2
ff3a
fb05
0c87
0423
0177
f434
0a36
0410
f966
0afc
fc41
0f75
f046
057d
f9bd
0f97
