0721
f23a
0377
ff01
05af
f102
0d9e
f01b
0e71
f232
fa43
0791
f0b0
ff6f
f303
014a
f833
f122
fdd8
09d6
004c
f9ec
07aa
0c7c
fc1b
0e3c
fa85
fc83
07cb
0deb
0a8e
fc48
febc
0db3
026b
f5f4
fef2
0419
f772
004f
f1e2
fd89
f3e5
02f6
0c40
0b35
ff67
ff1c
0a71
f081
025e
03f3
0c38
0be2
f0a0
033b
0285
0e52
fc35
f61d
fc11
f41d
0449
f8ad
0512
fc93
075d
fcbc
0d89
0b7c
f2b4
0ea1
fbe7
f4c5
06c0
0d86
f28c
0fb7
0c5d
070b
03fc
0d7f
f3a5
f106
00fe
0476
065c
0bed
fa08
0cfa
f5b8
f9d0
065c
f52c
05ed
0f7f
f4c8
f30e
0542
f402
f79b
fc64
f99b
f780
fac1
0f30
fa93
0c89
fa02
fad9
fc2a
0b6c
fff8
0c80
0c70
fb33
03a9
fd9f
fae2
0b1a
f727
0864
0108
f656
06a2
07fa
fcf6
0839
f8f9
0447
f556
f8a5
0912
0079
fc7e
08e4
fa50
fba3
f2f0
ffa0
0138
ff6a
0161
f0ce
051b
08d2
fd49
0722
fc8f
fbdb
0d76
0056
045f
098c
0c06
0f99
0cac
0709
036d
0559
fd21
f744
0234
fbd8
febe
0645
f4d6
ff51
0c86
0c1c
08ca
f27b
f897
0c03
ff68
f84d
f4c4
0daa
0be5
008a
fc3b
10ce
09f6
1082
068e
f59a
0c93
0f27
f599
0859
1015
0a58
fcfa
0273
0e36
f96d
05ed
f9ff
f9d3
fd0c
fc37
0e7e
07d7
f32e
f5fb
088e
fe9c
f6b6
0d4e
0ba7
03ad
f2e9
f768
f753
0386
007a
090f
0c45
f4a4
1197
ffdb
f6df
09a0
f05f
0ffb
018b
010e
f395
f791
0297
fce5
f331
0b3b
11a4
0bee
0ecf
f2f8
01d5
f4ab
042f
04cc
0385
0748
f27e
05a9
fb90
0c26
f2b4
0e5a
02b5
f05e
faf7
f490
047f
fffe
f47a
f548
0ed6
f27a
02ee
f525
f8a0
11fd
fc06
0148
fbca
0196
f1ce
0ab2
ef6c
06ce
fbee
fcac
fab2
0687
03bc
0272
0489
0c9b
06df
fe6a
0389
fa30
f921
f338
f9bf
10a7
fc62
0828
0aae
105e
f44c
f2d5
faaa
00f5
fb1a
0506
f034
f9f3
ff76
ffb0
0598
fc04
f8ba
055f
fc31
fea5
0fff
f276
0bad
00ce
f5f3
0d38
0bb7
f791
f1da
fabd
fade
02bb
fff5
0272
067c
089f
000c
f914
f341
fa3f
fb36
027c
f624
f544
f118
0c16
09f1
07e3
f2fd
fd57
004c
f4d9
f8b6
086a
098e
f5b9
fdd9
0bb9
0d62
fc14
fee8
fcbf
0a23
f3a3
0676
0e00
08b8
0071
054f
f1ad
0c9e
f751
f7a6
fa25
0d23
f8dd
fad1
0382
031c
0fea
f171
f439
0b03
0a95
ffac
f3c2
f250
fd81
f465
0247
07b7
f5b9
f37f
0b7c
f604
0158
f2c0
03ab
f2ec
0950
0ac0
f195
f245
01f5
09bc
0533
0b71
f0a3
f694
faa2
0c59
025a
ffd3
fdd8
0e0f
f3e1
f508
f811
0310
fa5d
0e44
f0e1
f4d6
0cea
0877
0586
f65f
02db
f6ad
f3e9
f813
f453
025a
0cea
f869
01cb
fc54
f812
0c14
086a
05b7
f51c
fa04
0e45
fd6c
0543
fc1a
01a3
f692
093e
f8e7
fcf5
f884
071f
fb81
fe1a
f48a
02bf
ffd9
fbbe
f729
f753
07db
08a0
f22e
f754
04e3
f244
ff25
0cf1
f01e
0e1e
001f
f453
00c4
042c
0465
f9fa
f480
0b84
f236
fadc
05e3
f807
f08d
085a
0351
f3d4
0618
0161
0cdd
f800
0c98
f3f8
0907
076c
0983
f1d4
083a
f7de
08af
f6b5
f83c
008d
ff72
087a
0772
f967
06e2
f203
fda8
0f78
03a2
0efe
0ec4
0490
07fd
0b4c
f555
f00e
08bc
f9bd
f0c0
07f6
f8ae
0889
0040
12c7
fc4c
f2e7
0f00
0a4e
09ab
faa0
f6fc
fcba
f2fc
f6b6
fd0b
fad4
0cc6
0b91
0369
0030
0d6a
fdd1
095a
fabf
f216
fb87
ffee
f432
f5a0
057a
0855
032f
fb2e
fede
0102
fb0a
f822
0fc7
fc84
1159
f341
f1be
fe2e
0795
f109
068b
fee1
0588
fc1c
f32b
fa6f
09aa
06a8
fefe
087f
f94d
01bd
01aa
f756
0f7b
0f37
fe73
f54f
034e
ef94
090d
012c
0c2f
061f
fe25
0584
09a5
f202
f6a6
fce7
023c
0112
0722
049b
f675
ff5c
0517
ffab
0c5e
05bb
f599
08b1
f4b0
0eab
fb99
f3f9
f40e
fd8b
106c
f396
f8f2
10a3
0169
0c08
f796
01b7
f5f2
030e
fdbc
f2c1
f69d
f8da
feb4
04eb
fcd7
fb20
05b1
0e2d
0129
fce4
f476
03ed
0268
0b04
fe57
0f58
f905
0924
020a
fceb
0e31
0db2
f624
f7e0
f16a
f208
f34b
f081
0b55
0203
fb5b
fc3e
f967
feea
f30d
fa75
fe6c
0fc9
f565
fcbb
1160
ff9c
0983
07f0
f4da
fba6
0223
f6f5
fea0
08ff
0dfe
ff74
0cb6
01b2
fdfe
fdb5
0c9e
f7e0
0bc5
0b3b
fe2f
f734
f172
012f
feeb
08fa
0505
0c6e
f7b7
07e5
ffae
f4f8
f7a8
f3f8
0bb2
f98d
f029
0cb2
f108
03b1
0ace
ff43
f6c0
0577
0ef0
0664
0c85
f5ad
fc67
ffc0
02f3
f5fb
fd03
0c04
f06d
f6cd
04c2
04bb
0ba6
0eff
fd4d
f4c9
f42b
0d89
06f0
fa9c
f120
05b3
0c0f
01fc
f199
f7a9
0755
09d8
fcbb
035f
06fe
06f2
ff2e
0825
08f5
04c4
f401
fe70
f149
f888
015e
fa05
0729
0048
f681
f552
09af
f8a8
f68a
f3b6
fe01
0c44
0ee1
f705
f88b
0b2a
fd38
09c1
f915
fb2a
05bb
0eda
0daa
08c6
0f85
0855
014b
fd78
03a1
08fc
fce3
0865
0512
fd2e
0418
f1d4
f2d7
fc6f
fb37
0b72
0d45
0a76
