0850
0c9e
ff3e
f3fe
0afa
03f9
f84a
f404
0d92
f150
fa3d
f584
0b77
0ba7
fca5
018a
f5f4
f1a6
0490
f763
f090
f060
0ecf
0562
0337
0e4f
0b63
f77e
fccd
0fa2
fc6e
0b4d
fac6
0f9d
092d
0e9a
fb96
fd8e
f4c4
f7ad
f805
f761
09f9
fc7b
095f
f159
f5ce
face
f8b4
f51c
09a1
0dfd
018b
fd59
fee5
0e7f
f007
0b05
0801
f464
02c3
f8b7
0974
097e
fe21
0c24
fbe4
0503
f02a
036e
02c9
0624
036f
0642
f8ed
f3e4
fbeb
fa65
063b
fddd
092e
f9fe
f16c
0abc
0469
048e
fb85
0b97
f433
0a51
ffe2
f9cd
0843
0122
f61f
0873
0184
0c31
0076
0508
0a71
f61f
fa82
f38a
f304
0a9a
fe1d
037a
fcff
f4a2
ff2c
f562
09ec
0e40
0163
f090
07ee
09f4
085a
fa3c
fe6d
0549
f882
f8b1
097e
f4e7
0cfc
f3a4
0ce3
f762
05d7
ffd4
f403
0c0c
0885
0ff5
02c7
0c0c
f9b1
0fd4
0d5b
04bc
fdb7
f4fe
fd64
fa15
038c
041c
fb33
f41b
083f
0d13
f2e5
0d17
f8ce
fbe5
0664
f2b9
0fa3
fabe
fd8a
f22b
07b4
0742
fe9e
fd1e
0f54
0e49
0a68
f803
0343
fa6b
09f7
02aa
f52b
f130
012f
fdd5
f445
08ae
0152
f7f4
f361
fd8d
f6e5
05c7
fb79
105f
0b88
fc0c
fc7f
fd9e
ffb5
f3f7
fe53
fd6c
028e
ff8e
f85c
0587
00bd
0e0d
09a2
0cd7
075b
01a9
05f2
ffa2
fe6b
f926
fb14
f0dd
feab
f67e
0019
0ae9
0be0
f7fe
f4b8
0e65
fd68
fc69
09e5
f481
fcba
0be0
0849
0092
0e60
f175
0991
f32a
01fd
0d8b
0753
f949
0a86
f5ee
09be
0013
ef0a
020f
0586
f2f1
f43a
f7e9
0001
0b68
f8e1
01e7
f59d
0344
f34e
fdb6
0166
fefe
03a2
f78e
0f9c
f34e
f71e
f4fc
000e
fa9b
0006
f504
fc9e
f433
0412
0257
054a
024f
f2ff
0590
fa4e
053e
0e6b
0785
02b4
f97d
0d8d
fa77
0ceb
0847
06ce
f963
f60c
0d0f
08a3
fad6
f550
0147
f0b4
054c
f968
0086
f803
f878
07e8
fb5f
0e0b
05c4
fabd
f260
f84a
f4a2
0636
0f4e
04ed
0f25
0f0d
04b7
006b
0fad
f128
084d
0e86
0b44
011b
0187
076f
028b
053c
008f
fc65
02b1
07b3
03e7
faea
0960
ff53
f5e3
06d6
0f57
f513
0037
0303
fa1b
090a
fb6d
fbf3
009d
0570
07d4
fc53
fa2e
0c21
fa95
06cf
0c38
032f
fcb8
f944
0ca7
0c4b
0f42
fdc2
0352
018c
0751
00dd
f913
f4c2
0dad
f2e6
049a
f288
f7e5
0e1c
f658
05d9
f633
f49d
0932
070f
efd8
0f8d
0153
0e6c
fa39
0323
fbc3
1036
0270
f34f
f003
f083
06cf
f2b7
f4c9
f3bf
06b5
0c66
f5b9
f8cc
01ee
f7e2
f127
0c2c
0a57
0768
f96c
fb7d
fd81
f6d3
fec7
f736
fe93
0125
0c15
f94a
0665
012d
fb86
f94b
0fae
0cde
02d7
f63b
f895
f630
f097
04d5
ffa2
f54b
f201
f7f6
0d86
0412
f9ea
0635
0f8c
faa0
f854
f07f
f332
fa1f
fd09
f307
0cee
f352
09b1
f6c7
fcb6
ff8f
0350
00f5
0988
fdd3
ffdc
0b7a
fef5
fb16
0024
0c9a
f7ca
04f0
f052
07a6
f8af
f1bf
fd00
f477
fa25
f614
f76e
06b4
0e00
0332
fc5c
0bf8
f220
fa3d
f353
02ae
04dd
fb96
f928
0359
0495
ffe5
ffa1
f34a
077e
0c0f
054b
0c93
f107
08b0
fcd5
0bda
05d7
0af4
00de
fabd
f15f
07bf
0470
fc1c
0f5b
f24f
f7bc
fd6d
04ce
f12b
02d6
f093
048a
03bf
fdcb
ffc8
0851
f289
065a
0d4c
f192
086e
05f7
0d27
f959
f47a
fc62
f7b5
f9cc
0a42
f3d8
fcca
f368
0842
f788
0b0a
03f9
fb5e
0f98
fe4e
0ee7
ff57
f54f
0937
0120
f933
f5e8
0650
ff22
f492
0012
0d62
0c7d
0239
08c8
fb0c
f498
0b36
f5cc
08f5
f3a2
fc12
f53f
0e06
0384
fab8
0873
f649
03d0
f8a3
0b37
01cd
081a
f350
0c5c
0d2a
fa9a
05c6
0898
fc1f
fd7e
f448
023f
ff84
020c
022f
ff84
fdde
0f8f
02fc
0ba5
fdfd
f6ea
f2b7
fea9
05a3
0ad9
08bc
f11f
0427
f285
f9e0
f004
0435
f7b0
fc11
f88a
f8e5
ff2e
01b0
fc0c
f2dd
f3a8
fd2e
09d8
0c99
0849
f401
fa8e
f100
02c0
f3bb
01ce
0661
03fc
0ba7
f358
f3b1
f548
0242
f81a
f643
f083
f802
012d
fdd9
f419
f94e
0d71
fc01
0d92
0f79
069d
03e2
0194
f93a
0d30
fb03
0eda
fb8e
0956
0cbd
f670
f42e
028b
07fa
08a2
f453
0308
06a1
0b06
f0b5
fbad
0c53
0d83
09be
0a6a
fd4d
fcfa
0708
0789
f963
fb57
f1c7
fa91
fb58
f8f2
fd6a
f240
0cd8
f7cf
0e27
0b28
fc82
0a62
f41c
06bd
09da
0c99
f74c
f54b
fd20
07a8
07c3
fd6a
f497
f1dc
fb14
f2c4
024f
016b
fe25
00f4
f837
0d52
f991
fe68
f571
fead
f8e4
0547
0a66
f4b7
f3be
fead
f08d
00c6
ffc3
0bd0
07c7
0f53
f212
fee7
0142
0478
f662
fe46
0d02
fb61
0d75
f9ac
fb73
0b31
058c
0a1b
03df
f4ec
fcf1
0a60
f6b9
f853
f700
0d78
04cd
0747
fb15
f748
f2b5
0b9b
000b
f5cd
f54d
f3eb
0f6a
05f3
037d
04df
f253
03ec
f3fc
fb95
f6a2
f3c0
0707
f75b
0d7a
011d
05d5
ff4d
0401
f827
f229
04cc
f402
f79e
0c77
0d67
fef8
01c6
0f54
0d4c
f9b4
f17d
012c
08a8
fc72
01f1
fc5f
00f8
