fce2
0d07
0fe0
0288
0b61
0153
fb90
07ab
f186
f8fa
f31a
f4fd
febb
0abf
ff01
03b4
0816
f28c
0f09
05f0
08fd
f7e6
0930
f1d6
fa47
0370
fb99
f749
f027
04f3
086e
006d
f6b7
0b50
f1c5
ff79
f787
f647
0255
f6c8
0203
f0a7
0ab2
09d7
00e5
0780
fc82
f73f
f2c6
ff28
f1d6
f988
fd16
0975
fe6b
f682
ffb9
f9da
0bc4
f133
09b4
0c25
fe39
f2ae
011a
0a69
f766
008e
fbd8
ffa4
f2e2
0676
04c1
0917
f7cc
08cd
fbff
0107
0ab2
07d6
0da9
0ee8
fae8
06df
ffb7
f37a
0924
0aca
073d
f4c8
fd8e
feb9
07fa
f4a0
faee
05ff
f1bf
05ab
04a3
effd
f507
f307
f5a9
fc38
fe86
fa16
f782
0662
f95e
09f6
08ea
0f17
0da7
01fb
f7c3
0eb8
0f57
0ed6
f51c
0ca3
024f
fd61
f238
f117
f4fe
f3fc
08fd
f92d
0668
001d
0630
f1e2
ff4a
f36f
0e57
09c0
f8e8
0855
0f6f
f867
02d4
09f8
ff07
0981
0e25
f9b7
0ddc
00db
f6f1
0f93
095f
0ee2
ffdd
fae3
094e
f0ff
fc3c
f4a3
06f7
f5b2
f4e3
f4de
0e45
f883
fabb
067e
f785
0aca
08e5
fff9
ff0a
0784
0b75
ff27
fe2c
fae0
0ff9
0f90
0df8
f5aa
f2cf
fdbf
03eb
0438
057e
f10b
071a
ffed
f110
0e6f
f050
f05a
0cd4
f0a0
f70b
f010
f4c4
fa45
f34f
094a
022a
0f50
05e5
0d5e
0c22
08c8
ff26
11ab
07ef
fae4
0ed9
f5a1
0c18
07ff
068d
0f1a
0bb6
0d90
0bb6
f98b
f43e
f67b
0452
02be
0033
0dd5
0515
f32a
010a
fb53
0b77
082a
fd76
f620
04bb
fe45
feed
0f98
0211
0341
0cf8
0ad8
f05b
0fe8
09a1
f85e
f78d
fb58
f3b2
0551
010d
04eb
fc8e
06b8
f019
05eb
fc13
09af
f4de
f7ef
0c5d
f6b2
fba8
08b9
0735
0512
f553
fbf3
097b
0e84
f9ff
f593
f253
0f84
ffaa
0698
0972
0a33
0cd4
08ba
0656
0c88
f016
08fb
0655
f3d3
f60c
07d3
f319
0d61
fe14
f23d
0460
fac6
f7ce
0430
02bc
0f51
0967
f9d9
0105
f5e6
fad2
f340
0bba
f1d4
f664
f052
f059
fdc4
0773
f7ac
0751
051d
02d4
fe82
fa50
f443
ed7f
ee37
f7f2
f34a
02a1
0094
02fc
fddd
f72f
f1d4
09ad
0ad3
f7e6
01cc
0385
fff6
f7d9
0b55
0d68
f2b9
0798
f23c
f62f
0c43
0dd1
f678
09da
f74a
09c5
fc58
09be
0025
06e7
00fe
f58f
f635
f58f
011b
fee3
01d0
f7c7
f7e4
01a4
f568
fb36
0996
f670
0486
ffd6
0481
fd57
fc1e
f2a3
fa92
f0b2
f475
f9c4
08f7
f664
eedc
f6e9
fbd3
0de1
07fb
f6e1
00d8
0975
f2ae
f7a0
fae3
f845
084d
fdcb
f962
f417
f786
f51e
fcf7
fd61
09ba
0c23
f6bf
fe9a
fda7
00a1
fce5
07d1
f205
f378
07e6
fe22
fc17
f1f0
f0ae
f2ff
f5e3
f7c0
05be
044d
fc29
01ac
0ad5
fcf4
f7f8
0e1c
0a0c
06ee
fca0
098d
f04b
f327
f1a6
fd12
010b
fd90
033f
f8bf
0778
0100
fc17
0c0d
f4f5
ff4e
09aa
0c8c
fd6a
0ba8
f46f
0faa
ffa0
06fa
044e
f06c
f348
02a2
0222
f90f
f26a
fe5e
007b
fdda
02c6
f0d2
fffd
fc73
ff15
07dc
f3a8
f0f3
f5cd
f58f
f7c4
0b7c
0355
02db
fa70
fb85
0a9f
f056
f3d0
fb86
fe4b
f7cf
0e28
f932
07e3
fd5b
fe29
f63b
fe6d
0d07
f9cb
01c2
fb86
f760
fde7
f282
072a
0697
f8ff
f5de
0cfe
f9e8
fed6
f09e
f9b1
f3cd
ffa9
f293
f448
f8d9
fd1b
f4f4
0ea7
f820
0e46
f46f
f778
0ba4
0f5c
0f20
f85f
09b0
fd98
f2a3
fbe7
f2f3
001a
fe23
095c
0671
f2f0
0518
f7c8
0281
f176
0237
0d66
0583
f6d6
09c2
0e36
f1a7
0163
fe87
0b83
0564
f8df
f996
0172
f9fb
0af1
ff43
09f9
02cc
0407
fe77
006f
0eb0
f088
f7a7
fd2f
f16a
0f8e
f8fe
0a2f
f8d8
0b60
0a1d
0c70
0585
020d
fb74
0a50
f6a9
f93e
0a6d
f9b7
fd15
f2a3
0500
0711
0d0f
f98f
098c
ff3d
081e
f19c
0dd2
045d
f4e7
0ce4
0af1
0bc4
f50a
fe32
06d6
ffce
00a6
f600
fcd4
fd6c
fe8e
f51e
f55c
0901
0e14
f1d7
08c7
0db3
09aa
00ba
0fce
f87d
0ed2
f318
0bee
04f5
fdf6
041d
f8dc
00c2
f3aa
f4e8
f10f
0540
f56a
fe35
f236
1075
03e6
f9a4
0410
02e0
0bdc
0dde
f758
f433
f26f
02e1
0f2d
f827
fe4a
013b
00e1
0af3
0e41
f300
0862
fc4e
f506
fb6b
f295
f6e6
027e
fd81
048f
058b
f8b7
05e0
f429
fc77
f777
fbe9
0e61
fefe
0b5b
f11c
ff00
0b76
031e
098f
0851
f1e0
f0cc
fdae
01b0
06ef
01b5
f23c
f616
06ef
09d8
f9b1
0415
0da9
0434
02a4
0339
0a0d
0c73
f849
f57b
0ca1
fc2b
f0cc
fe2b
05a4
0aaf
0388
0a55
0506
0454
0318
01e6
0793
f869
fc91
f591
fdbc
0e90
0743
fa66
fbd1
0863
f3a4
f15a
098e
f4e4
fcfb
f531
fd07
0ceb
fb94
f373
f196
059c
f07b
03a9
fc79
ff89
f919
08f8
0efe
f1aa
f396
fa6d
fe87
057d
f1f6
fca8
0343
f1a2
f7d3
f8fd
0f5f
f73c
f658
04bb
08ad
fe9c
06c9
f39f
0001
f404
fdaa
ff0d
f41a
f906
fe1b
fe34
f92f
0767
f6f2
f7ec
0cd2
f6e7
f276
01d1
092b
f7cf
fea9
06b6
faa8
ff3c
f7ae
0297
02dd
f639
005c
0066
f108
0b2e
fd5d
02a5
f6ce
