fb12
0834
faa6
0479
f0e6
0344
0c26
05ed
015a
f16b
067b
fc70
0d05
0b0e
0183
f8cc
0c24
0a1d
fac9
fedb
faef
04ff
fa64
08d9
f8d1
0b21
0481
0384
f715
f2a2
fd71
0911
031e
0785
f85b
048d
f1c1
0dfb
fdfa
0a8c
f3c0
0cae
0a1b
05f5
f7e9
f4bd
0971
01be
085b
0d2f
ffcf
049d
08fb
f58d
f1d0
f352
fa17
f17c
fac7
080e
0812
fd3c
f042
0ee3
0bb8
0895
fdb6
023d
030a
f858
fc1a
f2de
0201
062d
f20d
0779
0511
072b
fe5d
f9d4
03ae
0af3
f9f9
0dd1
041f
081e
f99c
059f
03b8
f628
002b
0d76
fc60
f10a
0a84
000e
f572
0cae
03a2
07fa
ff97
047d
f099
f9f1
fd4a
fed7
f065
0520
0e23
0214
fb84
fe47
f701
0cdb
0242
f453
0b20
0bd1
077c
f3ce
049a
0760
0f66
ff6b
f364
ff40
07e3
01e5
feec
f4ee
00db
f6a3
f837
0f68
050c
070e
074c
f518
0116
f44c
08dc
09a9
021a
00c5
0a2c
0ae2
072b
084c
f85b
fa33
f599
f3bf
0c6b
f509
fa49
f67a
f252
00b4
04f0
fb40
ff0f
f816
00aa
f276
02e7
f70d
0a10
0524
0f8b
0e4e
f531
045e
0849
07d3
ff1d
f8b7
f8c7
f426
02d5
f6c2
faf2
f29b
f4bf
f6e6
071b
ff1d
02b9
01d9
0a20
09c3
fc77
0cb5
f686
0d6a
02ec
f039
08af
f027
fd3a
0114
f516
f3e0
08ed
f9c5
0091
0340
f711
fab2
f54a
fdcc
02e1
0929
fa73
fdd2
08c5
04bf
f65e
f935
f00f
f42e
fef5
0583
0453
08bd
f3aa
f5e7
0817
ff12
f05f
fdd0
f223
1034
f1ce
0416
fca3
f161
ffbf
0bf8
f0d2
fc91
f507
0110
0ad6
0910
06e5
ef9e
fe3c
06f6
f364
0b68
f353
0d94
f9aa
0afc
0a73
fbd5
fd9b
f5ea
0742
fb8e
0914
059a
ff8d
fb52
0977
effc
08e1
0b90
02d4
ff19
0a05
0aea
f2a5
f475
000e
f1c6
050b
f8bf
fa30
08f3
f266
0a54
f71c
04a4
0fb5
00de
0411
f275
0475
fac1
0ac7
fe77
f30c
f888
0970
00f1
0643
f942
f984
fbb0
029c
0543
0aa6
f106
fdd6
0aab
0b5d
01c4
02f7
fe92
0c1c
f253
0c0f
fd26
0db2
00fd
fa89
f0b5
03ba
fc02
0425
f0f2
0ae1
0c2a
01b2
052a
fd59
010c
ffbf
04e4
0e1a
ffd6
0eb6
ffb5
ffeb
0495
f664
0a8e
0aee
0c4c
0280
f375
f05e
0238
003a
0eae
0ceb
f6f6
fb31
f5c4
01d4
00cf
0874
0617
004b
fd53
02a8
ff0e
fd08
0b0f
f874
f146
fe3c
f08c
f26d
0389
f981
1023
0097
0615
f10d
f929
f282
04e3
f7d6
fc92
0329
073b
0bfa
f9c8
ff68
f161
f6df
f949
f715
f769
09f8
0862
f1da
f4f8
fad9
fbab
0d23
f240
f40a
0e8d
fffe
0751
0a1f
fbb7
f30d
0362
f637
0dba
09b6
f927
feb2
fe38
f0ce
ff78
0a2b
02e4
f46c
026a
f21c
f468
fa12
f44e
f35b
fe02
f650
fb87
fbbe
0381
fcc9
0ed4
0e8f
036c
f25b
07de
0517
f435
f437
febf
0d87
09f4
ff75
facd
0a52
03ec
f3e9
0b7a
0b9e
05d2
f3bf
fb23
0377
0f7f
04e8
0689
f510
ff74
0718
0041
0dbd
01f0
00e7
0353
0545
ff5e
0952
f452
efa9
0a63
fc63
ef23
0396
0c9a
0307
f7cf
098d
0d5d
033c
f380
0b51
0f1e
0fac
0d9c
03af
fdcc
f43c
f06f
01d0
0a47
06af
fa95
0e36
f33d
f6b9
047a
09ab
05f3
f150
f91f
f4ed
f4b5
0a04
0298
083a
074b
033b
032d
f62b
00f4
093a
f8ae
0d66
fa91
0f04
f9bd
091b
fb9d
f4cd
0072
033a
0b21
0dbc
f402
f37d
0792
0c8e
f7cf
f9b6
0193
0043
06b4
f4df
efd6
f8da
06df
fddf
02ff
032c
fb8b
0add
05f9
ff6c
f9ed
f83d
01ad
0ac2
f104
fa7b
0152
0657
ffbe
fd89
f982
fe14
f10b
0e93
0981
fcf4
0e24
f5f9
0b35
fb5b
0cad
0184
035b
fc69
0541
0e03
018d
f3db
fbc6
ff85
0cbe
ff65
0dad
0177
f4a7
fcf4
08d8
0e3a
fcbd
0c12
0dcf
f339
fc58
0736
070a
ff8e
0af8
fc7a
f3b8
094c
0548
0a1c
05d7
0b71
080f
f070
0184
fd37
fc6b
0991
fbd6
fce7
07f3
fbb1
ffbd
007b
09a9
0106
08c0
00ce
0aeb
042e
f513
f8fc
fc78
0ba6
f694
0481
001f
f731
f723
0087
fa29
029d
0dad
f702
0b37
f735
fdb4
f63e
fded
00db
0832
f177
f034
0606
fbcf
f7c3
0e49
0b23
08dc
0283
0634
071e
f184
0641
05c2
0e37
0029
f30f
0582
0613
f4ee
0122
fa90
064d
02f6
05c3
07a6
076a
0048
038a
0dc8
f0d0
03f4
043d
0897
0529
f1ff
f22b
0941
f175
f9eb
0bfe
faf5
f280
f808
f6eb
0ace
02d1
0cc9
03b3
f61a
fc28
024a
ffc9
f53b
f1ec
0da9
f3e3
f5ba
f24d
039d
fbc9
f252
f0df
f023
0e43
fe45
0e65
0117
ff0d
0753
077a
0860
ffea
f36c
f3fd
f8c2
06eb
0927
f2ab
0b1f
06b0
fc8a
f108
0969
fb67
fe20
f1fe
fe8f
fc68
0269
061d
fc4d
f4e7
0df2
f823
f6ea
06ee
0824
03f0
f5bc
fafc
05c3
ff4d
09e9
f41d
0b63
f6a8
0620
f53d
0bad
f9e7
0d4a
f72f
0ab0
02f6
f701
02b3
0f2e
f0a2
f817
05d1
f85c
0e0f
fcb3
f535
ffdc
0450
f98e
056c
0af3
ffc9
04db
0ead
f4a9
f72d
0c0c
0527
081b
0b95
fe89
0a32
fad4
0dc8
f184
ff7a
ff95
f16c
048d
03fe
0800
0267
06c8
0a8f
04f7
