f039
fffa
0a26
fbc4
0558
fefe
f13b
fa70
fb6a
f765
f10a
0e3e
0c8f
0fad
fdb0
0256
0509
07cd
0a3a
02bd
0906
f751
02cd
0caa
f069
f7d5
f522
f796
fd6c
fb82
09b1
f5c7
09d7
f239
fecb
f86f
fc59
f4ef
f2ad
f1d9
f274
0e8b
f17e
0fa8
0379
f25e
f815
078f
013b
0adf
f325
f37a
0494
f443
097d
fdf1
f7a4
04cd
f80a
08a3
02d1
0f62
f019
f215
0d58
07b0
062f
04c0
fb08
f75b
f29b
059b
0f63
0601
062b
f1c7
06ad
f87b
08f2
fae8
f47d
fec2
f6b0
049d
f262
0fe9
0b50
f728
0fc4
0f7e
0e62
00b4
069d
06ce
0d29
f178
fc70
f384
f68f
f0ac
f364
fd44
f02d
fc03
f887
fe99
0d5c
034a
f1b9
f2ca
0475
fd74
f1d8
0997
f822
f234
f4b8
0dc7
0095
f47f
06fd
f3ef
0a8a
fa59
0da2
07e6
f668
0cbf
03dd
02fc
09be
fe8c
0ddb
f7f0
0c7d
ffba
f51c
fbdb
0d68
0d46
0477
077c
f26a
090a
fae4
fdb4
0361
0396
0b99
0537
fc09
f66e
00b0
ef9e
f03a
f9e2
0cd4
0648
06ad
006e
0ef5
0b84
0f54
0363
fcfa
fbba
f0f3
f8ff
0cef
0d49
fbbd
ff4a
f0b3
01b8
0ae7
0d35
0791
0991
fd8f
0c3a
f1be
0493
0c63
f8bb
f8ec
0db7
0e5f
f287
0ac5
f684
0e63
0569
0d79
0914
0d39
022f
07b6
f9d5
f424
0a84
0dff
fbd6
0f13
0be8
0828
04ec
0524
f79b
0348
05c2
0382
f272
f946
f0e7
fbf4
fb5f
03d6
0388
0898
0d47
f770
f490
f185
fbc7
ff9d
0955
f0d3
0b04
0fe3
06f3
0834
f624
f235
fc2d
fd2a
f56b
03a1
f024
f818
0dba
fa12
efc1
fe8a
028d
f6b8
f278
fee4
0e72
0736
f474
027b
0296
0b03
0490
01b6
061e
fd27
0b5a
fb7f
0726
f4a9
0b16
03c0
fbdd
fc2e
0e75
0f41
f0f7
f6d7
fcb1
0477
f362
0597
f9aa
fe07
0e2b
f3df
f889
0480
0101
0f42
ff7c
0c32
f5dc
f3d4
0c55
fe02
0c4c
fac6
0a66
0b92
fa6e
04dc
f775
f218
0463
f23f
0f4c
fdf9
f474
f826
fbdc
f2bb
fa11
0e1c
f5f2
0f7b
0ad4
fb6b
091e
f25c
f5d0
0416
04f3
f1b0
f0ff
0893
0542
fb77
f219
f563
fb55
f128
02af
f548
f05f
f510
fca6
005a
0c90
f711
07b6
f8b4
f4a3
f6fc
f779
0a2f
f612
0508
0145
fbc0
f0dd
0842
fa96
07ec
ffe2
0e35
0411
f1ea
0293
faf4
f37f
0d0b
0d55
f460
0b69
055d
0c03
0106
f22b
fefe
0cfa
f269
f6b3
0e5e
f8db
0227
0de2
0959
fea6
0bce
fa5d
f614
0da5
0eb8
f447
f90d
0129
fd1f
f60f
fc50
f6f4
fad0
048c
fde1
f9b1
0cf7
07fc
ff15
f069
ffd3
0127
03cd
01c5
0631
ff56
0100
0d9a
fb28
0914
ef80
fd44
038d
094a
0a2c
f830
f702
0e6a
f788
f03e
060a
071b
0883
fce5
0017
effa
f293
f64c
fa86
09ef
059d
f8ce
0fae
f309
0d59
054b
ff5f
f502
f564
0a69
efc7
f79e
f1e9
f8ef
f107
08d9
f271
f475
fee1
fea3
05f5
faae
f886
0a3c
fa4d
099e
fc60
0e10
f465
fab0
0ee3
0f80
03e6
0609
0bd1
008a
02e4
08f6
f8e1
f690
f972
062b
f21d
fdc1
0cd0
0123
fa39
0dd5
01bd
f9cb
0530
fd65
fed4
0cb1
fa29
0e22
ff88
092e
00ae
fdbb
058a
f095
08d5
ff83
0b3d
f86f
f9a2
fbd3
f176
020f
0734
f9fb
04f5
ff52
fd84
07ab
f542
04d0
f62f
0935
0cd1
fed9
f85e
fc6a
f694
f646
0af8
faa5
fe62
0175
f1a4
0ad3
0430
fd8b
0167
090b
fdbb
08b0
f026
f120
feab
0d55
0300
0af6
07a7
f8b1
0a8d
01d7
0214
0b34
0199
03ac
f382
0425
ff69
f688
fe7a
ff38
f302
07ec
055e
096f
0c0c
fb83
f13f
f82f
0e6c
0b83
083f
fc07
f0c4
0ca8
0760
0c4b
f021
068d
0f05
08c9
0168
ff54
f1b6
f80c
0c0e
0ce7
ffa6
f209
04b5
063c
fa75
f8b2
f1f9
f44e
09d2
f40a
0201
087b
f4c8
0d55
f0c5
fb97
075e
f794
fb60
f1b7
f205
fc7c
0dad
0202
fd45
01dc
03c7
014f
0a7c
0de5
0317
0a06
0a87
0b87
fd22
ef9e
030a
f1fe
f0e2
f753
f6df
0b9f
f913
f797
fad7
0e7a
0d2f
062b
f24e
0f02
f693
f51d
f1cf
f112
06b9
05f3
0e31
f356
0ec2
0ec0
f329
0951
fad0
f668
0596
03dd
f65c
fb2b
0664
f55e
fd8a
f7d2
ff84
0c69
f841
fc2d
f315
0ab6
02a9
05e0
f598
081d
0d7d
fcc1
f2de
026a
ff72
fb00
0467
f01f
fef4
0738
fe28
f0c9
f5f2
07d6
013e
f21d
035c
0d15
0d2d
0adb
fd7e
f158
f51d
f6e8
fbf9
0d1b
0687
f9cf
0862
09d1
02a9
f150
f382
f5b2
037c
0c28
f67e
f4a5
0923
f03d
079d
f0c1
0e4e
059f
0bbc
f6b3
09e3
0620
06aa
f7c9
061b
f1fb
0ffd
0279
fa87
07dd
f8e6
fc2f
fa24
f2e4
0039
0467
0d35
f053
f380
f719
0e42
f26e
f49b
0827
0616
f45b
f13d
00b9
0906
ffdd
f4b0
f359
f492
0b8c
0d43
0e23
fcaf
f09d
0b30
0700
0932
faca
0972
fb37
f043
f860
ff15
fa96
f157
0fa2
f03e
fa36
0442
020b
fbca
0c88
fcd1
04ab
058c
0458
fec5
f809
0055
035a
f09b
fbd1
068d
068f
f9c0
0654
03bf
0d35
f5bc
fdb9
0408
0b31
0919
fe1f
f505
01f2
08e7
fcea
fbeb
0ab3
f138
054e
00e3
f88e
01d9
0803
0145
ff6b
