f0d0
08b4
f924
ffdd
0684
0125
f0b1
01c9
0281
fcdf
fb21
0543
0961
f938
f127
0b61
ffe1
f3e5
0132
fa62
047c
ff03
f178
f133
0ba0
f7b9
f238
01d3
026c
0d35
0d1b
0ff4
0849
fdd8
f4bf
018c
07bd
f487
f493
f466
f1c9
f0ec
fd2f
0e16
fc98
fab3
fa4e
059f
06dd
f939
082d
0560
ff2d
feb0
f163
0f20
0d6a
fa1f
f8db
f701
0ca3
f57f
f8a9
0f2b
068d
faa0
07a3
0026
faca
fc71
f240
0488
0b04
0702
0a10
f582
0cc2
f753
fcca
061d
0098
f59c
fd52
ff46
f91c
ff75
f3ca
0e9a
078d
0a9b
08ea
06b7
07f6
06ed
0c8d
017c
03b5
f2f6
f7e7
f6b8
f45c
04c4
f5f3
fd04
ff38
0e6b
0336
0549
f2d5
0f86
090d
01f7
07e8
fa29
f660
f557
090d
fa92
07f7
0426
0d35
001e
068b
0ece
0727
fc6e
efc3
09cf
f85a
f887
f75c
f12c
f724
0699
fe87
ff31
ffe1
f036
0335
01f0
0b8d
fc2a
fe6f
056e
00be
0077
0f11
0bc4
0e0b
0d6b
03d9
fcad
fb54
fb75
066a
f761
084b
00d0
0212
f9fc
fa27
0439
0cd1
0fa8
0e82
fa0e
f638
0f32
fcb9
01dc
f2e1
f478
f4fc
fe42
f94b
04fe
f8e2
f16b
fd42
f43c
0231
f9f7
f1ac
fe03
f9c1
f219
f66d
0a06
f026
0629
f656
0fc1
0930
0584
0b71
f772
0de6
fd5c
0066
f502
043e
013e
f84c
f877
04a5
f4cb
f6d7
f04a
fde6
f608
f2bd
fca8
fe53
f952
f1e1
fe68
0b38
ffc9
fafb
0274
fcdf
0b62
f06e
0e80
0138
05fb
f170
0a98
fb70
05c3
f641
0bb3
016d
f27e
f696
095f
f0dd
f9f9
fadd
ff9c
f92f
0914
09b6
0db4
0b7c
100a
ff65
0942
f2bc
ffdd
f122
fa0f
03b8
0204
0278
f2e3
0f9a
fb73
f57b
0ba8
f3a8
0d15
f442
ff72
0c25
0d01
0522
fab2
0751
0dae
010a
024f
0cad
0e18
fb58
0851
fdff
02b0
f1c7
0261
0ead
0f0d
0d3b
f615
f89a
02e6
0f6a
f1d9
08c9
f3e7
f3bf
fc48
0177
046d
0dc0
0153
f46a
f524
06c8
f4ed
0a4a
f297
086e
fff1
f4eb
fe3c
006b
0884
0f09
02c4
0477
091d
09aa
f87a
ff6c
fa3f
f615
0cd2
f6b2
f571
07ce
f2fe
016b
fe7e
fd07
0c78
0b52
01da
0527
fe65
fa79
0b87
0156
0ff9
fabe
f073
fab3
fcb6
048e
ffd7
f3bf
f67e
fd7a
f906
f94c
f1a3
f9ae
f7b3
094a
fa9d
0cbd
fbe5
f3bc
f84e
ffa8
0640
072a
0203
fc3e
0cab
053d
06d7
0a91
f867
f4cd
f19c
f04e
f87c
f0c9
f3df
080b
f650
fa02
fcfc
08a5
041c
f4ad
f44c
fdfa
0973
0a7f
f6fa
0f56
ff57
012d
09fd
f6dc
fd45
07af
041f
00f4
f591
0d36
04c3
f846
00d4
0232
0f07
feee
f85f
0638
0e48
f769
11ce
fce6
fe91
04b3
0095
fd9f
f5df
0944
06e2
fc71
0649
0d54
0989
f77f
08d7
08f6
f6c0
03a3
f93a
01be
f69f
059d
0def
000a
0c7d
f92f
0d59
0257
0950
f4e2
fc29
f720
f372
f540
07cc
ffdd
fd14
fecc
0c25
fcaf
f89a
f73c
fbe1
f544
06ce
05c0
0964
fb42
f1bf
f5a9
f009
f7f8
f23d
f346
0736
f633
0bf9
07bb
0883
05f4
09a5
0776
1047
fa81
f112
0e2d
f880
01f7
f075
fb5a
0216
00aa
fd03
0f92
034a
f785
f9a6
fd7c
0c88
f646
0eca
ffdd
fd23
0c93
ff37
0d25
f786
07dc
020e
047f
101e
0a2e
0ac6
f0e6
f996
0d1b
0ae0
04ff
04de
fb78
f6fd
fb00
08a0
f48e
f7de
f31f
0f79
0084
0c9d
09d5
0825
fa6f
f110
f9e6
f7ce
ff19
f8e4
f8c7
fe19
0ea9
090b
050b
08ee
ef9f
fdc1
fc1e
009c
0739
03c4
0504
faae
faec
0b1e
fc11
f410
030b
f788
0719
f8c0
fea5
0f6d
f5fb
f3a6
f0e4
035e
ff97
100e
0584
08ed
0d05
08c5
0756
0ec6
fb87
fcdf
096c
02ff
017a
f0c4
f06f
07e8
08c8
f212
f108
06c1
0cfb
f426
09ca
0318
0ef4
f829
fd02
0876
03ee
f5b9
0b7f
007b
fac2
efbf
f1b1
fb11
ff67
0013
f102
fd74
f711
f64d
0387
00d4
0b9a
fdb5
fabb
0196
f833
febf
f494
03fe
fa31
f8fb
f632
f9cc
f976
ffdb
010f
05fc
0653
0c4f
f9af
0ccd
f941
0cb8
0d1c
03a9
f2be
0dc1
00b5
f072
0a5f
efd0
f58b
f1f5
f41a
0aa1
ef0f
ff57
fbd0
faa5
faed
f517
042b
0a36
0268
0c11
0b04
fb69
f825
f558
f8b2
f00c
fabb
f60a
04de
058d
f78c
0a7c
053b
f582
070c
f081
0fa1
fd29
050a
0b82
f087
0d21
fe00
0cf5
fa64
fdde
fa69
09cf
fe5e
013b
03ac
f0a5
01ca
f47e
055d
0ad8
fdfc
0815
09c5
0aa6
0ffe
099b
f87d
f297
f7fc
f4e5
f651
fcb5
f3a3
f617
03e7
093c
fd8d
0b2d
02bc
0b8f
0dd2
f6e2
023a
fbf6
0b5c
0bb6
0f39
05ea
0168
f5dd
099d
04bd
0788
f8ce
f0e3
0619
f8bb
fbb9
f19f
fcd4
f87d
0c4d
00ef
f033
f3cd
f83a
f884
0c45
ff7e
f12b
fed0
0b47
0c2b
fc40
0f78
0c6a
0d30
0d5d
0edc
0f11
f135
f695
f7d5
0816
ff5a
eff5
0e22
f76d
f235
f294
f4b1
05be
fe7e
0166
0291
0574
fe3a
0545
ff68
fedc
fd24
0d3d
fed5
fe5c
088d
fdc9
f341
fe3e
f2ea
0a2f
f27a
f606
f9f8
f00f
f994
0e40
070d
f8f7
f172
f25e
ff17
0a8a
f12d
00d9
ff2b
03c8
f58d
083e
fe94
03e6
0e63
f8dd
