02fd
01cd
0127
fa38
015e
0b47
0d35
f7f0
0ce4
0bd1
0038
f5b1
0299
fa9f
0b9e
03c6
fb01
fbb2
0c91
00d4
06a0
04e7
03d8
0c82
f01e
f299
f55f
040a
078d
0a68
ff25
f8d0
fcbd
f192
fe24
0287
fa90
f20a
0b16
0923
f376
0893
f2ea
0b4a
f498
08c8
0122
04b5
020e
0a46
f9e9
0705
0ed3
f2c8
0a85
f9a8
0169
0ee5
06dd
056f
0b0a
f59c
0473
0fa8
f30e
0a35
0181
fe01
f24c
04a2
0397
fcf3
fccf
0bc9
f568
f626
0867
f07a
fa19
f434
f5b5
f63a
f7ef
0ab5
0bd9
02a0
f880
044a
f58c
fffb
0856
f36c
f5f1
febe
f67f
ffe9
0bcf
0612
0b99
f289
0e0c
0d55
0e61
efcd
01df
0e66
0cb1
0027
0183
fbb2
f3ce
0085
fd7a
04c2
fd63
fc7d
f6a5
0824
0f7c
f483
facf
0434
0fea
f124
f68c
00c9
0eda
fc54
fb26
0a15
0031
0fbe
fc7f
0dd9
f157
f4be
05e2
0311
f757
f2d7
f74f
0d66
f0a7
f9f5
f7e2
0e8e
0c7e
f1e1
fb81
f751
0c8f
0387
0cb4
f4e4
0f64
0ae7
f50d
0688
0ba0
f821
f7c3
0563
0784
0f8f
f83d
0532
f255
fa2f
f121
034a
fe94
fbd4
fec7
f3b1
0df6
0119
ff69
0fce
fa55
10b3
0053
07a9
0295
fcf2
0cf4
038d
0957
fd74
0c66
fea8
f9cb
ff45
0408
00ba
fdb6
f27e
f0a6
04ff
0333
0c79
00c2
0833
030f
0a3e
f4ab
f8d6
0f24
1011
028f
f392
f28c
0dca
f14c
f631
f4cf
f26a
fa21
f336
ff66
fd61
fc4a
0e27
f665
f467
0070
034a
06b9
0f63
0519
0f0a
f58d
0d67
081b
f11b
0c7a
02e3
f41d
0a20
f02d
ffc4
0c60
fb13
0759
0f8e
0591
0422
02c7
fb77
10c9
023c
104b
fbae
0b0c
f03b
f36e
f8f0
0314
0341
046e
fc3a
0c11
f9f6
f855
fb5c
098e
f5ad
08fc
09f5
007c
05b2
ff90
0493
0b8f
f6c6
1037
fcca
0f61
0440
0d0b
0ecf
05d4
fc6d
f882
f99b
f198
052d
f412
f660
f4ca
f2f1
10fb
0735
0ceb
02e5
0bb8
fdfc
021e
082b
f3ac
0c3c
f86b
f810
058d
0881
f5f3
02db
f366
008b
fbce
ffdf
09f0
f6e2
00af
0852
ff2c
0c82
f08e
0a4a
071a
f524
04a2
0878
0b82
fe9a
f63b
f582
f228
05bd
07f9
f7ad
f709
0c8c
f8e7
03c2
fa76
0c40
0384
f8fd
f49e
efdf
0649
07de
fe05
f17b
fb88
f5df
f49f
028d
009a
00b2
f242
f1ec
0aef
0dad
f8d4
f1c2
f73f
03e2
f0f1
0113
06aa
f646
02b3
fb24
fd4a
0d7d
046c
0dc4
f277
0c32
0b5b
fda2
02b8
fc31
0399
102f
fb2b
fc30
0ccc
f886
f32b
063a
05c3
024f
0d73
078c
0bc9
0dae
0153
f83f
0716
0e15
09f5
f8db
f9d3
0fa5
0127
f6ea
f51c
efcf
061e
03e4
060b
fe8d
0e4f
fc3b
058a
fc46
f1c1
fdfb
0213
0cd8
ef28
fec3
03f7
fd8f
0b89
0f00
f958
00ac
0496
07e9
fa41
fca9
03bd
f6f3
08f3
09d5
054b
fb22
fc6e
fedb
fa16
0fb8
0ad2
0e94
f05e
f930
f9de
0af7
fd35
f820
f9ac
0506
f2a9
0c24
ffe7
01b2
fbaf
f542
01ec
016d
f3f1
f241
0565
f155
08a2
04af
fea4
004a
f761
09e0
f550
fb42
0419
f365
f933
0d40
00a4
f440
f811
00fe
06cb
f6d1
f766
fc4c
fa4d
f26b
0630
0ee1
f58e
02cc
f61b
01b3
eeb5
f1a2
f4d9
f27d
0d01
f744
00b0
f181
0102
f0e0
f70e
f5f6
1027
09fb
f6fb
f84a
feff
04b0
f956
0d30
095d
fb17
0e7f
01ca
06fe
ff03
098f
0dee
f780
0d24
0a53
f519
fbe5
03f5
ff49
0feb
f7b5
04f4
f84a
fb8f
0de6
08c6
f293
fdb3
f872
0946
fe63
f5e8
fb43
0d4a
0c76
00b9
f7c7
040f
0f47
0633
f771
f14a
0783
f6d4
f14a
f5d3
020e
07d3
03e3
04d7
0870
0f7e
f518
f87c
fc14
f095
fa3c
09ad
f6d0
033e
f5a0
02ad
0ea9
061c
0090
1109
00d6
f229
ff0a
0d93
f737
f3aa
0619
0271
039a
1158
0478
0f66
fd2a
fff1
0708
0cea
fbce
f0cb
f0f6
05cd
05cf
06b8
0fa0
0c5b
0243
0288
014b
0bb3
0db3
116d
0bd2
fdbd
0c7b
0191
06f4
099d
1070
f259
06a7
f228
02f9
f8d4
f803
0db9
0a8d
01ee
f6e4
f1a7
f2c7
08db
0f28
f120
0557
f720
0628
0f99
f81b
0e11
f823
053c
02c1
0454
0ac7
f5a6
fd21
f253
07c5
0f3f
0459
fd99
0750
f09c
f57b
fc18
fbaf
f8e5
05cc
ffbd
f9bd
0705
0a3d
0e5b
05fe
f4e7
0a0e
0183
f6f1
090b
fe32
094a
088e
fe98
f323
0382
0383
0fa8
0372
0b53
0520
0075
0827
0a54
f5fb
fd16
09e0
0ef1
0043
0059
0a64
08e0
f2d4
fc58
f2cb
01c6
fd9e
fa24
1068
f38c
0f41
04a2
0c99
f8eb
fe28
0f41
0a22
0d97
0a31
f7ea
01a2
fc9f
f624
071e
0a83
0290
0d67
f59c
0580
fa41
f1ac
f576
f65e
fbba
fbfa
f7c4
f6c1
f53d
0daf
f2e1
f347
f1ce
f98d
fba0
f0a3
0523
f4c3
05a4
fc55
0ff3
fbbd
f783
fc6b
045e
fdc3
0ff3
03ef
0e56
0397
0169
0c28
00cc
fb5c
ff7d
fb54
fb5e
0e0f
f1e4
0c66
0f5c
ffb3
0359
fead
f578
fe0e
f80b
fdac
0ea1
f65e
0168
0168
0be0
0a68
01ba
ff61
f5da
fdeb
0b42
f8c9
fb5e
0127
0a28
0158
f4e8
07ca
f177
0eba
f4c6
f853
0bb4
fe22
f03c
f17f
f41a
096e
f406
f33d
0d3a
058f
f6b8
