f40d
ff27
f052
0961
fd1a
f735
0e52
f554
f7e6
0fa3
f97a
0b95
f986
007e
00d8
f15f
f27c
0a1b
f0d0
040a
0d41
f210
0c63
f0b7
0385
0856
00a6
0216
0b03
0828
fee5
f357
f3b8
0d95
0d13
fe95
0eca
0698
fd8f
f886
ff44
0cf2
009a
0db6
f489
f60a
fd84
f6b9
f510
06f9
0a6d
0029
fa56
0210
fb58
055d
0fa6
0b1e
0cbc
05b5
0928
0116
0d40
0b31
01c4
0d4f
05ca
040b
0904
fae1
f9d8
fab6
ff83
f9ec
0605
f7a0
f3f5
08b6
0f1a
02dc
fef9
ffa2
0932
f95f
f11c
0793
f09a
f29c
f94a
0d4e
0474
fd67
0150
00fc
0170
0b7a
ff30
0c3d
fce7
f6fc
0506
0f51
faad
febc
03e6
0107
020b
f76d
fe6e
03fc
fdd1
f8f8
f54c
0544
fde6
fb47
01e6
f77b
f5d0
0ac0
f110
f8cc
f003
f1f1
fb47
fc4b
04cf
fcb6
0142
f280
fbaa
f45b
006a
f361
f19d
00f0
0944
f89f
f34c
ff59
fc69
03c5
f0af
076c
ff30
f36d
fd20
fd7f
018c
0c41
f840
fc5d
0029
0a49
08a0
f1af
f408
0cb7
0867
0c37
f48b
0b90
f6b9
098d
06e4
02e5
0a1d
fe86
f66d
f756
0d93
fc7d
021d
0afd
fc82
070c
f417
005c
0534
fa2a
f064
f068
f35b
0103
f252
fbf2
0698
02c0
eefa
fbbe
0768
f494
f068
fdfb
0cb7
f689
ffb2
0437
f249
f826
f47a
007d
fdac
02c4
098a
0259
09b4
f8ef
fb95
1261
0c8d
1321
fb10
08a0
083c
065f
053d
f566
09e7
075d
083f
0d0f
f70a
0703
fce1
01a4
fb39
fa8a
ffb1
f118
f636
f06a
075c
fe48
06e3
1061
113c
0b86
1298
04db
02bf
055e
fc4b
0a57
f214
f8f6
f31e
0d17
f058
fc10
f98b
00bd
f0a9
fcc9
0af9
f167
f470
f856
0e17
0c82
0717
09fe
03c7
03ef
012f
00f1
fb70
fb0d
058d
0c87
0b08
fa37
0096
07ec
0419
090f
fcba
ff8f
faab
f2e6
0dd8
0437
f6ff
f5dc
f527
0dbb
f6b9
f04b
020a
0664
0e91
f420
f83a
fec4
0914
f34b
0202
f55b
0b81
0932
fc92
0d00
f706
f6e7
0857
0eb0
030c
f17c
0e03
fa31
fa6f
faf0
07ca
07b5
f555
08b7
0add
f324
fbc1
fcfb
0830
eec2
f255
0001
f25f
0424
f95c
049c
f5aa
f366
058e
06aa
058c
08bd
f799
f355
f3a1
f2b8
0bd5
0e2f
0a59
030e
0e38
fdaf
f318
fa96
f60d
f0ff
fcd5
fbb8
f727
0a5e
0765
0e11
0b6b
fa2c
0646
0c6d
f3d5
faa9
f13b
0670
f4e8
0914
0f52
0a17
f9c4
0808
0268
03ea
f4d5
059e
f677
0782
efe7
f0a4
f22e
082d
0f2a
facf
f8af
09a5
f5c7
f9ee
015d
f215
f9f7
fac2
fd79
f4cf
0d93
f77b
f3da
f2e0
0bdb
f88a
fd88
0190
0788
0747
0740
09f7
0c1e
ffe5
0d06
0ec8
f729
032c
0385
01c1
06c1
0d35
0e98
0cee
f2d5
f19f
f5a9
ff61
f625
02bf
0115
01b0
f2a4
fb92
fbda
0623
073e
f8e7
0605
fb53
f2cf
08f1
f70b
f167
0e14
f768
0fe6
0190
f448
0817
025e
f1b0
f1d3
0675
f333
07d2
08aa
0c14
f4ce
fa95
f0e7
f970
0c1a
fb91
f636
f481
01d4
f5e3
0ffe
0d08
fd1e
002e
f4d4
052c
0a80
09fd
07d6
002b
09fc
fbe9
0dac
01c8
0a45
f715
00cb
04bb
f715
f918
040f
0f92
0f56
f298
f66a
f4f8
fe44
f875
f3c3
f271
f1c5
0b51
fa83
0210
fa85
08c0
ff44
f1e8
0327
f347
0711
03d3
f37c
fa35
00bf
09f0
fd31
fb34
0a64
094c
0fbb
0235
fea3
fa32
f2f1
f7a1
029d
f0db
ecb6
ef79
f49b
0c2f
0105
037a
0cdc
f99d
f730
fec5
04ce
f3b9
f9b6
f40f
0925
f593
0bab
fd61
fe5c
f764
fc20
0cce
08c0
fb5a
0676
097e
f90d
02e6
0531
0633
055a
f3c7
ffea
01ae
fdae
ff01
fa46
f063
09e5
091a
f2ec
0dd5
fb74
fa0a
fea5
0c2a
f25b
fc43
0009
f488
0dd6
fe52
ff93
fd6b
f46e
ee13
0621
0b11
f9dd
0510
f12c
0c0c
f657
f373
0c38
fe99
0af8
fcb7
fca0
fdd9
07b8
f68d
fe32
f88e
f979
f7b4
099b
0d57
fbcc
f46f
f9ba
fb12
049e
0636
06a7
050e
0a3c
f759
f35a
fe2b
ff1e
f00a
06af
0932
0c1c
0613
f1d3
f58b
03d2
fd14
0c47
f1c7
0ccd
f7e3
f45f
f107
06fe
0615
06b4
fe87
0258
f007
020e
06db
f393
fb95
fbc5
0679
f4b4
f1bd
f3b7
f7c2
fdf7
06c9
fe4a
fc10
0ddd
0109
f66e
069c
0a50
0abf
029e
0a20
0f3b
f9ee
05ba
05f8
ef52
057c
0624
0b54
f952
0afe
fe86
f3e5
0cc9
0596
0111
f056
00b1
0701
01bb
075d
f91e
f956
06f5
077a
f4ab
f05c
f96a
f3cb
fea3
f8ee
080c
0df2
07fa
07a9
fa12
f6f4
ffce
0ad5
08a7
f102
07dd
05e2
04bc
fac1
f3bb
ff6f
f21d
08b8
0d78
f90f
ffc3
0878
fb79
f4f4
098f
f3f6
09c5
0d9c
0e47
0220
0a99
f800
10e0
0ff5
0e82
06c7
f6ed
0221
0928
f485
079e
f508
0487
f812
0841
03a0
0e59
f8b9
ffc0
02a3
f5e3
0de8
045d
faa8
02e5
f264
f2ac
006f
fb6b
f870
04f5
0514
0b6e
f3d8
0e28
08e0
0245
fc68
06ab
05b8
fdee
f533
f02a
fc18
00bd
fa5e
0e0b
0faf
f9df
f81a
f564
f13f
0029
0c46
037e
f2e8
fa8f
f672
f4ea
fa44
0139
0073
f5a8
0d24
f07d
0125
05d2
01a8
0770
fe35
f20d
f27c
0715
0b06
