01c5
f7b8
fb73
0258
fb6a
f7c1
f5c6
f273
f488
013a
062c
0939
fa4a
f3ca
f279
0e07
fa89
08bb
03d7
fcfa
0bf3
f526
f65f
f4ff
0a53
0465
f439
f369
f979
0f8e
0145
0b26
f398
0a32
fc99
005b
0424
01aa
fe94
f438
0821
f617
054d
0f70
0eb9
06af
0aad
fc7e
fe51
042e
02eb
00d2
0835
0594
fee4
060f
07e5
000a
f1bf
f505
05eb
0de7
0aee
ff3a
00d6
09e2
03fa
049e
fe45
fa16
fd0d
f2c3
079c
f190
f0ba
f7dc
ffc0
02dc
0221
fbba
043e
0aea
0428
fb2d
f3be
03fe
ff92
009e
0644
ff6a
f633
f64d
f875
f344
f10d
09c1
0b39
f6ae
0700
f33c
0e9d
0377
f744
0105
f455
03b7
0818
f173
0d46
0585
f8d1
f0ea
0384
f2b8
fff3
0ac5
0f5c
077e
f187
fbf1
0d0c
fe10
fd53
ff02
0672
058b
0c54
ffa0
efbb
f147
f730
f3f6
fd8f
f828
f9c5
0a8d
febe
0abe
f41b
07d1
fe8f
feca
0788
0581
01ba
f6bb
f55b
fcf0
fc8a
fa06
ff47
0806
f7b3
f83a
01cb
0314
f268
fa10
0943
0396
0016
06e7
0d08
0052
ff89
0a48
0c8e
f70c
0248
f73b
fd55
0cc2
03d4
0077
f239
fd2c
f32c
0f03
f7a0
024f
0272
f282
facb
05e0
ff0b
f641
fd81
06bb
0ebd
fe6b
fba4
0504
04d1
fe74
f192
0732
0fb0
0483
0a80
0414
0c9f
08aa
fbca
fb2f
fd60
094b
0d33
f260
f0c7
0395
f952
035b
eed3
0503
05b9
00bb
0e29
0f0c
0bff
fcbb
01d8
0944
f1d7
f5fc
f4e6
08c0
fe6d
0cab
0c7b
fd35
fce8
0945
eef5
04a0
0a85
0ac4
f117
fa72
f5b5
0433
fc90
09c6
07f9
f552
0efc
f0dd
f9b4
059b
0e49
f437
f33e
020d
fef1
f850
0520
f8d6
ff00
fb7f
faaa
feb5
fa5c
f5fa
0777
f39b
f89c
f4c9
f393
f77f
f885
f4e7
0ee4
0878
0b12
fcc2
f4e4
037f
fa08
fadf
0e68
fcd3
03cf
ffc3
ff9b
0d83
01b2
0e89
0e5d
03e8
ffff
fc32
0196
f4b9
0cba
0407
ee8b
f424
0778
06e3
015a
08f2
067a
f106
f62e
009a
0a9a
f934
031e
0b88
0834
fb0d
0207
f9a0
0533
f739
0706
eee2
060c
0e10
0a05
0306
0d1b
eeac
f2d8
fbdc
02c5
f710
f818
0d91
f710
021b
006f
f470
f3b9
0661
f254
fd1f
097b
0322
0d04
f823
0cb4
fdcc
fa4d
0b1a
07bd
eea1
0408
0832
f394
083a
0dde
fe22
fe93
f77f
016f
fc8f
04a8
0388
fc00
0924
0d24
068d
f55a
f9dd
fe72
ff4b
0c8e
02b1
0a9c
0b65
09f0
01a5
05d2
0d75
0a22
0cab
0bfb
0210
0feb
01ed
0c65
0a27
0205
f8a0
007c
020f
f325
f61f
f6d0
0736
0560
f3cd
06d4
022a
fbad
fdc5
f869
0723
009d
fb65
f98b
088f
0391
f523
f18e
011c
009f
0a93
0d96
f47f
f8c1
f4fb
ef39
fa79
f7a9
f6a8
0dad
fd4b
f134
fc56
f595
f9f4
0e24
0992
f4e6
0169
05cd
0b35
fe10
02b9
f63b
fcf6
f85e
0e93
0b97
099e
0e41
fb1a
f387
f5e4
06ec
0453
fa7a
fac0
0e2a
f185
fb69
f516
0a77
fd56
0b73
00fe
fc33
01dc
f022
0c5b
01a4
f39f
f91b
088f
f173
f299
f9c5
f5e8
0653
f1ff
062b
f839
0755
f135
0407
0041
078a
01db
f4ec
03cf
f2b2
f198
000b
0395
01f9
fe8a
0771
f771
f9cc
f567
0702
1006
f66c
02a7
0192
f4c6
fc20
f75d
f629
028f
f8b0
067b
fb45
f4f0
0272
0cb2
fc87
0900
0bab
0c23
0541
f53c
f71b
fb38
0183
026d
fbb7
0b12
f5a9
0c6c
f791
0ad9
04ce
f7ab
06e7
060b
f6bb
f6f3
000b
0198
02e1
05c2
0c21
0431
0616
f73b
f88b
f78d
0252
f2c1
05a8
091f
f4a2
fb93
fef5
f1c7
0393
02d5
fe66
0d7c
faf2
fb27
03d2
fae6
fff2
0027
0964
09c2
f00c
f4a5
ff19
fad6
f14b
f1b0
0194
05ae
fce7
fa64
f48e
fae9
f7e8
011e
f818
01a6
f25d
ff9c
03fe
fe11
eedd
f06a
fa31
04cf
f537
0451
ff13
0884
fcb6
0e08
ff49
f04e
ffca
07e9
0759
00d2
f222
0391
09b1
f24a
0490
0dc7
0582
f705
fbf9
00e4
fb3b
f060
f9d1
f420
f027
04fa
0189
0e1a
0a9f
fa78
fbf9
f981
f4ea
0a33
ffe0
0f25
f7ac
fafc
0635
f0c5
fad3
f1ef
f53e
0302
04a4
ff8e
f9b6
0dc3
fc2e
ef50
02f2
f56e
0a23
0d00
0696
0a2d
0575
0069
03f6
faa8
f184
f33d
05b0
059f
0e2a
f0b0
f7ba
f572
f02b
fe72
f1f9
1022
fbc3
08ae
0a35
f7eb
0049
f14c
ee9a
0160
0285
f2a5
ff38
f0b8
01e3
0009
fba1
0772
f41c
0850
0b0a
0ea1
08a2
0a9f
f639
008f
f868
0869
f165
fac7
0e21
ffdc
f91f
0625
0734
f120
0697
0495
ff2f
f96f
045d
082a
0a91
080d
0210
f1aa
f8c4
f8ab
fadf
fe30
0283
f44e
0284
ff01
fccd
0cf3
0ebb
f7ff
f8c5
0108
09ca
080c
f0b8
07a8
00eb
f61e
0d85
f978
0171
09b5
f22e
0583
fb40
f217
fff2
020b
07e3
f9f2
f8bf
f620
0ace
f364
0d79
035e
f9a9
fd7e
0c82
f45f
ff28
f45c
ff2d
f913
0d8e
0083
fbcc
0833
0061
fee1
0f25
0235
05e5
f241
0d13
0526
019f
03b2
f571
0d02
0061
f6b5
036c
f832
0359
ff4a
0208
f3a4
fe8f
fdd0
f96c
f51b
f48c
03ae
0520
fb9e
fac6
fa78
f0ab
fa64
00d6
f7b7
043a
08fb
fe69
0282
