0944
f768
ff1f
0e83
0d81
0771
0d34
f183
09d2
ffde
f02f
fdcf
0aac
ffe0
fac1
0c79
f9bd
0f1e
f0ea
fb11
0d49
f8a8
ff0f
0c9b
f9c8
07af
0025
f8dd
f7df
022e
f73a
0858
058d
06b0
0480
01a8
f11a
f9b9
ff17
f0d8
0d93
fa34
08c1
f7b9
04c1
0f85
ff76
0792
ff6f
014e
fb9b
0c77
0b2f
04c9
0faf
f462
08b3
01d6
f5ad
f9a3
ff1c
f2f6
0050
0e59
00c5
f496
faec
fe86
04ef
f7f3
005e
f2a0
047e
f72f
f7cc
f6a0
09b0
0cfe
f3c3
fd52
fe1a
05ca
0756
f159
fb81
f303
078b
0463
0922
0a12
06f2
0799
0f60
0b77
fe12
068d
f94c
fc0a
051b
0ae6
f472
fa1c
04a0
0af8
f2e6
08ab
04f7
08f0
006f
f20b
ff63
feb3
f944
ff14
f869
fe1f
07c5
0dca
0c13
021e
faf5
0e87
f21c
f8f4
0240
fdd4
0db5
0beb
0abf
f223
fdd0
0a99
fd7b
0e33
0855
043c
fe62
f0a4
f6df
073f
fb3d
fba5
004c
f98d
fb56
04f6
f9e8
fb31
0c72
092f
f7f3
0c5f
fcdf
f0a9
f9d1
f710
0f7f
0bfd
f88b
f471
0c19
0bc0
f330
ff2a
fb77
0c6c
0d23
fd20
07c4
0ec2
fb1e
fada
fc68
fbeb
f7dd
f54a
084e
0c74
fb75
0814
044f
f322
f2c3
07c0
f354
fa99
05b7
07a1
ffa4
ff4d
05e9
f533
0a47
00ae
f02b
0ac5
fbc3
f3d4
084a
fd6f
05f8
0f68
fa7b
0728
f5c8
f349
0603
0607
0989
f0c7
08d3
f610
fc67
06bf
fc2b
0ac5
0c1e
0810
067f
f335
ffef
ff87
f21d
f685
f752
08b9
0234
f9ba
f2f5
0660
fff6
016a
f7bf
f0d8
fc2a
fa4c
0432
fabb
fe13
0007
f559
0891
ff11
f86f
f021
f33b
0b80
f86c
02fd
0711
00e1
fc37
030c
0507
f910
f1a8
0119
f84b
031f
ffae
fcf5
f64b
f4d5
fe3f
0d75
fab7
0a8d
f15d
ee2c
0aa1
fa52
ff78
f9d6
050e
0b15
01c7
f333
ffc0
fd9e
05a2
03bc
0b64
fed3
0dfc
0312
0545
fc9d
fc2c
ff63
fd12
f760
f800
f712
03b8
fad0
fe20
f95f
0bb7
fd02
f600
fd7f
0e6d
0834
01c5
fdc6
0c52
f7ad
fa97
0ed9
06c8
f914
f448
feb6
039b
fc3a
f188
0d0f
03df
f517
fa9c
f655
efa6
f073
f31c
ff1d
fd59
f62d
102a
0049
f18d
f67a
0828
0064
fa2f
f96c
f9f3
073e
fa0f
00ad
fc5a
0450
efcf
0ba3
fc7e
f62a
0b98
f810
fadf
01fa
0298
0422
fda6
f7ae
0ffd
0402
fa29
0186
f1bb
0e9c
0a7d
fe5b
f719
f2f1
0a0b
f441
f1f5
fdc9
0161
0260
01ef
0770
0aa7
f442
fca1
004d
0f45
01f4
0db1
0781
0141
f11d
09d1
067f
f7b3
f0cd
020d
0511
f2ec
fb46
0ad0
f275
0d9a
0e4c
0f1b
fb14
f404
ffba
0642
f4c1
0d29
0f00
ffa3
12a4
fc61
0eac
0978
0d9d
f28a
f856
0bac
0936
0e38
f809
0746
efc8
fa94
fab3
fa9f
027d
fd1c
0e32
0477
016e
f33a
0261
01f1
1009
0439
0541
0d8f
fb4c
02af
0032
f34e
0a26
09a7
0b69
f4b1
0531
0312
fd3f
07ea
08f4
05a6
02df
089b
038b
06e0
09ec
f8ad
f391
0265
04b7
0b2e
1017
fb3f
0fc8
04fc
fa95
f7b7
0c9d
0101
f430
10a8
0046
0c79
fce0
0c38
02aa
0966
f840
f608
067e
08ec
0c92
0f53
098f
fc73
f3d2
02f6
0735
0fea
fbaa
0c6d
0caa
0e88
fd3e
0236
ff0d
f2a5
09b7
fa07
00d9
fae5
f9d1
0227
0534
f880
04dc
08f5
fd18
f361
f321
fe01
ff7e
f423
fbd0
0a4a
0c32
f3af
031e
f74e
f756
03bc
f925
f1b7
f589
0e0c
fc00
03fd
02ff
f338
f9e9
f1bc
0e79
fc43
facb
fbc3
0a34
f10c
0d3c
f8b9
ff68
0105
f634
f875
f396
f7c1
00c8
f712
0c0f
0bae
fdc6
0ac4
f081
09f5
faca
f9e1
fc96
f39a
fb6a
0d14
f373
f32a
0190
fa1e
02fc
0961
01cc
0bc3
09d8
0bd9
fec6
fc6a
09e3
fd49
0a41
0900
ffdd
092c
0037
f80e
072e
0273
0d18
f693
fb56
019a
0575
f70a
0835
f2e2
fd9a
0eea
fb0d
0776
02db
f671
048d
0927
fa8a
f8c1
045d
09f4
f9b2
fccf
f185
f105
fd7a
0bca
01a9
ff95
0c8c
0144
f7a8
00e0
fde0
050b
f59f
0fa9
f5c1
fc45
0cbf
ff93
0009
0ab1
f8f8
f87f
0746
03a5
f509
09f9
098d
0f45
f5e4
f7e2
0bb0
0c27
f1bd
f131
ef30
fcca
faf6
08f6
f0e8
0ebc
f175
0dbb
f135
fd3d
0d25
f72d
0e04
fa25
f904
0052
f500
f0db
0c92
f689
0aac
f0b8
f69e
ff49
f634
f24e
05bb
09dc
04b3
07fe
f2c1
0c99
09a0
fb2a
fdd6
fbc1
f7f5
f684
0f41
046c
fcd4
f730
fcf5
0a2c
f78a
02b7
fa45
069b
0d2f
f9ec
0405
f9db
08ff
0cf4
0b16
f280
0538
0af0
0502
0f8c
fcc0
fa32
0d24
09f8
0760
f159
0b72
f40a
f0c4
0378
f308
0871
084d
f06b
068a
0240
f16b
fdc3
08d4
febc
f30e
06bb
f8ea
03fb
0baf
f27e
0850
fc5b
f97e
fb1a
0141
f7aa
0f0f
024a
0532
feb6
fdd7
f032
027a
05dd
f94f
fab5
04be
f00d
f689
f541
00b2
0f11
0436
f290
faa5
0ca7
f620
002f
f034
f10e
04b1
f838
018b
f57b
0b2a
0253
0d7e
f339
064a
0dd2
0095
0c81
f945
07a1
f00f
0b62
f3f6
04c4
fef6
025d
fce0
ffb5
0421
09ab
0e7d
fefc
0271
0a95
fd1c
0597
045e
f184
fead
f97c
089b
f32a
fb37
09f5
