0cae
faef
f7e7
0fc9
f271
fdfb
fbdd
0202
0a64
f113
0f9d
0d45
0cd5
f702
0c17
f6cc
060a
f818
f56f
0583
f8e2
f1fa
f4a9
0fe2
f54c
fcd4
fc99
0191
f6a1
f224
fe6a
ff97
f83b
0d65
ffc7
fa4d
fec1
fb3f
0e46
fcf4
0d85
0f8f
08dd
0ace
0bd0
0291
024b
fd0b
0f91
031e
0d52
025b
0ef9
f875
f42c
05cf
0aaf
0850
faa0
01a7
0dfe
00c9
0e35
0199
05de
006c
08e9
0c4c
fa9f
092b
0fb7
025a
fee5
031c
fa17
fa50
fc3b
f7f8
f495
ffc7
088f
09f4
01c0
fae7
f771
f279
05c4
015e
ff01
015b
0e7b
f73f
0ecf
fd77
f419
0357
f53e
fd62
0099
00f5
feb5
01eb
f688
f407
f444
0fd4
05ca
0080
fe37
0c5a
ff04
0b79
0a64
fe5c
0a28
01e8
fbb1
f0bb
f961
0ada
0f65
0f57
ff2f
f5d0
f93e
f40a
f898
f7a6
0d4f
00fc
f94e
ffd7
04db
06f5
f691
054a
0ae6
0a78
f16d
0f2f
0216
f608
028f
0e63
fcec
0402
f4a3
f79d
fa0d
ffef
fb4a
04e8
f2f6
f4ad
0a32
ffe6
fdf9
f87b
f31b
fffe
f595
f0ea
0deb
fe9e
0d6b
0d27
fad3
f8ae
0658
0470
0a9f
0ca1
0668
f838
fb02
07a5
0a41
f6d8
f9b8
f636
f02e
fa98
0467
04f9
f132
0ad7
011b
09aa
ffaf
02b1
00ce
07df
fa9a
f9fe
0157
0ac3
0447
f207
f51b
f8d3
ffaf
08cb
fa4a
fedf
ff1e
05f5
0443
f727
f73c
0da4
f684
f88d
09b0
0bb4
0718
f144
fd39
f6c4
0b0b
f367
0938
0723
047c
fecf
0d24
04ed
f3c7
f8d1
0600
fd60
fef2
fe88
f41d
0342
f910
06ef
f1cd
089d
f5cc
f8c7
f802
f34e
f6ea
0df1
07fa
fcbe
0ae9
003c
fe3c
00a8
f930
0c49
f9fb
ff68
f641
fe1a
f808
f303
06b4
f7f0
096a
fc3c
0a42
fddd
fa8b
f75f
f05e
0407
0e09
0c17
fcdd
eff8
f15b
ffc1
0a60
f665
0f46
fba4
fd40
0ee1
fd7d
0ecf
f94c
09de
f5c4
0fa2
0179
0604
fdbb
f814
008d
fd29
059c
08f9
fd03
00c4
02dd
f234
fc7e
02cd
023b
0dfd
fce9
fda1
f4cb
f264
f884
0d88
f30d
021a
0046
01f5
f743
0a3d
fea8
f3e0
f100
f26e
0e5f
fb8b
f1cb
0c71
f54d
f458
0819
086c
0d16
f327
f130
fbef
0398
040c
0da7
03b0
08ab
0034
0381
091b
f3cf
f229
f362
0458
027e
04a5
f341
ff1c
0b2c
faa6
04fe
03a8
f3cb
f377
f4dd
f737
f72e
fe15
f077
0d24
f0c4
0d9b
07bd
f2d8
0559
f990
fb81
f5be
0b28
fbae
029a
0a2f
f1f0
f2e6
0b23
f9bc
f43e
fc83
f9f9
0879
f500
0aa7
0409
0c33
097c
06c7
fb4f
f82b
f784
0f86
013c
0f3b
fa3b
006c
f07c
f2c5
f0f7
f8e1
0b30
fc50
f1b2
0288
0243
f31a
f137
0cfd
f6bd
f16b
fb3d
f314
046b
fedb
03e6
0c44
fcf2
0dde
f35a
f75d
051f
0525
fa8e
f29d
f925
0267
f398
f96d
0933
f123
f8d4
0e21
fc3d
0910
fdc1
ffc6
07f4
f7c4
0193
0709
f334
0108
f7e9
f42f
05b3
fa35
f8c3
0015
05c2
f2ee
fe4f
fe0d
02e8
074f
0301
f145
f97b
f393
0933
f734
0b40
f56e
fa34
fd81
0da8
0e8e
f68a
0047
0742
0095
0064
093e
0a44
0b52
fc70
fb18
0625
0833
ff3b
0f03
04bd
0754
02de
fc86
085f
f62b
0985
0941
fd2b
0515
fcd1
fe3f
0f37
0775
f96b
0d71
f201
0572
f869
f090
031d
0d2b
f525
0dfb
f128
f88e
0353
f97d
f143
0fb6
0c63
0bbc
faef
fd17
07f8
f856
0e58
0aeb
f47c
0c92
0d67
f3b7
f673
f83b
01bb
069e
0956
0839
0e2c
084d
0184
06ec
099f
0542
fac1
faa5
0ed3
07db
0247
0363
0fb9
02ed
f4e6
f165
f5f0
fc24
f3f5
f506
f11e
02b4
0894
f527
0772
f660
f640
f4cf
f83c
0cb4
07a3
fac9
0a9c
0c9c
011b
085a
f1d8
fa33
f69a
f8bd
f097
f960
08b1
0397
f08a
0694
fafc
f678
0115
0f39
03fb
f81d
0d03
03e6
fe7e
0ec7
075d
0775
0c33
0a0d
062f
f300
024f
fcce
0ea8
f57b
0b1a
f971
ff8c
f604
08cd
0741
f596
f199
f4bb
0152
f1e6
efbb
05da
0699
efa3
f5e8
fb46
0211
fb7d
06a5
f9aa
f011
fd77
f282
037b
0ad6
fd86
f661
f80a
07a8
fe58
073d
fd17
09d4
023e
005e
0c05
088d
fb79
06d8
082c
fd25
0352
0aa9
fca1
02b2
fd82
0518
04f8
0797
f899
0e0b
07b8
064b
08c5
07fd
f1fa
06d8
f094
f30f
07cb
f44f
fcea
0197
0355
0743
09f9
f6a4
033a
025e
f4b4
f073
0b1d
f737
f808
fc22
f578
06c9
fc31
0969
0ab9
f320
f6f5
078f
ffbe
00f6
02a2
0db8
087f
f6bb
0f5a
f662
0823
fa4b
00d6
faa8
0eb0
f7d3
0e4d
f493
f4b8
f3b4
f225
00ee
f429
02fa
0dcb
094b
07ee
fe8b
0984
0514
f5ec
fae0
07ef
0f20
076e
fab2
f45c
0c16
f42b
f815
fe35
fa1a
ffab
fde3
f76e
fdd9
0623
05f8
0d0b
f895
f63b
f644
0228
f223
0dfa
f639
04fa
fe7b
f10d
088b
f427
fea8
f347
0d81
f3aa
0f90
ff3d
f469
0c7f
fa1c
0e88
f18c
0624
089f
0871
0843
f83e
ffc0
0fb9
0946
f87c
01d4
0031
f92f
0db4
fb99
f85a
01da
008c
fa32
0f9f
f3eb
f12d
05a2
0ff0
fc4c
fb56
0bd2
f830
00ac
0437
f2d8
0d26
0658
0659
fa43
0466
0c9d
0bf5
0d35
044a
f8cb
