faa1
0ccb
0734
0fa6
fe54
047a
fa49
fba0
07a1
f59b
02b2
0a4a
032d
f35c
f3e5
fabe
05ce
f63d
0514
f69e
f321
02f9
f13a
f7f0
0487
04a3
09e6
0c43
0d63
fef1
f926
fbf8
02b3
0add
02d1
05a3
04ba
fdea
fe5c
04d1
0570
0231
f9c1
fbae
fab3
06b7
fdef
f6e3
f0a2
f145
016f
05ed
fc73
fb53
fd1b
fc85
f690
010b
f2d4
08a5
015c
0463
0e65
f352
061f
f3aa
f60d
fdc0
02ba
f6b7
f699
0e6f
f418
f5e0
0f44
0e8e
0031
0411
073c
0320
0142
f3a0
f6c5
0be2
f522
fd45
f065
066e
0d23
08d2
0bac
fa97
fd8d
0747
0adb
0a49
fcf8
009b
f207
f350
fa4a
03b0
f8fe
0f1a
fc27
f790
05db
0829
f7fb
fc0c
05f0
0598
0304
f786
f57e
fe83
0867
070b
07ea
f5e2
0a59
0f63
1055
f31a
ff27
fe60
f1f0
f16c
01ea
f29c
f6c4
f5e9
faa8
0bcd
021a
fa61
032e
f3ba
f4f1
ff03
f169
f818
fc32
07b2
06e2
06c1
fd07
f5ad
fabc
fb85
f90f
0813
0c0d
0bab
fff1
01a3
0a9c
003d
f131
f31f
fff9
0108
0238
0e36
fc22
0dd8
fe10
0b2e
0361
f3d0
0b87
04c3
fdac
f141
f864
0074
0ca5
0dc7
fc26
f526
0e43
08d6
0e35
f8fc
fd10
00c4
105e
f9cb
f71c
04ec
f768
06bf
f6c0
0084
00c7
0cd2
f596
03bb
03ab
f0db
f0bf
feb7
f51b
fea1
0cb2
00d9
0ab4
fcac
0ed2
0bdc
0e52
f57d
0b35
037c
ffae
f93d
f980
f418
f15d
fb41
fc23
f32e
f2bc
fd33
f69a
f212
f4f4
f584
00ec
0b03
f71d
fe7d
ffa4
f3c9
113b
0d84
f9de
085c
fd2a
02fd
f84a
00a1
fa16
088d
f5f9
f565
f530
fd0f
effc
0642
0781
03c1
0fc9
fc18
0f4c
0c42
05a8
f302
0454
0fb2
0bb3
f766
fd44
04ab
f796
0cd1
0cff
0a81
09a6
0b7f
0605
059b
1116
10ba
f7cd
f9e5
f9a4
f5b4
f4c1
01c5
fa48
f612
fb46
f2fc
0701
fa87
fc6e
0cd5
f17e
fc02
f568
f680
f529
f2df
ff27
f406
f361
f74a
fc5e
f3d3
f773
fd69
fb20
f436
f7fa
07dd
095b
03b1
f300
07de
0c11
ff59
fe9c
00f5
0fd2
efb1
f13a
f503
0721
00d2
0064
f930
fa52
fae9
019d
0b18
fe7c
08ac
fc68
f1e3
04da
fcf8
0bcf
0ce3
0ff8
f790
f61a
f043
00fd
0821
f572
fa15
f0b0
0934
0a28
fb58
093f
0751
f027
f631
0734
fb38
f536
fb48
0253
0661
0ff4
f996
06c0
fa8f
f36e
fe14
0346
0098
fbb7
08f3
0d72
f29b
f6be
f6c1
fd85
f68d
0304
f9a4
ee4b
ee9d
f14a
093a
fe07
0128
0564
0577
0499
0518
f346
09ba
07d2
fdd4
0400
0a32
f11d
fccf
fca5
f48d
f57a
f6fd
f742
fac6
f9f8
021a
02e4
f525
0d13
09ee
08be
05d3
fdf1
0be2
001c
f963
f3c6
f3f3
00e9
0482
09be
f9ef
fd0f
08b7
0904
07f5
0da1
f399
0ab2
089b
0cab
f64b
ff3b
0a23
0193
0c19
f40f
0ad0
0c2a
fc51
fad4
0672
f4d2
f0da
f3d5
0097
f6e7
008c
0154
0e46
03b0
f522
f79e
fe2f
03e2
04ce
0818
0365
f52d
fad3
f357
0d1f
0248
0340
038a
fed9
1165
0fdf
003a
0423
068f
0063
f1b0
0ba9
f594
f565
0514
0156
fb5f
0548
023f
f5a7
0bfc
0520
f884
fa28
fb3c
f68d
0ea6
040f
f18f
09d4
fbe2
07f8
0b9c
0f07
f391
0a26
fca3
fc63
0a74
f62d
0b9f
082c
f805
f6c2
057f
f7a9
f84d
011a
f876
03b3
0128
f7ab
f6ab
0d3d
ff8c
ff56
fe75
f55c
0c22
0ab3
faf9
fa5f
fa7d
0349
f628
095b
0610
f7a8
0b61
0729
f29d
028a
06a2
fb2a
0efc
ff41
f946
fb2a
014c
0f75
006d
0e93
0423
0856
10f0
fcc9
10d0
f929
1174
09c2
06a2
068a
ff6a
05dd
01d2
f4ea
f836
f371
0b16
0426
0ce3
049a
05f5
071e
0408
f7d0
fda0
0cec
025f
fd76
fcd3
fd53
00b3
f33c
fea0
0033
ff45
f962
01ca
0b8d
0b60
fa9f
0b20
f289
04bb
0bd9
0dd8
ff9a
0c39
0877
02c0
fe1d
fee9
07af
f128
f097
f23d
f694
f67f
fa0f
fa75
0888
00f0
fc33
f17d
fa83
037a
f78a
03e8
072b
fa6f
faff
0aed
fb60
0843
0a24
f861
fa33
f63c
0a88
0c03
f534
f0bd
f464
f9cd
0004
f5c3
0ec8
f821
0f7f
0fcc
0094
ffe4
f977
f9dc
016a
fc01
fec1
0dea
08eb
03df
f8df
f8fc
03d4
ff68
023e
fba0
fd68
0ca8
0e6d
f683
08ee
f6ba
f917
0c19
0edb
02f5
0dcf
0da1
0918
06bd
f12b
f384
060e
fa8c
f1b6
0a2c
0678
fc35
0498
0a68
fcd4
0ad3
f5c0
0d4c
f5f8
f352
0b70
0aad
f7a2
0b7d
0329
f611
08c5
f9b1
0d3f
0d47
ffeb
0266
001d
f5fb
10b8
0e84
f704
00db
0fb2
008c
f6f2
0dfa
fd2e
f199
043c
f822
f7b9
f9c8
fe84
0e1a
ffa6
f751
0f95
03fe
0475
f82b
f5dd
f061
0625
f6ef
f16c
fc53
0b76
fca6
01ae
f47b
082c
f51f
0217
0e98
f414
f366
0443
0c51
fc7b
0da4
f5bf
fb44
f800
002b
ffb4
f814
0a95
0d21
f680
fd95
084a
fc7d
065f
f6d9
fd83
0711
f304
ff5b
067e
03f0
fcfe
0bfa
0567
fa88
0a42
fd45
05cb
f525
ff46
05cf
068d
f002
fab0
078a
013e
0515
fef4
07ee
0bf2
0e9c
0a15
f5b8
fa2d
f087
032d
f0c3
023b
015d
fd0d
f456
f00a
0270
fdba
f466
0553
