0f36
faa9
f53b
0cc1
0fab
ffde
fb47
0673
fe18
f38b
02ab
0ae7
f8cf
f234
08ad
040e
010d
fee1
ffaa
0bc6
0da2
f9cd
f77b
011d
f8bb
0ce3
0932
fda0
0110
049c
f696
f3ff
ffa8
fd28
042a
fd57
fab5
f1bc
067f
0524
f800
f2fb
0e3d
0f59
fe68
fd89
02d5
00da
fef2
04d8
0710
f423
0664
f730
07fc
084c
00b8
09b5
f187
ff6a
f0a0
0f31
f062
f073
0680
0e34
04b6
f6d8
03c6
0025
0236
faf2
00fc
fad1
fea2
fe18
0104
024e
f76f
f557
023d
f2d0
f4e6
07d9
0366
0d61
fad3
0c37
0be6
f3f6
f889
ffa8
0eaa
0b6b
0891
02b9
f593
fb05
f12d
fb7f
ff4e
0070
fad7
fdf0
f948
f0ba
fa20
041d
f920
04a0
f355
fd41
f9e5
01a9
ff14
f57a
fdba
0fae
09a9
f950
f47f
0ded
f797
0487
f355
ff06
0078
093b
08eb
fb41
fd9f
f08f
f96c
0dd0
f0c1
fb81
f38b
f13f
084b
0706
f3cd
079c
fd5f
0e21
f14a
0e6d
f5a5
0573
eee9
0938
06d7
0cbe
0c6c
fc55
fd3f
f8da
0743
f56c
0dbb
0091
0ad1
0071
0000
f3d8
f110
0e7e
f73d
0594
fd1f
0b96
fe7a
f0bc
fccf
0ad5
f535
ef13
f15c
ff02
0cef
009e
f6b0
fe1f
0328
0d5d
fabf
04cc
035d
f128
0b4d
0ee7
f7dc
0584
0813
00f1
f9a7
02fb
fee6
08f3
f410
f2d0
fb7f
f988
ff10
f546
03cd
f6a2
f866
fb8b
f8aa
fbaa
0ce8
fd54
fb15
0508
fa8f
0b33
0719
071d
f370
0a42
0e50
f5ae
fea9
f268
0ecf
fd24
0b57
0428
f7fc
06fc
0ec0
f3de
f6f6
0f17
f4f6
0f5d
fbfa
0cda
0687
fab2
04b9
f0d4
f6ae
0c00
09cf
0372
f675
0c14
0929
f88f
02eb
f06e
053c
f618
f427
f420
f76c
0679
f4ce
f5cf
f4c2
0963
f733
074e
1301
f594
fe42
f99a
0679
fe8c
f042
095a
f950
0a69
fd66
fad7
ff76
fa45
fa90
f69a
fc55
0c03
0d8e
0aec
f8b9
fa55
049f
0b5b
104e
f958
0699
fff0
016d
f3ff
0b93
05f7
0ac1
0362
09c6
f073
0aec
f2ee
0cf5
fa1d
f172
faa6
f377
fa27
f722
0a64
ffd6
0d78
f863
008e
f6e2
f366
06be
fa5d
00e8
f7e6
07b4
06c9
fc77
f427
ffc2
f9e1
f1c9
ffc7
f75a
0618
08e0
07b2
038a
fecf
0564
f1d7
f2f7
f546
fffa
fa3a
0744
f2a8
0f5d
0306
0472
0734
f3a4
efcf
0938
1041
05b2
fdaa
0ab7
fc51
fc16
fde0
ff21
053f
01d5
fbd2
0411
f7bf
f94a
0c53
0413
08cc
f4b4
f3ca
03e0
f7b4
fbd9
f8c7
02ba
06af
fb38
04ca
f882
149e
0ba0
0693
f8ea
0ac2
0d66
013c
fa30
effa
f55f
fda1
f18d
0523
0dd2
feeb
0bd5
022c
0e72
fcb4
0860
0770
f7b5
f4ed
00b1
fd46
ffbc
fa78
06f0
1583
083c
0e55
092c
0b75
fdfa
f386
0857
f320
0113
fa0c
f059
f6eb
033b
f08c
074b
fd3b
01f6
0d62
06f0
0999
f2bb
07ac
ec39
ffb3
0688
f12b
f9b9
076f
115a
febf
0c12
04b8
f7e6
f71e
05d6
fb4c
f04e
023f
0c2e
0f5b
f9e2
fcb7
f2c6
0d34
f5c8
04a8
0f68
f06c
07fe
efad
ff51
0b5a
029a
0c72
0d92
01e9
0d81
f9aa
03d8
ecd3
02b3
040d
fbfb
f668
f6d8
0959
f64f
04b9
fe7f
0ae7
03c4
fd06
f68b
ffe5
0866
072d
06f4
0420
08c9
fa4e
043e
f8eb
fbbf
017f
0a9d
09e4
01d5
ffaf
024b
07d9
f425
ffbe
0bea
09b2
0b05
0294
0ac6
05ff
fc0e
f1c8
f4e6
ff55
fbc2
f099
018f
005e
0110
fb4e
0914
f8bb
1091
fd7a
034b
fef2
0858
09ee
f86d
fa75
068d
f360
fc43
0a36
fa92
f34b
f5e1
f126
0265
0ef5
f1cc
fe32
f9ac
fdba
02b3
fca8
0075
010a
0d4a
f5c5
f701
f760
0269
f5ff
f218
f88a
0e45
0883
ff5a
0526
fab6
0533
0706
0758
0789
0418
fa5f
0ccb
0b29
05d0
0559
f8ef
0f13
03ee
0c62
01fd
02b3
f70a
0cee
f4f8
0e3c
0ed9
f653
fd00
0269
ff69
f4ab
f60d
fd43
f23e
f165
04de
0a13
f7dc
0a4f
0c60
0313
031e
0041
0608
0394
043f
0c73
0806
fea9
fc83
0035
fc67
f69c
f4d6
08d5
f97b
04c5
fc3d
fc28
ff68
f339
0bed
ff29
fb9c
0109
fbdb
0cac
fa04
f7b2
f3f2
0c6a
ff46
fd54
f9bd
f4d7
f73b
fb53
ffb7
0a1b
0f21
0d01
0304
0933
08b3
0dc8
fd5e
f60e
faa7
06b1
fd5a
f329
f05c
05fd
0400
062b
072b
fad6
07c5
f4ff
0d7e
f705
04be
019d
f98c
fc63
0639
0883
0bf9
04ad
020e
037a
fb4a
f47c
0fe3
fad7
f6a1
0ece
f90f
00fe
f396
f205
f276
fa0b
f646
0e1b
06ba
02ad
ef9e
f779
fae4
00f1
f777
f384
0f01
f446
1069
fdcf
0314
0dea
fd83
1127
ff3a
0d67
f444
f303
081d
0742
017f
f366
f75b
05d1
0207
f872
fb76
f801
06bf
0921
fe20
f6d6
f960
0766
0263
02e3
014c
00b8
0d71
0042
047b
0d4d
0985
07a4
0005
047a
0110
0adb
0906
f2fc
fbb4
069e
0a5a
fff5
f23b
f71f
0e48
0976
05e6
0e58
f228
f72e
f354
0b14
fe18
fd10
0845
03d9
f6c1
f39a
fd04
0e5f
0219
05de
04e4
fae5
f00d
066e
f7b5
fd49
f229
f2af
0da8
062f
027f
f1e2
f441
ffa5
f3a7
fef5
05bd
fff3
08d8
fe6a
ff4b
012a
f6b1
f0dc
0865
f862
0bd5
0020
f950
0f98
0f91
ff5e
07cb
