0950
f3d8
0130
0cc8
0524
081b
fd72
07ed
f577
fbc2
f394
00cf
fca2
f2b1
f45f
0992
eed3
09e0
f890
0636
0685
f8ec
0a7a
f9c7
08db
f32d
04ec
ff96
fa59
0791
0805
013a
f8c0
08bb
f5e5
f9af
02d4
fd9c
f86f
f360
f3a5
00a2
fe28
f5a2
f3cc
f5c3
0b35
f8a5
fec3
0e82
067c
000d
e975
0050
041d
f676
f9de
0209
05fb
0906
05ef
f9ad
f2b2
03f0
