0c47
f352
0dab
fb30
068a
f12e
f797
fa86
0f23
0b2a
0612
fced
f195
01c0
0c63
f073
018a
03c1
06d0
0f85
f7cc
fd1b
f381
08f6
f90b
0d20
0f9d
0ad3
fabf
0afd
f9bf
fa77
0288
fdcc
f4ae
0c63
ff39
0186
09be
fe0e
f8b5
fbe6
f905
f60d
0166
0ddf
ff2f
015f
f3cc
0a99
0555
f827
fc44
0171
0724
012a
fe85
078d
f3e2
f840
f1d9
f5f0
f9f9
00e7
0878
f91b
f937
090b
0d1b
011d
0af7
0748
04d0
f1be
ffeb
ff08
0cdb
f038
f2f7
0bee
0d52
0f2c
0b3b
07fd
08c4
0c57
fcb7
f56a
f427
00f9
f165
fc82
0572
06ad
fa2e
0902
08fd
f1e0
0e01
030b
efaf
05a4
0c6f
fff3
0e92
0181
0cbe
0d8e
0d03
f403
fec3
0413
f938
fa41
f378
f929
017f
fee6
f838
0b28
09f7
f67e
fb0b
03c2
f93d
f074
f9d0
f585
f10f
f600
f7bf
0a90
fbb0
fd09
faa6
0cda
f244
f713
01c9
0896
0924
f348
0504
0b7a
03fc
f1b6
faa3
faca
06b5
f0bd
0498
f491
0b16
0963
f24a
0ba0
0bff
f532
f3d0
0438
f96e
f88b
fafc
fb31
089a
00e0
0da9
03ee
0032
fa2b
017c
fd53
07e3
0e9c
f6ef
08d3
0e9f
f498
f707
f58b
0544
fe7e
091e
053c
f4c0
01c5
0eeb
f6ad
fe3a
0e9f
06e2
00e4
03b9
fa2a
f310
faec
fd17
fd44
fd53
f544
000d
ffa4
fd7e
fb70
0546
0ce6
05d0
007a
035b
05ca
0388
f11f
fd5d
f6cd
f6c0
ff4c
f360
f03d
0164
03e0
fd35
f73b
0737
0f81
fc82
fa40
0906
0cc6
f5ec
fcf1
0d74
ff6c
0d76
f161
0e20
f3e9
f118
f4cf
ff1b
f61f
09b0
f7a8
0638
0c7b
0285
08d4
0f24
02f9
f96d
05fe
06dc
0b61
f097
f352
f13c
03e4
f834
f241
f255
f10d
f515
0734
06c8
0a57
07ee
fcee
fa7b
02ee
0456
0e77
04c6
fd6d
f0e9
0ed9
0ac1
086d
0c5c
ffad
fe30
0d9d
0772
0c0f
f42b
f419
ff55
0b45
0602
0ff6
0350
0d89
f4ff
0172
1117
05b0
1389
f7f6
f955
ff58
0cbd
0906
fda2
f2ab
0dbe
027a
0411
0bf5
f9eb
f7a0
f014
0279
0302
0ee8
fed9
faed
0df0
f19b
fc3e
0b9b
0b41
fa5f
1019
0b56
024e
00a0
056c
fc46
f379
0852
f567
f58b
00fe
0e9e
02b2
f790
fe0f
0574
0e84
f723
fa87
f2b6
fb77
0d0a
09d8
fd4f
088b
089b
f3d6
09cf
f74d
0753
0adb
f205
f7f6
08f5
0cfb
04c0
0c95
04a6
fe15
f3d6
fb19
f2ab
f02f
0717
fe07
f61b
0a7b
fb34
f195
fa72
00a8
f2bd
fe63
0d19
f4b7
f954
0aef
f849
ffc7
076f
07b5
f83d
0d0a
0452
029b
f23a
f8d6
fc39
f736
0cde
f13b
0b40
f2e7
febe
0e41
fe54
fcda
050e
f25a
06a0
ffbf
fc8a
f644
f209
fa84
0476
08a2
0c06
f5cf
fe93
0b71
0544
00d4
0ef9
f975
f99d
faee
05e0
02e0
0095
0985
09a6
fb96
0ad6
fd7a
0471
0a8b
f89c
00de
f701
fbfb
04c6
ff61
0bae
0aab
f84a
f3b8
f014
f24e
f575
f0b9
f0c6
fa3b
fa9a
f958
0021
0901
fc59
0960
0972
07f5
f04f
04f0
0d4c
0642
0328
fed5
0058
f2bf
0bdf
05d5
fba8
f1a5
08db
06a9
f366
fa22
0dad
06c7
016f
f5a6
fd24
0b80
0be1
f071
086f
f4d4
f7a8
0bce
f65d
f176
0a24
fea9
01e1
04a1
fafe
f754
f69a
f9bd
0575
ff41
fa8e
00bb
0a75
10bb
fc9a
070c
0c7b
f200
08e7
ff22
f512
fe84
0924
f377
f43e
0a60
0f48
0380
f69c
0a9a
0876
03e6
0266
fba8
f891
0a93
f823
08bd
fad6
f13c
0a26
f180
0a44
0db8
effe
ffd1
f900
f9a1
ffcd
f419
f481
fced
f90e
fc47
00d8
050e
0246
f4f3
01da
08f7
0340
0beb
f092
008a
00f7
f2aa
ffc5
fd64
f48b
05dd
f4db
0df0
028e
0a16
f4aa
facd
f933
f5ad
09f0
f24a
06a4
f407
0bd4
ff03
027c
f311
f7ef
f1a0
07d7
f03c
0a57
f54e
f9fc
0ec8
01b4
02d7
05c1
009a
0870
fcab
f633
0c89
0c68
fb92
0401
0af6
f07c
0dac
feb0
fc63
0210
f60c
fb4b
febd
0810
fca2
fd17
f38f
04cf
0b97
f7fe
0e35
f256
08d1
f4c2
fd62
0d2d
f5e6
045a
f133
fc08
fc74
f046
0185
f574
0e0d
f695
fe3f
0180
f78c
ff1d
0c7f
f32f
0cff
0acb
f042
f675
09d4
05ea
f3a2
09e0
f154
fa57
f675
000d
01c7
0a53
0d38
09ea
07ca
0265
001a
f61e
ff10
fbf6
0238
0e46
0bcd
0054
101c
fb60
f12b
0809
f0bf
fb91
fe2c
fc93
052f
0e1d
0c30
0543
fcae
0e53
0cdc
f46f
f22e
f1ad
f717
fb4a
ff80
fd1a
0a14
0ec8
0dbe
f0f4
0612
f14c
f137
02dc
0bbc
feed
0789
f5e0
fe19
0063
00ae
fc4e
f790
013d
0248
0a1b
f61b
fd58
fea2
0d99
f18d
fa7a
0e11
f1a3
01e3
0010
05d1
0bde
0b0c
0d56
0f23
fffc
0656
f954
f79b
0439
f4c9
0d6e
0b6b
fbf9
f360
065c
f966
ff40
0447
04be
0842
00b8
fbfc
0871
fb49
0649
f2bf
02ff
0df5
06af
0e57
f20b
0575
0de3
0565
f73b
fe7b
0982
0a0e
fc00
f22b
fc36
f676
0afe
f8a4
0b62
f69c
03e3
fe70
0658
fb2e
0ab4
09b1
f6ac
f35c
fc97
021b
fad9
080f
022d
0a1c
0cad
f1ae
049a
fbed
f459
f3d1
07cf
0433
0d3f
f242
f71f
f2b9
f45c
0b50
05e4
f3bb
016a
0a2b
ff47
f56e
0b1f
