0658
0b66
f4d9
060a
f6a6
f09d
fad6
097a
0e42
0d2a
086c
0681
f5ee
ff85
f24b
01d1
f7f2
0164
0408
fa96
fc01
f5b8
f148
f247
00c8
f86c
0285
f17e
0b26
03c8
f54a
f3a5
f859
f74e
fb85
f69b
0013
f170
0508
f18d
f579
f5c2
0511
0496
f591
f81b
fb80
01ad
0ce0
fcd6
0b33
f204
0271
0441
09cc
06f0
f04e
f336
0b87
08d7
f58a
ff90
fae5
0bf0
f98c
f861
f7c8
00b4
fc73
0c5c
fb77
f6ba
f1a5
f2f3
0fd0
fd50
f7e7
04e5
00e4
046f
0422
06c5
0c8a
0f2e
04eb
f27c
f874
08dd
0ca7
f5ae
fe80
03d0
09bf
0d78
f44a
054e
ff60
f75a
f766
f37d
f3b1
ff74
07d1
f460
08d0
03a8
fc04
f4e5
fed2
018a
0305
ff9b
050e
f04a
fabe
f283
f096
0bb6
f903
f7fd
0516
fc7e
0446
06bb
f5e7
f59a
ff72
f2c1
003d
00d3
f2f1
0838
02b7
0c53
fc45
fb30
ff4b
029e
f2e0
0727
f344
f677
f7a1
0c42
06f2
0627
09da
fa63
f2e2
ff5e
f78d
f7af
03c7
07d1
f0f1
046f
0880
099c
0db3
0d15
f8d4
fb36
0d6e
f6ad
fe1e
0c3a
f2e9
0536
07bf
0de9
0517
0185
0ea4
fb5e
041b
f36c
f7c2
0d61
f89b
f4f1
fabc
0b64
0f5c
f978
f81d
ef67
0324
078c
02d0
09c1
f09e
fc8d
0910
0456
f29e
ff6e
0073
f403
fccc
0c76
f7f6
ffec
f6d1
f858
f5f6
0049
f1a8
fe31
0cf1
0d78
0c5d
00e8
04c8
01d6
0258
f60d
0bfb
fd65
0ef0
0154
f094
f1dd
07c0
0267
fc1f
0ac7
088d
f92a
f73a
f98d
011f
f8fc
097b
0aeb
01a7
fc12
f3b2
ef2d
0c60
f446
054e
0a01
0b17
f868
045d
ff9c
0e3c
f38a
f7d6
f73a
faab
fe38
f48b
f57e
0235
0dae
f1e3
0460
ffad
f24c
0256
fb83
fbf9
f830
00e7
01c5
0aed
0511
f7fe
02c7
051e
f4be
ff6d
0547
f77f
f090
fcce
f010
f842
0c22
fa47
09bf
0463
f7d6
0b89
0c25
0e31
fca9
fa85
f2a8
0c72
fc8c
070a
f0c9
ef24
fdde
fa48
09c5
fcd4
08ee
f167
f326
ff29
fb13
f7fb
f412
f71d
f12a
085a
f438
0422
048a
0238
f4c8
f1b9
f3e3
07a3
f184
09ce
0ad8
ef35
f1f6
099f
03d3
fff1
0a92
0d5a
fff2
0ff3
f630
fb5f
0007
f45d
fc6e
074f
fd56
fcb0
0a7b
fe8a
f27a
0a59
0420
013d
0b91
fbb5
fef3
0afa
f0f8
0b58
03d0
fd0d
0672
080d
f239
efdc
f39d
0841
f9bf
f62e
f86b
ff7a
f572
fc8a
03b3
fc47
fef2
01be
03ef
005e
f073
f1c1
0716
00c2
07a0
f8d3
f1cb
f386
f908
f05e
0a22
f3bf
0cb3
fc7c
f672
0ffa
f43f
f978
0acd
0af3
0d75
f146
02f3
fcbb
f61f
f086
f3bd
00c7
0f69
fa91
fb20
ef49
0222
f881
f908
f70a
099e
f209
f7f7
f39b
0d5e
f88c
0949
09bb
0422
fd0a
0447
f74b
f455
fef1
0e63
f417
07b6
011a
0cc5
0423
02c8
0979
0d9c
08bb
f343
0701
0459
f862
0a6c
ffa7
05f0
eee2
0a87
05e0
ff9e
f16c
fa0c
00b9
0b58
0eaa
0163
0706
f74e
f239
0967
fb0d
fde7
f2e0
f680
f440
f6a4
f9cf
093c
f787
f54a
fc3d
f5ea
f5ef
ffaa
0dfb
efc0
0c1e
f877
fe81
0836
0cbe
f31c
0a28
02b5
07f1
f331
f50c
0ccc
0a1f
0b85
f9c4
0773
f842
0c9e
0b77
fc2b
0964
fb8d
fa1b
f15a
fb87
ffb2
05a5
0b32
02c8
0aee
fe94
f159
04c3
f868
effe
0f9c
0c6b
0ccb
f5e5
f8e4
fe99
09b6
01ad
f735
0102
f54e
f927
f8b4
f9bc
fe23
093b
08ff
0b08
f451
036d
f88f
fb36
0d3c
0b36
0f90
00c6
0c3e
0784
fcdf
ff57
f6c2
02da
f668
fcb2
0a6c
0393
fb54
f6c7
f9d7
082a
f0ca
06e4
0a21
04c9
fae0
0ea9
f96b
f315
010c
ef85
f875
0632
fa41
082b
f91e
f902
0e51
fcbb
0f10
f38f
fbc0
f89b
0d6e
0f5b
056c
02d1
0854
f24a
0090
fc8b
f378
f5d1
007b
f881
08ec
f52d
05ea
0743
fd19
0275
f4fe
fe6f
0eaa
0540
04e0
f3cb
0aa5
f772
0d86
0897
08ef
0bde
fe9c
080e
0d84
fadd
0916
f784
ff3e
00c0
0409
fe3a
072f
010d
ef91
0c17
0da9
0abc
0363
fa8a
ff24
0954
f38b
f690
f610
0b48
f2d9
fdc7
00f4
fced
0aa3
0e37
f529
f336
fb9d
f4b1
0789
0bab
fd39
f48c
faa3
f75e
02a4
06f9
012b
07a8
f124
0936
f5e3
0ec3
07f5
041c
07c0
fa19
084e
0f2e
0fcb
f331
04e4
f786
0a9c
04e9
fa8c
f6f8
0c2f
f858
095c
fc59
0931
f9d4
f32d
04cd
0cbd
045c
fe6c
0cfa
f7e6
0c9f
ff6b
faef
0219
0a06
f225
0749
f1a6
f079
f986
fbfd
0a3e
f8a3
0600
f311
f8a4
f0d6
fd94
f617
f884
05f0
09c0
0632
0488
0449
0bd3
0b90
ff11
f072
f677
0a13
f259
0965
02de
0e65
0d30
f177
f518
0be5
063d
fb62
f92c
f9b4
f141
f309
0a8f
f7a7
f037
fc1d
f1d4
058d
f809
0fb4
0e3b
f91c
f864
f658
f8cd
0f1b
fb04
0fc2
f1fb
f891
f1db
fa5a
024a
f51e
0ad5
0b11
0140
01c2
ff2b
ff9c
f4f7
0713
0fcd
f07d
02cf
f47b
f179
fc35
0a9f
09f6
0aed
f674
fabd
fcf9
0565
0248
f10a
f981
0ae4
0b23
0e9e
023d
f2cf
0817
003f
fc0c
05c0
04a9
f7ba
0a94
f9f3
0b5f
f9b0
fa0f
fd9d
03f5
fa3d
fa2c
08e8
f379
045e
0b5d
f77c
