fd00
0e1d
04e8
0cdc
010f
0425
0478
f0c3
faef
fc80
fa73
f987
04b3
0889
0e81
f8fd
05e3
00fa
0112
f2aa
0702
fc14
051b
05c7
0b76
fb1d
0ba8
f7de
0774
f8a8
0fd1
0dea
07ba
0cdc
fe4e
013d
f6f8
01b3
04b5
07da
0b0a
fc39
013f
f251
00a2
004b
f650
f045
f5be
0a35
0262
076b
f808
0961
f6eb
0b24
f2f9
0676
f7ce
f7b5
fdf7
f256
0d52
f846
0d58
f22f
f336
013d
fb1a
038c
073f
fff6
0d11
fe71
f717
fb0f
fff4
f39f
fd5c
0256
0401
0c87
f3b5
fe7f
f06f
0202
f877
04e8
018b
054e
033a
0e6d
f7c0
09e7
f589
024f
fb5a
f36e
f8a4
fb49
0fa3
f84d
f470
fab7
0460
0a19
0b10
f604
f971
f067
f3d6
04cb
06a6
0796
f6e8
0834
0d8a
f204
f2d4
094a
fc5d
f843
0757
fcb3
05ed
f1c2
f1a9
f323
f2fe
0b16
0121
f673
0b5f
0435
fc55
f62e
f1f2
00f9
f12a
0d2d
05a1
039c
fad3
f35a
0a1d
fcd0
ffcd
004c
f42a
02a4
f04d
0ce4
0996
f422
f171
0479
08f4
ff3e
01f3
0a45
fb43
02d6
f4d5
f1ac
0672
0ec9
f59f
0fbe
ffbd
f085
088e
f656
0d87
f084
f895
0b3d
fec4
f3f1
0e1b
016b
fb24
f93c
0316
fc99
015a
0ec2
fade
f14d
fcdd
fe25
0445
07b9
f708
062a
fcdc
fa94
050f
f2eb
088b
f8fa
005a
02f0
0231
0fe3
f057
0ad6
f223
036c
ef21
fb98
f380
064f
f20d
f897
f985
f061
0ba4
fbc3
ff92
04ab
fddf
f6bf
facb
f7b4
05bd
fd85
0c92
0eb4
008d
09b9
0184
f148
026e
fdb7
f0c1
01e7
fbe1
f865
08b6
113b
0b2b
0e6b
f196
05ea
fcf9
f348
f792
efea
0290
0b7e
fd62
0972
ffa4
0047
02b5
09eb
0beb
0212
0985
f183
fc20
f47e
fa9a
f18a
049f
0082
05ac
0e88
f933
fa91
0ab3
f2f2
f6e7
03e6
0b03
0b1b
fae5
f131
0715
f1be
0213
f8b1
f44b
068f
f40c
01be
0483
07c1
ef9e
0211
00ed
fcc1
04f4
0fe0
06a9
fbc4
06be
f2a1
f070
fe3f
06a1
fda2
fa13
0113
f019
f317
f365
f330
0043
f87f
0871
f4fd
0e71
0efc
ff14
fd4c
ffb2
f552
f74f
0178
04a5
f465
fcca
f864
ff2c
0130
ee4c
02a2
08c3
0591
ff5a
0a87
f0c6
09d3
0ee1
0e62
fdea
0940
08a4
0e20
fc02
fb9b
09be
fb12
f328
f65d
f90e
0458
03ac
f581
071f
0b52
07a7
f931
0726
f5e6
fa9b
0413
f1e1
0dab
024a
f3f9
f1d0
0114
f38e
0d13
0b1d
06fe
f633
0e93
00ef
0a9a
f0e1
f998
f6fd
fbc9
0265
0854
f4f1
f6d2
09bb
f866
0968
0e8c
01ec
eff1
050b
f6fe
fbf7
0737
f2a7
f713
0721
073a
0caf
02f6
f536
02aa
0d52
f4cd
08dc
045c
0d8b
fe3e
0bfa
01ad
fea3
0d46
043e
0cc5
f750
0cc3
0d35
084c
0871
08f8
f006
002b
0a32
0552
f4cf
061f
fcfb
05e6
f099
0a15
f074
f0d1
0ab2
01ed
0714
0cfc
f242
f448
0de2
083a
00dd
f2d5
07fb
0ea5
073e
07ca
0ac0
04c2
f6b4
0879
fda2
fee7
09fe
f0ef
f545
f4c4
08f4
fa7d
0181
fa44
f6a0
007a
0d0a
0cd3
0555
fe97
0c9a
0fc6
0430
f30e
082f
07d5
f7af
f7cc
00ef
f23b
fa46
fdc2
0e7d
0621
f97f
f6a8
07c2
f1ec
0849
fc6f
04f6
fc99
f75c
04d6
f0d6
0b37
076c
fc85
03e4
fc26
0029
0160
0dbe
02c0
0e18
084d
fead
0aac
0571
ff3a
0d93
fef1
fa20
0dc7
fa4c
f184
08f9
0056
046d
03ba
0712
f20c
09df
f8b3
0473
f1c5
f1e7
f2e9
0f41
0dc3
f872
ff0c
f64b
08cd
f27e
0640
f799
f3ad
fad5
f243
f4d3
fa6f
f737
0a5c
0978
f5c1
fbec
f868
fcdb
0831
08e2
fb4d
0922
fb37
0629
08f8
f3e3
08fc
0c67
0f8e
00d5
0d58
0989
f0b4
f93f
0668
01b8
f4a0
0d21
f75f
0503
0e44
f98e
0d84
f0e6
f917
fedb
f7a1
05be
0d07
074c
f6ee
ff8c
0aea
f2c7
0a67
f584
f20c
05d7
fff0
0cda
f2c9
fb6c
00ef
0aeb
f092
0506
f324
03e0
0cb2
f089
efc5
06b2
f78c
ef11
0975
f477
fc1a
f800
fb3c
0205
0710
f09c
106a
f4bf
0ce5
f3a0
fbc9
f9ec
0b05
ffdd
f4b8
01c1
f4d2
f3f4
fa38
0e28
ffc8
0164
0643
fc99
fd11
0d09
fc4d
fe96
ff74
f4b7
079f
fd28
09b9
f277
0af9
05ef
0c60
0486
fde7
0946
0024
f92d
f3df
079a
f8df
02a8
0b53
f717
f020
023c
0c2e
01a8
03c4
efde
f4f6
0758
fef4
01d4
0cb8
facf
081c
f9c4
01c9
f74b
0cd2
0a59
0ddc
f2e1
03fb
0353
f4db
fc73
0711
0a9c
ffbc
f6b0
f943
0b52
f70a
f362
070f
fb45
0d28
04cf
0c97
fe40
0530
fc52
f8cb
f058
06c1
faca
09a5
f0dc
fbbf
f762
050f
0a0c
f53e
f6a3
0cc0
f3b9
ff38
f9ba
ff68
f16f
f54d
02ff
f823
f761
f965
f092
f54a
f755
052a
04a1
f5a3
f9ed
f73f
f423
0135
0923
0bd7
034d
044f
0749
f885
fb2d
0b99
fd09
0f1e
021c
f390
03ec
04cc
f865
016f
fb1a
0d3d
f220
0165
f605
0d6d
08e6
fa36
fab4
fd20
f2fc
022f
06f8
ff60
0151
f641
f5ff
0ad6
080a
0639
f1fe
0382
0a46
0f20
f581
f97a
f225
f290
0b23
0660
ff5d
f1e2
0d5c
0ae0
008b
f296
08b1
0deb
f8fd
0556
0e06
f7be
fc97
f299
f86e
0b7d
fbd0
fceb
