0599
fac1
fed2
fe29
f801
f2ff
0cb4
fb2c
ff19
f533
fb83
f0a6
f01b
00da
fa8a
09f5
f71f
f5c8
f32c
0082
f62f
fee0
0e75
f27b
f85b
f84e
0d91
fd9a
054c
0662
01f1
0c59
0e89
f038
0027
f11b
f3c9
08e3
0b89
fe14
f9e7
f0d9
0a99
f4a6
f11b
fb4c
fe0a
f8aa
0127
099e
fcb7
fce6
f419
0f66
03bf
f1a1
0580
f7d9
f81e
0403
f6b2
03ce
f726
07af
f2fc
f2eb
09aa
ff2f
0a7f
f29e
ffc8
f53a
0b19
0168
074e
041b
0144
f996
0238
0f69
f89e
00ec
0e14
0293
faba
0a88
ff25
060d
00ea
001b
0708
f282
0cc0
efde
f0a5
fb1c
060c
04fb
09d7
083c
ff5f
ff0d
f8d2
f444
f889
0a42
09f1
fb2d
0d97
f3ba
f763
0d1a
066b
0c5c
faf6
0ef8
0c11
0f75
0041
0600
025a
0112
feb3
0841
f9bf
031b
f37f
0ee8
08ef
f3eb
02b6
f32e
f1ad
f95f
0e76
f8d0
07a3
0652
fa82
f86e
0c70
ffcd
05a8
0ef9
ff58
f109
fcc9
faf8
06c5
0438
03f3
fd5f
04d3
02fe
fcf0
f0c7
0a31
f255
0924
f190
089a
f678
035c
f436
f219
f0f3
020e
0794
08ec
f27b
f814
0467
0659
f448
f2d8
feac
00bc
f655
f85d
fb4c
f31a
0c6d
f8cd
f4a2
013f
0b6f
00c0
ff5f
fd36
f37f
016e
0a49
f25a
fb8f
0281
fd71
0181
039a
0fb6
025b
fbf8
f810
071e
0770
01a4
fbfb
f68a
0a1b
efd7
fc02
fe3d
03e0
03eb
0e56
ff14
fdfb
fc83
0c40
f74f
0b87
0980
f654
f3ee
08c2
0fda
06ca
fa89
f03f
f4b7
0181
074f
03a9
0ced
0894
f494
fd2e
f950
056c
031e
104c
f7f8
05b5
ff24
0ef8
f213
fb51
07b9
fc66
038a
08da
0878
f34d
f86f
f305
f756
0723
f88a
f42a
fac1
f43f
fd00
06c4
0bdb
f589
1027
04d6
f1e2
ffba
fedc
f838
00eb
0835
fa4c
f9fc
09fe
f065
fcd2
0872
0517
f48a
0784
0833
fb6e
f9d1
f241
077c
0cfe
088e
f6e9
0a2a
f6fe
0e69
fe2f
f1de
f118
f5bb
09d4
f8d2
0eb6
fd32
f8b8
f394
0251
00fa
efc5
0ebb
f2db
0068
fa8e
054c
0372
fd54
fabf
f10c
f770
fe1f
fd29
04d7
fd47
f3c2
f2d7
00d0
063f
07b1
0ffe
0f7c
0ccc
069b
07cb
f707
00d7
0982
0d98
f6c0
feb9
f5a1
f754
fd97
08bc
0c27
fba4
0f51
05fe
fbfc
fecf
0bad
0d4a
f536
0dfa
fd15
0b84
0ce7
f651
02c8
ff0c
00c6
f219
0273
0396
f92d
fa0c
fcfb
fbf0
fd59
03f6
01d8
0380
fe01
0011
f789
fa3d
0a58
0e51
0624
0020
0998
0430
00b0
0790
0b28
043a
f5ea
f3e5
0dac
f6f4
fbf2
fb55
0b02
0128
fbe9
0029
f76e
ff46
0dde
0662
f3c9
f081
096e
f9c9
0e49
f812
f8c7
0c1f
fdd1
fa95
0c87
f914
0270
022e
01de
075d
fb12
f9f6
fa60
07a8
f00d
0bb1
fe4a
038b
0fd3
fc73
f09a
0c70
0735
f0ce
f1bc
0673
f840
f348
f997
0fa8
f5d9
0df4
0f37
f354
f3d1
f554
064b
f2ac
06e6
f3cc
fc27
0446
0c57
0427
ffc4
f1cc
07ec
f524
020a
fe83
0f94
f734
f314
0156
09df
0f27
fa4a
0148
f773
0c6e
f94a
0ac5
f9d3
0647
028f
0f12
f711
fc33
0973
0d33
075f
ef23
f53f
0c1e
06f6
fff0
098e
f718
fc70
0d89
028c
f77f
f31f
0346
fa52
efef
0038
00e3
f200
f27c
0fbc
f36c
f212
f347
05fe
f9b5
eee1
065c
0ad7
0b26
f726
f580
0976
fb42
f01e
f2c8
0e2e
09af
f2dd
038c
f2c9
f97d
eebc
f145
fb69
0cf1
053b
f637
1025
f797
fef6
0974
0165
f6f4
f622
fa7e
f57e
fca9
f786
0025
0e7d
fbbe
01db
ffc9
029b
fd81
f2cf
0f28
f5e7
046a
0bed
0565
0202
f9bd
0cb2
0ab3
0596
08dc
f33c
02d4
f8fe
0ab1
0912
035a
0980
f423
0db0
0507
07e0
0de4
fdbf
065d
fb02
f146
0214
f3cb
0d86
0656
f1a5
ef8f
fd3a
f065
ff5c
0d03
081c
0335
f689
08d7
f782
0a38
f154
049a
f48c
0777
fa02
f21b
09c7
fa46
fc1b
0620
0925
0ff8
0a64
0494
f2b7
fab5
f797
f539
0889
f5ec
08d0
0b7e
0760
f893
09c4
0aa4
0e05
0d8e
f36e
0235
fd58
fe0a
0798
08a3
09a5
064d
08b9
f7e1
0209
0a05
fd43
05fa
f972
fb23
0ec6
0ac6
001c
f31c
f58c
f257
1044
0f4a
f8a8
f533
0af2
0bc6
f50d
098c
0df0
0498
0797
0d0f
07fd
f1d0
f0a9
fd76
0109
0231
0506
fd20
0234
09b0
fed1
05b8
0d2f
f344
f543
f8fa
0b06
06f4
f5af
098e
fcdb
0631
05b4
0491
fd02
fd08
f7d1
09ff
07b7
0df0
0a8a
f9b3
0a30
0828
0297
fd2d
0626
fd13
fc38
f406
001e
01ac
fa7c
fde9
f3c7
071d
f659
0572
f3c6
f685
f3d1
06db
0d19
0e31
07fc
0671
08d6
f184
0014
0cc1
f621
0e33
f648
fcc1
f2ac
067d
f4fe
f82e
ff52
f9d3
0448
01dc
0353
fd9f
f7f7
fb36
05b5
f635
faad
f683
fdf2
f6a0
06f6
f486
f9d1
08ce
fdae
f5b0
fdf8
0401
fb2b
0acd
f31a
0efd
ff7f
f172
f2bc
fd54
098b
0a73
fe43
f698
fb44
0cc6
ffab
fad5
0599
0fdd
0408
f987
f33a
f3f1
f408
f02d
05c6
0431
fbe2
0201
02c1
06bc
f826
08ed
f109
057e
01d6
f09f
034c
0e74
07ff
fb2d
f52c
0b36
0641
0748
0637
f1a1
fbfa
07a6
ff2f
0fa1
0e62
