0cd9
05f5
f3ca
f51f
ffb9
fa54
01bc
0f33
051c
fd7a
0aae
f836
0759
0c61
f67c
fe41
f430
ff89
09e4
f6ff
0466
0f93
f1fc
faea
0b60
fba7
0f38
f956
07e0
07f8
015d
0694
f9df
0038
0fb4
f621
04d9
0850
f342
0871
0bd7
0427
0fcc
0a05
f4d1
09dd
f8ec
0919
0c83
0d73
ffcb
0537
f3c6
0aa4
03da
0b76
fd4d
ff12
0113
0d4f
fdcf
0302
fa85
fa9c
0896
f4d8
0f34
06cf
07f7
026f
0127
0373
fecc
05b2
f84f
f168
0119
fcd3
f1ad
0400
0cc5
fa93
f625
f100
0fc7
f7a5
f4d7
fac3
045b
f8d9
f751
00b6
03d4
0bf5
0a10
f874
f918
fb09
065a
f932
f125
fd91
f54a
05cb
fc5c
01cf
f65e
0eb3
0837
05a1
fcfd
ff36
fc6f
f5af
f555
0b24
f317
fdbf
0c23
fb71
f867
0ae4
f84e
f349
04a3
f746
f253
f764
0584
0446
f59e
0b3a
f49d
0171
fed4
f590
f4c4
0b08
f9c0
025c
f5c0
0edc
f724
fa2b
ff92
f252
f2c7
f66e
0c77
ef1e
0e13
0897
071f
f778
f187
fbf7
0e79
fe69
0d70
feac
f1ac
06d5
09bc
f8b3
f1d9
fdae
0021
0c3b
0047
ffde
0d67
fe61
f4fd
fa36
fd47
049d
045d
f62b
fe5a
0ace
f087
0bab
01a8
0d01
0ad1
f3e0
088f
ff12
fc00
0bc0
03b8
f370
046a
01d1
f48c
0207
065b
021d
0bc6
fe9d
f18d
f6c6
0beb
02cd
fba3
0409
f700
0372
059c
fe48
fc2c
0361
0b5a
fb14
fa27
f330
f0a6
f2fd
f1b6
fabf
f9ad
095a
0197
0b76
0ea2
f460
f1d1
f51c
0478
020f
fa60
0a7c
0ea7
f008
f727
0c4b
0a92
fe57
08c9
0960
0657
fbfc
fe98
07ef
f8f3
0be7
fbc8
0126
fe24
0ef1
0e0a
f8ce
f822
f910
fee6
f1c6
00dc
04cc
0c24
0b69
0e87
fdc3
f589
06f9
f3ea
0148
09dc
0841
f360
04b1
0beb
f504
0272
fd0d
08f8
077d
0740
0daf
0419
f901
0bcc
f539
0fab
f411
f68d
0287
f533
fdcf
f491
f121
f408
f5ee
f693
0b49
fb12
f0ed
0090
ff67
027e
0c9d
08bf
fb63
04d8
00ad
f528
063e
0238
0dd3
f4db
0bee
0257
0ddd
f7c6
fc10
093c
0274
f4ba
0eb2
08d2
052c
0709
0482
0c6e
09c5
f792
f779
f41b
0e10
0a72
07b5
0dc8
0b36
0424
0460
ffcc
0364
f4e8
f872
f518
f50b
0387
fade
f916
087e
fdd5
0a4c
08e4
0671
fe09
0891
f81e
f70f
f468
f099
fb27
f5fd
0654
f297
07b7
01d5
ff38
f1a2
f510
07b3
0d1a
fa3b
0aea
ff4f
0831
f9a3
0249
01de
eef2
f19a
f696
0ac4
fb62
f430
fa67
0f44
f916
ef6d
fa09
0bba
013e
f12b
f28c
fc43
0fa5
f1f0
fa74
0589
f25d
00a3
ff17
f65e
026d
fb96
0a35
f9e4
0e0f
08ec
0c14
f454
0ead
03bc
fedb
0bb2
f05b
f812
f8f9
f5b6
09fc
0896
fd47
0ed2
04f3
f646
03a7
fe83
092a
09a2
f252
0d1f
0248
0f96
f474
0a94
0aba
f9c6
0edd
0678
f981
f627
f1de
fd00
0d9d
fd08
090e
066c
edd2
005e
0002
0fb1
f467
f4b2
07c0
089b
02a7
f75f
007c
f828
f734
045d
f399
f183
fdd8
0af2
f4a1
faae
0368
ff76
036b
0349
0684
0ca6
ecf5
f999
f1aa
fe33
0ba3
083e
09fc
0dc8
f208
0daa
0e3f
f8a5
0141
f02a
faa9
0da0
0e11
0192
03dc
061d
fad8
f835
0f47
f624
083b
02de
0833
03fb
08bb
fe85
08d1
035d
f8e7
feeb
ff69
0374
08a7
f6ce
fe05
f13b
0d84
efd6
0894
03fc
0a94
04a1
f6de
f58f
ff37
0055
062a
0729
f547
ef7f
0e3c
0474
f5c3
eece
fae8
fc70
f3de
f692
0301
fb6e
fcc5
0679
ff5e
0721
ff94
031a
faa2
f44f
f452
ffad
0b5d
02f3
0f38
0265
fe44
0c45
f5cd
0967
0afa
0237
0940
f52d
fc10
0e76
0fc8
0b55
0b78
f1ca
f3f7
0723
0c4a
0551
03e0
017b
081f
fb53
0f45
078d
fb43
06a8
0047
0fcb
0c64
0495
0901
f519
f737
ff15
f36d
fd52
f372
f484
f62a
0f3c
f3e0
fa11
0836
0a13
fa43
00cd
f712
019d
ff6d
f393
fb31
083f
f464
0c62
08da
f71e
f546
fd0d
07f2
efc9
036d
fb32
0417
f867
fb64
fcaa
fb3d
f150
0511
02fb
fd0f
075b
04c9
fc0f
f777
0d8b
f24e
05c1
f7de
f0bf
fe90
078f
0ad2
0505
0309
081a
ff4c
f0f2
0fa3
0bf8
f3f6
0199
0cff
0f39
058f
0119
0a19
fc35
f242
f2ef
0f80
0ff2
fd25
f484
09df
0c12
088a
fa3f
f1c2
f389
05a6
fcee
0da7
f768
09a3
f9df
0d51
054b
f827
07da
028c
05f3
f7bb
08c1
01a3
f2f2
0473
0baf
0590
09b1
01cd
047b
019a
09b5
0739
032f
03af
f27c
0a84
f873
ffb2
0d50
f839
070e
0875
0cbb
06d2
0c17
0ddd
0639
06ce
0b2b
f609
f5ee
0610
fb15
f5d2
f578
fc9d
fe8e
f68a
f229
07b0
009b
f48c
0663
f60b
0698
f338
0368
0785
fe64
eeab
f7cc
f681
024a
0a73
03bd
0b7a
ffda
ff83
0eb0
fa20
fc8b
fd41
fd73
04bd
0bd7
0069
fb82
02a8
f2fd
0b29
fd8d
fdbd
f417
fbf0
0cdc
0631
07b9
0d87
f8a4
ff83
f8cc
0fc6
ff16
fe67
f8a8
0fff
0eff
0858
0e03
fc3b
fd73
0cb4
07c0
0bd5
f380
0193
fd6e
f05a
050b
f054
0778
f15a
091e
f8d4
fe19
f346
fc86
0706
0fb3
f451
f399
fac7
fd5c
06a0
01ff
0e9b
0980
