fd26
0fbb
0fca
f24e
0564
06a4
0ae3
f37f
fa11
0afb
f207
f76d
0393
03f8
09da
f668
fb81
f919
0185
097a
0239
00a7
032d
08e6
f79d
f9a0
0e5e
fa6c
0291
0492
f028
f36c
094d
01c5
f875
0b03
0c2e
f6a1
0f9e
fd54
09be
fd12
0345
07a4
0fea
0351
0cce
f429
fe7c
0e68
03ea
012d
fd11
ff35
f7a4
fa17
f535
f5b7
0528
f3a2
fe91
0656
f62b
fb41
f1a9
0f7d
0429
0093
081a
fc8a
0ad1
ff35
0698
0bd5
f554
fe8e
02fc
0714
0bb3
f90d
060b
090b
0c23
0252
058b
0362
fe76
0c53
0da0
f7e2
0a02
0d43
0e0e
f4e2
0ad9
0ead
f262
fb8c
0814
fdb0
f532
f58e
ff1c
f8e2
09f0
f5ea
feb8
f749
045d
f09c
0717
0dcf
f795
fe45
f893
0371
0736
0d17
0327
0ecc
f180
0677
0cae
0fb0
ff56
0f5e
f638
fc73
f3e4
fd17
fac8
ffc0
ff05
ffc7
ff22
fefb
0840
f2c1
03cc
f52e
ff75
fcfa
ff05
0502
00a0
f95e
f28a
f5aa
fc06
faca
f908
f4c8
ff16
1209
082d
0935
fddd
06fa
fb0f
fe3d
f057
fd85
074b
046f
fa2c
f507
f896
f133
f3a3
f5c3
fbf0
f77e
f1ea
0024
060c
0dde
f37e
f4fe
0a44
00e4
f3da
fdaa
f94e
042b
f72a
fe47
ff8c
055f
f62c
f7e3
0ef5
f1f3
f038
055f
0727
082e
0ebe
03f2
f337
076e
f239
f7a4
feff
07df
0d8a
08bd
0f59
05a0
02ca
f94a
0f4d
08ec
ffcb
0868
f56e
fa93
05ae
074a
01fc
068c
f556
f4ee
0e94
fd4b
04a6
033a
f80b
0bba
0878
00c9
fc1b
f759
ff3e
ffac
00f3
1007
0575
0269
0a76
0a21
093b
0580
05b0
0d86
016e
0444
f200
05d3
0e91
075f
f954
0c2a
0dac
fa37
fe3b
fe6a
00a7
0393
089e
01fa
f5c4
f8bd
f831
fa5f
f9d1
04d8
0d9e
fdfa
0c52
046d
0972
f11d
fe5d
05e0
f37d
f39b
fd1f
f3ce
01fa
0aa6
08dd
09a3
fb70
f70a
f222
f9ea
0db4
fedb
00df
f09e
f990
f4e0
041c
f13e
f253
1012
f442
0af8
00b0
038b
0805
0b01
f636
0dd6
f2ea
f461
0687
0271
0ea6
0a84
0d4e
0ef1
0a4d
0092
f945
ee88
f8e5
f10f
fafd
0388
01d5
fdf5
fc1a
100c
072b
0151
0142
ffde
01ce
08dd
f5bf
0ecf
03af
0261
fd43
f859
053a
0817
09f7
04f6
029d
f0c6
ff58
025d
0830
0908
fd6b
037b
f848
0031
f959
03e6
0e9a
019a
f7ab
0b09
f10b
02c0
0cf9
f6ac
f35f
f008
0fcc
091d
f021
0a5e
f71e
f26a
04a3
fe22
fc96
0641
f346
f649
fc9e
fba8
f2bc
05b6
1230
fe0f
f396
01d6
f62c
fa04
055a
0553
f9ed
fa2e
087f
fb1a
f4a6
024f
f9ef
0c76
03d0
f010
0d9a
f7bf
ff9e
09a9
0abf
0029
0bfb
08c7
0324
0fa1
f82c
071b
0be1
06db
0a66
f13c
0e63
f0f2
05ae
fa03
f204
f362
0f2d
04ff
0189
f4bc
0b04
0b1f
f798
f4a7
f144
ee93
ffa0
0da0
fbf1
0ca2
0c7a
f113
f1d6
ef58
016a
037e
071d
fa87
061f
0c3b
fc4f
0411
fb30
0a80
0d55
0684
fa3f
f9ef
0c48
0622
f17f
07dc
fdcc
eea8
00ea
f300
fa4d
f5eb
fa77
f022
faa0
0581
fda6
04dd
f35b
f539
ffec
0e2a
fa5e
f3be
0bf0
05b6
0b43
0848
f2bc
04fd
fce3
fc58
fe8d
f787
0d0d
f72f
f69a
f50b
f67a
faff
f7b1
f4c3
f81d
03e9
f0a5
f5e5
0de5
0cff
fa54
fd69
0e1a
0a04
0cc4
f227
004d
f177
f66f
0a8c
0e3f
fb09
0429
0d81
0a1f
03a5
0bbd
0b16
efe3
f315
f003
fc9e
0a74
f279
02f5
0e96
03fa
0457
fe09
f30a
0f5f
01fd
02fd
f10f
f510
05e6
f7b7
0720
f74a
ff46
fa70
02ca
f3a9
0326
03ca
feb6
f54e
103c
febe
ff96
015a
05cd
f7e0
0967
0f0c
fd1d
f67f
f968
0c2c
0f8b
0a64
0b5b
ffe6
041a
016c
004f
060b
f51e
ff83
f590
055b
02f1
07e9
0c75
fed9
099f
0eff
fb5e
0113
085a
011b
faaa
047b
f664
fa5d
0fda
0291
0e5a
fbd6
fa3d
fff8
fbb5
fed7
fe7a
f60b
0946
f9e0
fbbc
1075
fa69
06a3
0b54
f537
f3f2
0562
f20b
fcd2
f3bd
068e
04d3
ff42
03e0
0c8c
09c0
0bb2
0ab1
0efa
08ce
f309
f694
f11c
fa85
fcd7
f428
0f06
f9da
0578
f7da
0579
0f1f
f446
f726
0fa0
05ec
fc21
0e8b
f7d9
fda6
f588
044d
f0d9
0ec9
0c44
0711
0c02
f508
f67c
fd40
0eb3
f70a
fccc
0f6a
f9aa
0e2d
1070
fe5e
f726
08e4
fcda
0ab2
06ed
0709
082c
0061
0afe
fa3f
f528
fca3
f7df
ffc5
0ce0
f86c
f714
f4da
01c3
f0db
0ada
097a
0506
09e6
01c0
0cd7
fe8f
fd06
06c1
fca1
fca0
faa6
0969
0c2e
f34a
efd1
f299
0204
fa58
0903
f314
0f7d
0764
0b39
08e5
f069
f943
ff49
f183
fb9a
f49d
023e
0c7c
f37e
08bd
fb2f
0aec
fe59
f742
0df4
ff4d
f631
00a5
f9e0
07cd
fc30
089f
0a17
0efe
070b
084c
fe70
f490
05a3
05ea
f0f2
f7c8
0dbd
f7f8
0a91
f51d
0d24
0274
fd27
fe79
0e02
f12f
0543
f956
049f
fe65
fb5f
f0d4
f822
01d0
f6b5
f5c6
0c3e
f6ad
056e
f0b4
06ea
f136
0fc6
0068
f61e
fa80
0669
f469
0117
f9c3
01ac
09ad
0ff9
f9d2
f326
fe16
f45f
f425
f97b
fd7b
faea
0fc1
0fb1
0513
04c5
f5fb
f452
0272
03a1
f9ed
f31e
