0ee8
fba1
ff65
f690
f80e
f3d5
fe31
fecf
1136
056e
0d28
f74a
ff3a
0b63
0d6f
ef29
f8b9
fc2a
00b5
fff9
036b
fc8e
0105
06fa
01b4
f9ce
078a
fd18
fdbb
0215
0835
f8fa
fee0
fa63
0b4e
0971
f85e
0a0d
0ca6
0199
0b06
07e1
0caf
0177
07ef
fe6d
06cb
038a
05cf
f97b
07a8
fd79
00bb
f2f6
f43f
ff91
f825
0c28
026d
ff68
05d0
0265
f255
f748
