f436
0b83
0737
fcf5
f743
fac2
fe5b
0511
f168
ff08
f696
f495
f912
f030
f420
fa1d
f475
f7ea
fe4e
f83d
fb47
f9af
0292
f625
0647
f077
09a6
09b3
f9ca
fecf
03f8
0b2e
f37d
fc52
0624
0bf5
f0b6
0c3b
0b82
06c8
0cb0
f3fa
f4a5
0324
fad7
0cbc
080d
f4aa
ff0e
f561
0acb
0f73
fa0c
0207
0041
0fd1
020c
0c3d
fce8
fe8c
f15b
0f50
fcb4
fbb5
fa06
fdca
02dd
f38b
f9ae
0bd3
fb4e
f1be
0927
fa3c
0884
0e11
f098
ffcb
f944
03de
0042
fa2d
0210
f1c6
f4f5
fe64
f68b
0722
0e56
f3ff
f373
0e06
fa4e
0d1d
f674
0846
0fdd
0cd6
02ad
072a
0b0b
079e
f6ac
0776
fa05
f6e4
f884
0577
0234
0764
f1ce
074a
028e
f650
0e38
0878
0045
0ce8
fa4f
f980
fedb
0fe9
03cd
fdec
0b9f
f621
fd7d
0620
003a
0c4c
0198
ff9c
f84e
0af9
fa15
fe9c
0587
08ef
ff84
f267
f807
f8a6
01a4
f149
07c0
0815
f183
f2c7
0238
f96b
f6e0
003c
015c
062d
f8f0
fbf9
f4f2
f89c
f920
f49e
f49e
f0c9
08c8
0421
0085
0e8f
fcdb
f8b1
0872
f98c
f285
f94c
ff89
f38a
0b7f
f359
053f
f925
f4f8
efd9
0e93
09a2
fc87
fed9
f2c2
fa93
fadb
08ed
049d
0c93
009c
0ce4
09cc
f6cc
0b2f
06ea
f6f2
f12d
0d9b
0eec
ff67
f9ef
f999
06d2
0eed
f79d
f54b
0dbe
f69c
f736
f60e
0643
efa8
0392
f9a1
09bf
032d
0317
f640
09b1
f8cf
0ea4
0522
fa73
fa6f
fabe
06c4
f145
fc03
fbc0
fe28
0c94
fc74
0b5d
0873
fbef
ffc8
fc7b
fac3
efbd
f6ed
efeb
004f
0c01
f34c
0d85
f2fa
fb34
f212
f67f
089f
f4e5
f6c8
0478
f76f
f277
f364
017d
fc1d
fc7f
f431
0ab7
01f2
f06e
0b46
f4a0
02b0
f60d
f834
fcbe
fcef
f044
f6a2
0685
06f3
f510
f5bd
f2c0
0d20
f48c
0289
fdef
f290
0c86
0f79
005e
f545
f753
0a04
f343
f4ca
00cf
0b61
fbae
0c0a
f45a
f020
0d9d
0e7f
f65b
0995
f6e6
f127
0bc9
fb12
f424
0e7e
03c7
fdeb
f493
fcce
023a
f95d
0edd
0f3a
fbf5
f36c
ff08
01b2
0441
f2f0
0932
f42c
0c0b
f817
fe98
f9fb
fac0
fa19
0aa1
f8da
f9cb
02be
f76f
f411
f43c
f6cb
04d3
f6e5
016e
033f
fb91
fa6e
0a17
f6b0
f4b4
fd19
0dcd
fa84
0477
0155
0e12
f329
0d9a
0e53
f2f8
039b
f2b0
f8a6
fde4
ff55
f4cf
f033
0244
031e
0cea
fdb9
046a
08b7
f2f8
0f93
f129
0e60
084c
0720
0534
faeb
0919
06cb
faad
0217
0317
0e8e
0f6a
0629
ff0c
0d8b
0ce8
0643
fbcf
0276
04cc
f78a
f128
f9a6
ff0f
0c08
fd95
f456
f67e
02d5
00ad
09b9
fc01
0384
faff
0b78
f3c7
f6d6
fba6
0bf5
f5d7
05da
f3d1
f111
0621
f4be
f793
077f
fbfd
02ab
0785
0309
f540
0489
f6ab
0569
0aa6
fcef
fe93
f570
0400
0839
ffb1
0e77
0a0b
0657
f130
f3fc
f36b
fc2e
fa2b
f0f4
fcf0
0ff6
01b9
0ca5
0fe5
fa1e
0b26
0c3f
0f21
faf0
018c
f108
f93b
068e
f192
f8a7
fb70
f1dd
ff16
0502
f8c0
f4da
06c9
f59c
00b0
facd
fa7a
0a31
0d40
fdd0
f830
fecf
0ea9
03bf
09be
f2b6
07fa
0853
0667
08f2
fe5f
0089
ff03
f0f0
0815
ef5c
0765
fbcf
02ae
f97b
f7f6
091f
fcda
f982
fe7f
fbf7
f87f
f3dc
f53a
0a5b
fd6e
0335
fe85
0c52
0e96
0cae
f814
07b3
0471
0dfa
0c85
fc76
f5e3
fef3
fa07
f9df
f9bf
f998
f075
0563
0a60
f3f2
031e
015d
f089
0b27
0908
0cc2
fd81
06cf
feb3
f669
f7e4
0e58
fa5e
f3be
0d42
0cd2
f359
0752
f957
f38c
0899
f535
0705
076c
0c22
09d5
0533
f761
0eb8
f4a7
034a
f6dd
0468
00f0
f7c8
f409
f3b8
0600
0f77
0064
0283
06a5
f434
06ea
f4f5
f469
05e8
09af
f5dd
064b
fea1
f168
f7fd
f5eb
0f2c
0550
07ab
090f
fca1
0e5d
f103
f786
f788
f027
f7d2
063f
0a10
f82b
fa21
09dc
03cb
046f
f5f0
0da9
f44e
f251
efe3
fd07
fb2a
f354
0966
fa89
04f6
f8f3
ff97
fbec
071e
0017
ffb8
fded
0323
fabf
f4ef
00fc
00a2
f248
0bda
0740
014a
fb73
0bbe
0d66
fc9d
fe3f
f5a6
0284
f237
00d5
f1fa
fddd
fca3
fe21
fb14
fa42
f57b
f0dd
0831
052f
041d
0f7d
f73c
f4b2
fb57
f593
f00a
0230
f2dd
0b81
f5bf
07ca
fec6
fa8e
03f1
098e
fae5
05cb
ffd6
f892
f63d
0e39
0310
f083
fcfc
f636
0e93
ff68
0c91
ff82
f5b6
0e19
059c
02ad
fe95
04ee
efee
0cac
f846
f95f
0ddd
0016
0c63
0f07
f621
fb63
f607
0a01
0475
0538
fb80
f9f1
03dc
f534
fbbd
fd0a
fee4
f4bf
0daa
05f2
f6b0
fbe6
fd1d
0526
f1d5
0753
014c
fda7
fc89
07a7
041a
0879
090e
0876
ffbc
fb94
f6d1
ff86
0d33
f95a
faff
00dc
01b9
f9a7
f0c1
fd2f
fe3b
030f
0dba
0212
00a5
0dbd
fc3d
f951
f858
085b
ffe6
fd51
0eb8
0793
fda7
0bdf
f972
0c60
f4a6
f29b
f649
0458
0b4e
0383
08e6
f8ec
f155
f1f3
0d0e
0c14
f1d7
fa1e
0089
00a4
08b2
03fe
ff96
f69a
ff10
f8e4
f99b
f45a
0b3c
fcf8
02c1
f0c8
fb68
047f
0aae
0fc4
0641
03f4
024d
0aa3
f13e
