0813
fb94
f7c0
055c
0254
07a0
05d3
f88a
08c6
ff76
0a14
f24a
f8b1
f5c4
0d20
02f0
fd82
0ce9
f7fd
0c52
f27d
fe40
f13d
06b3
fd01
0012
05e7
0ac4
0dba
f1aa
f020
ff8d
fa99
0d22
0c8e
f393
f4eb
024c
f42f
ff3d
f00c
045f
0625
f85c
0637
0ab7
fb8f
f478
f17e
0ab3
fd26
03a9
fd9d
f44b
f5c8
fbb6
0b88
f0ce
0bbc
f54f
0d9d
0edc
01c0
09bd
0b12
f649
fce0
0638
0726
f235
fe7c
0660
f4dd
f88b
0ef6
f8c4
fbc8
fd23
fa07
0b7b
fdc4
f3d3
06a8
f1d6
f0ad
00fa
f298
0ddc
f780
0066
030b
0f3f
f570
fb57
fdc5
0d94
01e1
0218
0626
0fcb
03e7
f96f
02d6
0ed6
f02c
0528
0252
fe75
0b62
0047
f7f7
0ee7
00b9
fbe6
f0f7
003b
0add
0587
f5fc
fbc9
0132
fc4b
f972
0449
f4a7
fcbf
fbf5
fece
0ec8
f131
fb02
f377
02c8
0f33
01e3
0eb4
07e9
04b5
fef8
019e
fc14
0aa3
0e32
09e1
0ca3
00fc
0e48
0e1a
094d
0d7b
0207
f789
f4d7
f60d
0441
029f
08e4
0afb
08b1
f848
0427
f626
f5f7
f852
f73f
f636
0126
08cb
0eaa
f9d0
f875
028c
f9f0
05d4
f700
fdef
ffa4
02f8
032f
f012
03e1
0838
064c
071a
f21e
fb8d
0a30
0a92
0826
f4c5
f4be
0c14
fd51
f266
fadd
f4d5
f88a
08f4
f6fb
0a93
fa18
0afc
0716
f6c8
f733
f739
f17c
099e
efb7
0d6c
f57f
efdf
039d
f0b7
f2e7
f31d
0e02
0679
0a95
f33f
f045
f699
f0f2
f49a
f94b
f522
046c
f2ee
0389
f4ed
f254
0e02
0054
f2c7
fb5a
0b19
063a
efcb
f48c
0221
f533
0d20
0ecd
f489
f33b
01b0
0258
0cf2
0657
07c6
fc3a
f284
fed2
f627
08b8
f38b
04a8
ffa8
fc11
eff0
0120
f981
ff9d
f1b9
f3c1
f96f
f3d1
0772
f9fa
063d
fa4e
ffb5
fde5
04ee
f9bf
00b7
f21b
f2ae
f384
f106
f46e
0dd0
f783
f81b
0e92
fda8
fd98
f273
f978
f920
0ea2
f981
efff
0504
f3b8
f591
0b90
f108
07a4
fa03
0a13
f937
0603
0138
fa0d
0a02
07a5
f99d
f90c
03ab
057e
f630
00bd
f3d1
f44e
09f4
0b1f
f723
f9e2
0bb1
0474
0820
0ddb
0877
0f08
029b
0a83
0544
f1a3
f085
f86b
fae6
07a4
0d83
063f
fbe5
0bc3
f4ca
f0d1
fa6a
fa7f
01e5
00b1
f451
fba7
f91a
f336
f568
fb8c
f12e
0b33
f108
f839
0db9
f3df
0647
0bf1
f4c0
f3af
0ebd
0721
0d5f
0632
0338
fc7e
0c3b
0e35
fc75
0e18
f384
0a4f
fe7e
0624
fc80
f037
ef65
03db
f92f
0d4d
f7d1
0eb5
f392
f0ec
08f5
fd3d
0119
ffcd
0a61
fde5
f00b
059d
042b
f7ee
fefd
f6e7
0a3f
f182
0295
f537
01b2
0398
0e56
f4c6
045a
fff0
08b1
f484
0984
fec4
0ba5
f94e
f988
02a4
fa85
0936
fac6
f330
fd71
f97c
0f31
f965
fdd2
03a9
0b1b
fbc1
04c0
0d48
f22d
fd64
f18b
f5c9
045c
043f
f38c
f787
01f6
fc43
0989
05bd
0d3f
f2bf
046b
f46d
fde4
01d6
fd68
f16b
f3c3
f19c
f309
f4c9
fd51
0f0d
fca0
f3e6
070a
f2a4
fb12
00d6
f975
00c0
fd83
0314
f411
fcbc
fa47
0524
0585
f3c7
02e5
038d
0968
0c04
0026
f4eb
f248
f903
f150
0205
0085
0b8a
fc83
0d6e
f9c8
f8c6
f071
f21b
fc3c
02e8
039e
0fb6
040f
0ea3
f19d
fa30
05d0
051c
04c2
fad8
0aa3
fa02
fad3
0372
f6af
0aba
0409
f88f
f5d6
f464
0540
f31d
fdf8
0306
f43c
f94c
f3b8
f227
f55b
f9dc
f200
0a8d
080f
06d3
0d88
08fe
f7d5
f34f
f244
04e6
fb6d
0c72
f334
f031
060c
f313
0970
09eb
f229
0451
fa84
06c8
07cb
06ed
f54d
f4b0
fa7b
f67f
fa5d
f622
fcf5
f7a3
0398
f949
03db
0cc7
07b9
02dd
ff00
02f4
f7cb
0fb2
fd6c
fe90
f7e9
f4ab
05e4
0807
0798
0798
f9ab
fad1
f184
0c8d
0d17
f105
f7ac
061a
066a
0e72
fdce
010f
0b77
f43b
fadb
0326
f0cb
fde4
fabc
0161
0dac
fc59
f953
fcc8
078f
f02a
f486
f7a0
0050
febc
f11d
057b
046f
0667
0e43
f138
f505
f720
feb3
f358
fe51
fc67
0a78
f288
05f3
f757
040d
f63b
06ee
fb0b
f2d5
0680
0f83
0cf5
fa9f
f7a2
f421
0b5f
0c25
fef6
092d
fb00
ff8d
01f6
01c4
f6a8
0caa
0839
0b6a
f10f
fd79
ff3b
0722
f726
004b
f266
09da
01c8
0f6a
f9f2
0949
0365
04f0
f7fd
0045
fb46
f9f5
ff7a
0553
03c7
0c59
0a40
0f2b
0496
fd56
faba
f272
f875
f90c
f4bd
f317
0e6d
0541
fcf9
068f
0e15
f23f
013e
f052
fd3d
0dad
0def
0fa3
0e81
01b8
0a09
0593
09cf
fae7
faf5
fde1
00e6
ff36
0003
fb52
f483
f4aa
fe64
fa43
f00c
ffbd
f1c9
0576
fae2
f9f1
f9e5
06a6
f8de
0702
f95b
f91e
0a39
0b64
0598
0185
f42a
0371
08b3
f731
00c5
f600
09cc
f344
0245
f54a
f8d4
09a5
0856
0bd6
05d4
0fd2
fa12
0ee2
00d2
0e17
00c8
0ffc
fbff
0993
02a5
03e4
036b
f136
f013
0d2e
f21f
0588
03e9
f6c2
f048
f524
0775
fda0
f35a
0230
0906
f87c
0ba3
07ba
fee4
032d
f6f3
f4b9
05e7
0194
fdf7
f3d9
f27e
086f
f9eb
f4dc
f85d
0a0d
0a55
01d7
f27a
f236
0ec6
f5bc
fdbd
f2b8
f81e
029d
0321
f485
