f864
f301
01b5
01cb
f7bd
f73d
fce0
fcca
f8e4
0cdc
0bd0
04bf
f041
f5bd
f55a
fc7f
0076
f74d
f87c
0874
0848
f47a
f7d1
0044
fee9
f7cc
f849
f534
0791
0653
0109
ff51
0811
0c0b
0b23
fe48
033b
0b9b
0ced
0e45
0feb
093c
0d18
f799
0acc
f9e6
0385
ffeb
04fb
f259
06a8
02c7
0f31
fa34
f580
051e
fa6d
024d
02fc
030e
0d67
06e0
f83e
f044
04eb
07d8
01d3
00c5
0cd7
fc61
f9ce
099f
fb71
0935
0550
0a7f
0e88
faa9
ff92
fcd7
f63f
fb5b
0005
0a9f
003f
f47b
08da
0cc4
feb1
f080
0c64
0f16
0370
0f34
02cc
0eed
f4fe
0b47
0409
f72a
fff4
f9df
fe53
0a2e
0394
f9a7
0345
0e90
f218
f267
ff59
fbb2
0f56
f84d
f164
f2ee
f9a6
f9b1
fa20
069a
f754
f175
091d
0047
fd37
0e6a
0828
0444
040b
02ce
040d
ff20
fa9e
f377
0756
f7be
074c
0981
fd5b
fc6d
01b4
f61d
0670
f370
042e
f6e1
0e68
fc65
f33f
07ad
0f34
0322
f723
066d
fefc
fb6b
f807
fa24
1009
0b12
f3e2
0060
003f
0610
0477
0240
02a9
fc0a
fc5c
0689
fae0
f678
047b
0c30
f22f
fabe
fb28
041a
060a
f7f8
042f
f2dd
f124
f953
0407
f82b
f056
f932
016b
f8d2
0a29
02e8
feac
fc27
0c57
f017
f8a3
fb3e
f10a
0781
fc8b
0c4e
f5d3
079a
0cfb
05b1
100d
04ea
0d41
f9ab
f6fe
03e3
0a6b
f15f
05eb
f838
fba5
050d
fe43
0bf9
0dea
fc80
f08d
0d91
0730
03bc
fda2
f775
f901
0c61
f8f5
fafc
07ea
fa5f
feae
07a9
02d8
f25f
ff36
0efd
f238
fc1a
0232
0c2c
0369
06d6
08de
0fbc
f6a6
f723
0562
faee
0dad
f663
0499
0958
fe54
0d5a
f2b5
0309
f64a
042f
09d3
100b
0a0d
f547
f24a
f917
0492
fac6
050a
0114
0154
f9e5
03d9
f34b
ffec
0183
f826
f1b6
0f4e
f114
0493
f4be
09d1
027a
f88a
0439
00eb
fda5
ff2e
0e98
f296
f21f
f303
0b54
f1d1
f201
fe8a
0018
f52b
040d
0e99
f186
ff81
0c40
f177
ff36
f10e
f9ab
f1a1
fe6e
0d31
f0c0
0ae3
0782
fae9
1108
0f62
fdf2
0e31
fe01
f200
f53b
0446
0927
01e3
f395
fbcc
f4d3
0c15
f3f7
f4ee
0e21
fc62
029f
0563
061c
f7d1
f7c3
f3b7
0c07
00bf
104b
0928
0d26
fdd0
0063
f1da
0d41
0567
01f3
f533
07db
fe6c
fe73
02f6
fc19
ff05
083f
f931
089a
0383
0875
015e
02c7
f7c1
f8df
0a83
f816
fe72
0d3b
0a12
fe2e
0436
0e7c
0691
fd6b
f942
fba6
ff24
ffcb
0c36
066e
05d7
0b87
f352
0a1d
f576
f456
f3a5
0709
0778
f189
0f2c
0bf7
0648
0d4f
f6f7
f645
0a7f
0298
f7c0
01fd
f114
0a72
f7cc
f0e6
0892
0db7
f9e1
f53e
0678
f358
f80d
08ff
f220
0bc9
05c5
ff46
f2df
f58a
06d0
f3bf
0bd5
0315
f26a
fd0e
0bd8
f73a
f620
f1c3
0717
f7d9
f223
027b
fb72
00aa
03f3
0922
f4c3
02f8
f824
0d92
0c61
05e6
0922
f6ec
0488
f997
fdda
033a
0133
f8aa
07da
02ac
0676
fcfd
fe0a
07a3
06d6
f32e
ef68
f61d
0a85
f7a5
044a
0781
0a03
f927
fbe4
fc48
02cf
0a4d
ffaf
fa16
fb2a
0177
f38b
02d5
09d4
0204
072d
f370
f474
efbe
05e8
0b68
08af
f1d6
0724
f4ce
0443
fda7
f519
06f1
0751
f65f
f7d2
f239
07b9
f281
05e3
fc90
ff52
fbd8
009c
03a4
0586
f07a
f2b5
06e8
ff94
07ae
ffb6
f7fb
f266
fc14
fde2
f6fe
0411
f4f7
f5d3
fbda
0435
033d
0b42
0b0d
089c
0e5e
07ea
f504
febf
ffbf
0cc5
044d
f77a
0a7e
fd77
0ea3
f794
ff42
fb3a
fdad
f47d
fab8
0091
f8b5
f5e3
050b
0ede
0fac
f28f
0389
f83e
f8ab
07fe
0106
f6c9
091d
f0f4
04cf
0252
f937
033b
07e7
f6cf
ff1c
fe00
03ea
0d13
0274
03a9
f6c2
0013
0bb8
01ee
08ef
119f
f36f
f53f
017a
fd6b
f692
f58c
07ef
f5df
0c07
f603
f406
f479
f0a4
f7ae
f9d2
096d
0cfe
f1f3
0a25
f152
0dcc
f6ed
f65f
f403
0851
0778
fa6a
f447
118a
fe02
0d2f
fc7b
faca
05ed
0c8f
0226
ffd0
f700
ff1f
f7c6
0e9f
0861
f646
0d5c
0392
f91b
0baa
08f3
0bcd
0c8d
f815
f968
f3c2
0453
f556
fedc
fdee
0374
00da
f41f
0510
07f4
f852
0f96
0009
0d5c
0a52
fb61
f558
f06c
04a5
f8dc
0843
fd0d
f5bc
fa9e
0949
014f
0b25
fc68
09f4
0273
f635
05fa
f412
061a
fabc
f16a
033a
053f
f420
fc11
0f53
f3e6
ffbb
0b4c
0fd8
0a1f
0000
f9ad
f9fd
f59f
f658
0681
0a02
fa72
0f6a
0e55
fe13
f7a2
00b5
ff4a
0b0b
f990
ffd2
f916
00a0
031e
fa1a
f693
0136
0006
f547
07aa
fe84
0618
0cb3
fb79
06c9
fc2c
f93f
fa4e
0e91
052f
02d5
049c
02e2
f53d
02d9
fe74
0d50
faf2
fd4a
f95b
0c3d
0347
04e9
08fd
fe7f
0341
fcf0
0e1b
f918
f19d
002a
f986
0f8c
ff83
0bdd
f178
fc85
f801
0920
fc66
fe20
fabd
0fc3
f8d6
037f
0ebe
0aee
f516
0d12
014b
0342
0f94
f5c5
0bff
ffbf
fa62
0dcf
fe91
f421
fb45
fdde
08bd
02b0
fd6b
f2d0
0f5e
fcdd
0e41
02bf
fc88
060f
ff7b
fe4e
f2bd
faef
f888
014d
0a77
047e
f8fa
0db3
