f951
f5fa
fa5e
ff41
0660
0534
f695
08fc
0b0c
f9f1
fa9a
0270
0041
f226
f8fd
005f
f156
fabd
07f4
fd7b
f3f4
0376
038c
f787
fd46
f673
088d
0d3f
f5d2
f64a
1241
f139
ffdd
fc6e
f8fb
0662
1076
0a4c
041a
f01b
f0c7
fb13
f7ed
02f5
ee45
04fe
068a
f8e9
f6f6
f2da
079b
0776
f3ae
0aeb
ff51
0817
f805
f395
0e54
fccd
f171
fee8
fd02
0cdc
