0676
09d2
f040
f9ac
06b3
0b6f
f8f2
0c45
f078
0ad6
f2dd
0db8
f391
09d4
f7f5
06a4
0196
0b0f
f5cb
fb1a
fd20
f2a3
fc15
f1d5
fe6c
fa4d
074a
f80f
092d
087a
fbed
0f5c
06fc
f1ff
0e7f
fe18
f699
0911
fcbc
fa81
f7b8
0c64
0402
0234
f44a
f969
ffb3
f515
00a5
faca
f55e
08fd
fb6c
f9e2
0971
09bb
f8ba
0487
f8d7
0ddc
f91f
f1e8
f191
f4d1
fffd
ffd7
f2fe
f129
f02e
0322
0b93
fa46
f1b6
fb15
09e9
f388
f868
fe05
f229
fe13
f012
031d
0832
f781
063c
00da
0ef5
fcb7
05e9
03fd
ff58
09b2
fd15
076c
04de
f363
0c54
0880
080a
03da
f0b5
0f61
fff4
f357
fecd
fb2e
fa4c
08d0
08b9
0cc2
0920
f6b1
fe2e
0c5d
036a
fdb7
f2cd
0790
0fd9
f645
fb41
f5fa
0982
f7b0
052a
0614
0639
010b
0c3b
fe94
0cb8
f53a
faed
f2f9
fbba
fb3b
f30d
09d2
fd23
0822
0fc1
0881
07fb
0000
f66c
f04d
0bca
0d69
0b00
0233
006b
f23f
f796
f104
0774
f3e6
081d
0419
037b
f87a
f780
ff43
0ecf
065c
fbb8
0fbc
f2bf
fa75
f256
0420
f6c0
f109
00a4
0576
f828
0f14
f267
06d0
0326
0274
f995
0aef
0106
fef2
f6d6
0f19
08cd
f655
018e
f1e5
0b7f
0c28
f4bd
fe75
0bee
0b08
ffaf
0d25
0267
07f8
fb60
ffe1
0807
0247
0f57
f798
f20c
00f0
ff48
f3c3
fc28
067e
093d
00bc
0adc
fe6e
08f9
0fa4
fd2c
fb10
ff03
fe15
05f2
fbf2
f10b
fd06
0b21
0ec3
f550
09c2
06d2
f5fc
f1b3
f3d8
0113
0744
0fbb
feb7
0ad2
0e91
f296
08a0
f51b
fe2d
03ca
fdd2
f4a0
0955
04ec
f0a4
02f0
f34e
04d7
0665
fffb
0a04
f39e
040b
0666
f2d0
f9d3
fed6
0d61
f923
fb96
f81b
0208
0e8c
f79f
f679
107c
0482
0f69
0108
f423
f6c7
f0c7
0625
008e
0cb9
f1bf
0644
0f67
0fc5
0a53
f1bf
f8d8
fdd1
fcd8
f577
0e5f
0f42
f0b5
0205
07a2
0648
0441
f68b
f72c
0832
06ac
0e98
f57a
0031
fce0
095c
f144
f409
00c6
0ca5
0b19
f26e
f9b5
0503
0262
039b
0936
fb20
fe4e
0582
f631
0c0d
f610
0e77
0cf4
0561
f3a6
f395
f06c
025a
0739
fa1e
0f01
f233
fa2d
0260
fcee
0f92
f011
0585
fc92
001a
0c6e
f05d
ffb4
f1c4
f2b9
f648
0028
f599
f5fa
0417
f5ec
f091
0244
f0eb
f16e
faaf
f9fb
0ebc
fbad
0e96
0f4e
0628
fcb7
0f4f
07ff
03ab
0ea8
f33f
ff53
f3d1
05e2
0531
0a91
f4c1
01e4
f414
f433
0755
05f6
f3b6
f914
f513
f858
0853
f469
fbdc
faeb
0eee
02b7
fbc1
ffe5
fa3c
f7cf
f5cf
f9c4
fdeb
ff90
0110
0afa
037c
fcb7
f550
fe96
f3d3
fb12
040d
f134
f524
fb8a
f1d2
0cea
0e2c
0252
034a
0ed2
08b7
0b99
0ae3
f55f
f22e
f098
fc7f
08c1
084a
050f
0e30
fde5
0f33
08fb
f280
fe6e
0067
06ce
0ab1
fb7b
f1a6
03de
0276
0011
0271
03b1
f26c
0618
fbb5
fba3
fc22
03ac
fbe0
f00d
f0ac
f286
f664
f5c5
f0b9
0f3f
0873
f84f
fd07
fab4
f148
0b1e
0556
0856
09e4
0eb5
0cbe
0da2
0192
0c44
02b8
f979
fd95
f67f
0ea6
f0ea
fc87
fe74
f376
003a
049f
f057
f1e7
0ded
f177
05d5
fb30
fc0e
fb8f
0002
0c8c
fb54
08b1
f2c9
f829
f21c
f356
f53a
03f3
0caa
07a1
0a76
0116
f216
0dd5
f562
0445
ffe3
fdeb
ff3e
052a
f9c3
0544
0ef4
0646
fcc1
fe33
f6cb
f9a4
f293
06d8
ff57
0275
01b3
f5cb
0901
fcbe
08d2
0e51
f5b0
040a
0207
0a73
f811
f0d6
099f
0962
ff7d
f587
f08c
fc98
ff02
fa33
0177
0190
f447
0e34
00fc
fc9b
0ed6
f7cb
f919
f381
feb5
0090
008d
f6d7
0d9c
0240
0363
f28a
03da
fe77
f28c
f6b6
0bb6
0306
05cf
0dd9
fc21
014d
f8da
0f47
f64f
f06a
0bcf
f320
01c9
f3f2
0fd4
f753
0b7f
0236
064b
0a19
0413
0a19
f3d2
f4e6
ff4e
0d89
0465
fbdd
f7dc
fad1
0343
f007
f624
0b86
0133
00dc
f2be
05c6
f883
f2f1
fa02
f250
01a9
0948
ff48
f101
f63a
f724
0436
09c8
f52b
0008
f9b6
f161
f280
f5d2
0d86
045f
02b3
fa7e
f5bf
0099
fa57
ffae
0621
f1bd
f3f2
0317
fce6
fb95
0038
0f30
fce1
0ff5
0dcd
086b
0461
0f0a
f6ea
0fee
0508
08f9
fbf5
fea4
ffb6
0115
098a
fc8c
f51b
f67f
f726
ff0d
09e9
f7ec
fb11
fee4
f9aa
06a3
099d
f558
f06c
04af
fb07
03b9
07a3
fdbe
f2d0
00aa
0968
0729
f073
0a22
fde3
09a0
fd51
faeb
09db
fb7f
019d
0236
fc33
0edc
03e0
f84a
f9a1
030d
0e25
f346
0b60
f53c
f55f
04f9
f7c2
0173
0ddf
f2f6
f089
f1d6
fb12
0da8
f49a
f082
0270
0716
f236
f7ec
0a68
f2cd
0da8
fa4c
f70d
09b6
0e02
fb70
0abf
f15d
f9ab
02da
f163
069e
f3de
0630
f718
f630
f045
0fdf
f76b
fb33
fa13
f051
053b
0ed2
0867
fdb5
0b23
f287
fb04
00f7
f028
f78d
1004
0230
f77f
08e6
fab8
0b68
091b
06cb
00f0
fed1
f2f7
fd49
f39c
0b2d
f24b
0ff0
f3b4
0e01
f12d
0bff
0c7c
0abb
0181
0e02
fc9f
fd9a
03d2
ff9e
f7e8
f37c
02f5
ffce
fe0c
0c10
0a46
f55c
f45e
0bbd
