f510
f887
f5a4
068b
07dd
0c3c
f7cf
f0d8
04c8
0837
f571
fb6c
0d63
0306
0c05
0d25
f74b
0e2a
f86f
0cc9
0b3b
046c
0cdd
f8c9
f0a8
0287
0325
017e
ff38
0838
fdac
0a72
0735
0aad
06ea
f04c
ffe3
fba7
067b
091e
0e98
0a4b
f541
f7cb
f539
fa35
f573
0961
0a6d
fd47
f2cc
fcec
07f6
01b9
0bbc
f9fb
f7f3
f9be
02eb
03d3
041b
0104
fff6
ff97
fc02
f4ed
0d3e
0427
00ae
f127
065e
f208
ff3d
f18b
f621
0c7d
f093
0bc5
f182
f9bd
f3e5
fe19
047f
07fe
f31f
f7cf
06be
f4d4
0e77
f864
f674
0fd5
fca7
fba1
07ea
03e1
003f
f5ab
0d39
f238
f6a6
1027
fdd3
07a1
0ee9
fb0e
0520
03d6
0b52
0115
0e0d
0e3e
fc98
f88f
fcc4
065f
f7c2
0348
f181
f37a
0029
f6eb
fa23
073b
f726
0e5c
077a
0ef0
fd93
027c
0ae5
01c6
0c1c
f030
0d31
f5cb
0720
08aa
f3b3
f2d5
051f
028e
fba3
0023
09be
f120
f757
f3ef
0615
f1e1
fb47
049a
0822
0f8b
f825
0e6d
f9af
fd06
00c3
0a78
fbaa
fa92
f91a
f4c6
f426
ff4a
0c3f
fbb2
0429
f21e
0fd0
fa30
0d50
02f6
044c
fa11
f6a8
0b9e
f17b
f8fc
0f33
08bd
f51e
fc3b
f308
007f
ff2c
f83c
0d1b
f255
fe30
0f40
f195
fc7e
f0ce
fb9c
00e0
06f0
05df
f86a
095c
059b
f5be
f1ba
f691
04b5
f665
0d60
0324
f2c9
0327
00ea
0219
f1fb
08dc
0059
0322
07e7
f2e0
fe2e
03ca
04a8
fb60
0087
fc6d
fbd4
0859
062a
01a8
fe49
f98e
f598
060d
f9f1
fece
0323
0505
0b98
04e4
f7e1
ff85
fb70
f906
08f4
f7c5
f21d
0e03
0434
f5f3
0948
0dad
07c3
0eda
fa39
f66a
f66e
f7ec
fab1
f524
0a6b
0d0a
fc16
fc0f
f41d
0323
0ea8
f733
f298
f042
fff2
f3e0
fce7
ff73
f8df
f4b8
0c7a
04dc
fe2f
f74e
f610
f086
f2b6
03f1
0158
f5ce
0301
0447
06b3
00f4
ff5a
0a02
f644
0fe8
fedb
fb59
095b
f356
f758
093e
09cd
07be
087a
00b7
09e2
0ec6
fef3
f579
fba7
0dea
08d8
099e
fbe2
fa5d
0fb9
01c4
0c85
fa58
0186
f94b
0841
0da9
f6ff
fabe
fa73
08e5
f2a3
fde4
fc5d
082f
0b65
0824
0c81
07bb
003a
0cfe
f05e
0acb
04b3
0ca3
0828
0a18
0f8e
0ed2
01bf
0a4b
f0ea
fd62
00b5
fcf1
0c25
0c5d
0acb
efe7
021c
0462
f9a9
fd52
0306
f372
0ab1
f83c
f9be
fc70
053a
0b9b
0b2a
04c5
0a5e
024b
0ecd
fca4
01df
fdcd
0647
070c
fc8e
05b4
f33b
090a
0ecc
ff73
f587
02fb
faac
ff51
f507
f767
0938
f5a9
060d
f6e8
fea1
00f1
f4aa
0ff9
0324
ffcd
0386
0612
f989
05b2
054b
f370
fb46
f7b9
038c
040d
f594
fe42
04e3
f1b6
03fc
f00e
f2b6
f7f7
0d7c
fe31
0007
f5fb
08bb
0701
f1eb
0ed9
0bd6
0b25
06c0
f7a3
07fc
f103
f2f0
078e
10f8
f797
0826
110e
fde6
0ff6
0445
02e8
08c1
0bc4
09ca
f2ac
0d07
f7ac
0b13
0865
0c98
0ef5
024c
0e51
02c6
f2e0
00fb
f8d2
0091
0f95
f154
0286
10b9
0dbd
f40b
0e02
fdf5
f922
f783
0c2c
007c
efb9
ff78
032f
0830
08be
f6ce
0708
fe81
f51d
02f7
f9f8
0a29
fade
00e2
efe4
0e83
fe34
07d0
f8af
fcb2
05fb
0487
0c0b
0976
f982
fed6
fc2c
0adc
0453
f783
faeb
f38f
f277
0259
0cae
fd72
070b
f363
05d1
ff9a
01c1
04ea
03a0
f021
ffe3
0b20
02fe
fcbd
0591
0e4a
f6b1
0496
03fc
0532
ff4f
fdf4
f687
f540
fd40
0d97
02a9
f6a8
07a1
0ded
f31e
03f5
f31a
04e6
0b75
f685
f38a
f684
fbfc
036f
047c
f301
0173
04e2
f1bf
0cfa
f566
0157
fdd7
0430
f7a0
f82b
0298
0a04
04e7
f11b
f0b8
f02b
0d33
fcbd
fb74
f9eb
fb49
f0e3
f6c8
f12a
0fec
0c33
020e
0c67
08da
f7a1
0ada
ef27
f86d
0938
060d
f776
0785
088b
fd8e
f0ac
0f59
f124
f6bc
f390
fa82
0383
eff9
0c07
fe1f
0321
0cd8
0711
02b8
0c16
0075
0661
fb3a
f18e
0a84
f11a
0747
f72b
09f4
03f4
0cff
fafe
f63c
009e
f81f
0549
f627
00c5
0ce4
f001
0be5
03c6
00cc
f52f
fe34
f488
0a24
0315
f607
f96d
fd68
00a7
0333
0e3f
fd52
f490
0265
0908
fd15
f094
f501
056e
f0cd
0a8b
0dcb
0be5
f7d5
f4cb
fde3
0c9e
0eb7
01fb
f7e7
0980
ff5a
070d
f5bf
f288
f6ca
02cf
f18b
0694
0a41
fad4
f175
f461
0b93
f86f
f454
07d2
067a
0719
f0ac
0253
0642
fecd
fdd7
f3df
07b9
0778
fe99
0776
f964
0459
0ec6
0d17
fcdd
0925
0f2f
0e79
f468
fcce
fcf5
0088
f672
0084
07a0
0a34
ff9a
0a4f
f995
f8d4
0167
f275
ff2c
f05b
f81f
09da
fc2b
f597
ff4b
fdb5
f0a8
fea8
01ba
09b4
f44a
f0a8
0af7
fc4f
fe5a
fac6
f94c
f604
01db
0c9d
00f7
fd42
0fcf
0424
f36b
0335
00bf
f8ac
f1ae
0581
0a18
fe0b
0ca4
fa8d
0126
fe92
fe02
f91d
f657
07b2
ff38
f8ed
0e22
fa3a
03a9
0d8b
f84e
0b41
01e1
0bbd
fc35
fa17
06dc
fc82
f2b4
0b68
f2a6
f3dd
f93e
f7cf
fbb0
fb4d
f5ab
0d9d
f54c
0cab
0bf3
01e4
f844
ffa3
0ad2
0b14
02aa
ff43
0048
ffcc
f050
f25a
f44c
0b43
