05e3
f597
f395
064f
0b2a
0b46
08dd
0b59
09bf
0bfe
fef1
fb49
09c7
0448
fb53
f0d9
f02d
fdfa
076d
0ae7
f552
0b68
fd8b
0cde
0c38
0126
095c
0dda
fd60
02e0
fdff
01f1
f949
057c
f0f1
f464
ffa4
0bff
f217
0f74
0c99
f3e6
f4e2
f5f7
01e1
0f8c
fcbf
fec7
f2fa
fcc2
0549
f60a
0af7
f354
03e6
ff18
058e
f516
0a9a
f112
f570
0bcb
f635
f29a
0225
face
082b
fa94
0e58
f25c
fffd
f7c8
fd5f
064e
0894
035a
f515
0da0
0d79
f4f1
f537
01a9
0fed
f715
038e
0a0f
0c4f
f4a5
fe26
0b10
0a8d
f5d9
f8e6
f959
07d8
07a7
ff4d
01f0
fa0a
fe70
0a49
054e
fc7c
f0d1
0423
01f2
0598
0714
fa1a
088d
04d5
0888
f69c
0216
f8d7
0076
04d3
08ad
ff1f
f456
ff28
07c8
07e9
ff11
f2ff
f7a4
f209
0f52
f5d1
0418
fe81
03e0
0f1b
ff4f
05ce
fb37
0053
f54e
0e29
0e01
0360
f008
07e2
0ae8
face
0b74
0bb1
0c8d
f780
0ee4
09cb
018a
0d83
f63c
f870
f086
043d
f8a6
f6f4
03eb
fc97
f06a
0533
ff29
02a3
08cc
f9b9
0224
f445
0946
f2fb
0d4e
fe4f
fefd
fdfe
fd6c
04e9
fb66
080a
f9ff
f4fe
0f1d
0ad8
0d03
02c7
0366
0593
fb84
0bf0
f8f7
0d73
0df8
f87f
fb09
05e0
09e6
0cdd
fcb5
f46c
fe10
0536
066d
0a81
0ed5
07c7
0adc
09c6
04d9
f85e
0ee3
066f
fad3
092b
0455
054e
047d
f743
f983
0ccb
f825
f7e7
f3ef
fa97
0c71
0dbe
0150
f527
0f96
f891
0220
0fe1
0700
0f58
05ba
f6ef
f5b3
fa97
0d32
f398
f569
f315
f949
f182
082f
030b
f070
0bfc
0c4a
ff27
04cc
0cba
fbfc
f62c
fb51
0eec
fa10
fecc
fee7
f81a
0554
f0af
0775
f2b1
fc1e
0afa
f77c
f471
0ac7
f87f
fa70
06ec
fe5a
0586
fce4
fdd8
0b0a
09cc
0e4b
f858
fd91
fa52
f44b
0bbd
0095
08e9
0b7f
0ee1
01b6
ff0e
fe5b
f7a2
f579
087e
fb30
07ac
fb8a
03a6
f5e0
0703
000c
f76e
f00a
0b60
f1a9
04f7
f9b1
051a
fab6
058e
0ec2
f66f
f351
0cbd
0641
f635
fcef
fb98
0bb3
f2e2
f8ae
0395
058d
09b0
102d
0666
f375
f2fa
f27f
f5d3
fd49
09a4
f8b1
0a9f
fe06
0405
03d4
fc36
0c6c
f739
f809
fbe4
f1a1
fb77
0a68
0759
0ee4
0817
f4f6
f26e
f6d3
096b
f3ac
f0d7
fd97
fab5
0947
fb68
0840
f885
fa39
f72f
f536
06ca
f0ba
fd12
0832
0677
052d
0db7
f1f7
f4e4
f62d
f1d2
f300
fdeb
fade
03cf
fd10
f96f
f445
0c3c
0871
098d
f704
0283
fab4
f33b
faab
0116
0dbf
fb16
fafe
0f4b
f013
0ca4
07f2
0aa8
0503
f4c8
f487
feb9
f42f
0578
0497
f955
f80b
f5c7
0472
ffb2
0cfa
fee3
0ce4
0772
0320
0c3f
f17a
0d89
febf
fbb1
f4f0
014b
0607
0085
0623
f172
0841
0103
f2a9
0dea
0761
0689
fa8b
f136
f9df
fe6a
fd8c
f12e
f2c4
f775
fa7a
f7b5
fff6
0341
0b04
f6db
f317
fe8f
0060
f317
06d4
06aa
fe33
06d2
09fd
09c4
044b
f549
06d9
feee
0b3f
0add
fded
0441
014b
fb69
fb16
f8d5
021a
0c26
f14e
0881
07fd
f986
0bb3
07b1
fc12
ffca
f2ad
0f40
f806
0367
f0f4
084d
fb92
0402
0976
f3ca
fc49
0cca
0e3f
f7f2
ff4d
f1f3
0911
f1a3
fb50
ff17
fa21
f6cc
f484
03e2
f92c
039e
fe36
f8e2
f63c
05f0
f768
0fb3
f75b
f0eb
05c1
03de
018b
f8d1
faf7
0d12
f19a
0f60
0725
0a13
0b77
f37b
fded
0030
fabe
fea0
fe46
f6b8
0d45
fb9b
fd05
0401
fab6
fcb1
0919
01f9
fe1f
f368
f713
fa2d
fe3e
f7e6
f1f1
0d43
0499
fd9a
f6ac
fba5
fcf9
0481
fe11
00ce
f27a
fde8
0e1a
0ef1
07c7
0f80
fb1f
f795
fc48
fc8c
faf9
f53a
fdee
0c6b
06ad
0bda
fceb
069f
094b
f455
f2a5
f068
0856
f12d
fd07
0438
075f
0107
05b8
06d4
0b64
0b0a
fffb
0232
0a83
f54a
01ed
0dc3
f9a2
fcb0
0e62
038a
0e7c
feb3
fd21
f611
f0ff
f7a6
03df
f323
fd43
fd54
0c72
0dc0
f666
07e9
030b
03c3
013f
0350
f04e
010c
0254
f4be
fb6c
050d
0d81
f9ec
05f0
f1d3
0154
0597
f477
0aba
f666
0a25
fdd3
0f3f
00ca
f7e3
faac
0e0e
0b77
f5d0
0346
0c21
08bf
fbdd
0fa5
0ad3
fa3e
03bd
fc05
0cb1
0216
0774
fe67
05aa
09ef
f4ef
f55b
061c
fb21
061d
f649
f5f7
0400
07cf
f6d2
0028
f7ac
f6d3
0652
f2e6
044a
01ab
0dc1
0c4b
01b8
f773
fef0
0020
0a49
f43d
fc7a
f7c7
f9a2
fbaa
0aa3
08a2
02c0
02a2
00bc
f944
0e81
f21b
facb
083a
f051
0a23
0633
0a1a
0557
f5c2
f65a
f2fc
f8ad
f7ca
f7ff
f690
faca
f48c
08ff
052a
0776
0d8c
027b
fa63
0a06
f034
0113
0547
02e5
fab8
0bea
0899
0141
050a
f6fb
f2b9
0d69
fef6
fd4b
fd10
03a5
fb7d
f5d8
0779
09a5
fb2a
0529
0964
f93a
01b1
f691
f721
0720
0628
f7e9
f61c
fdd7
f631
fa99
fca3
f68e
0f34
f679
0afb
0789
f8c8
0ada
0f32
0432
fb9e
f6b2
0aef
01c6
f88a
f77f
031c
0774
f628
fbf4
07ec
0862
0bb0
0236
0996
073f
039f
f45e
0f01
fba5
f632
09f8
f44f
09e3
ffe4
0f0a
00a8
0908
