f15e
0fd3
061c
0e0a
fbda
0a07
0310
01ab
0bce
f18d
f3ff
049d
0de2
fab9
0a48
f6e1
0e1f
f172
f889
f38d
02ac
0ef4
ff31
0d9d
0e4e
fa60
095b
0662
f9bb
f219
fb77
f40b
f8a6
f787
f844
f37b
0b36
0d2b
f339
f5b4
0200
090a
f5f0
f885
f423
f195
f4ce
0eb9
f013
0688
0e05
fa95
f19c
0b86
f0c8
0fda
f0aa
f1a8
f431
f114
02d2
f12d
0b3e
0159
fc2d
f5a0
054d
0103
f89c
0503
0131
f2e4
0d4b
056c
fbba
09c1
ff26
0cfe
03ad
ff11
0af5
0f00
093c
ff47
0794
0174
fef2
07fc
003f
fdb5
05f6
f1b7
04f7
fe69
fde1
08da
02ab
07b6
006f
f847
f8c0
00a3
f53a
ff21
fcdb
0ba1
0905
fd2e
fc4a
06ee
fe41
fffa
0ccf
f922
08c2
f391
01ca
f625
f08b
fde9
f4dc
072a
fa2d
f96c
04fa
fd92
0152
0a06
00b7
09c3
fe4f
f389
0bf6
0247
02cf
08a2
0b12
f21d
0bbd
0116
06a0
0a67
0c62
0b53
0ad2
0052
0484
063e
0799
f5b7
0a29
027b
09dc
f0d4
0297
fa9b
0234
f478
f24e
f8bd
0dac
0a38
0472
ff15
f866
0904
0ee2
016a
074d
fe5f
0bf4
0425
fb40
0e88
fd4f
050d
f9b5
0687
ffb7
f9ad
f359
f6c1
fea3
f797
f433
f43f
fb9c
f269
03da
f0cf
0f1f
fc70
0fee
0dd8
0c34
0c30
f548
02ff
fe45
f7fc
f74d
0fe4
ff24
f57c
005d
fc72
f0f0
f3bd
0163
facd
02e3
fcf2
f3df
0136
0080
f6f3
f9df
fe56
f2fc
f8ba
02ee
02b8
f950
fc8e
f22f
080b
f1d8
07a7
07f4
f299
06d1
f7fb
f5c2
f469
06f1
f9e4
fe37
0751
03b1
f307
01e3
fefb
0843
f976
fc75
f684
0919
010c
fed8
fece
fa33
fd16
f92b
f4ae
f6d3
f49a
fbd2
fd90
f1f5
0ce9
fdcb
fa3a
0589
0cf9
0bad
f0ae
fb30
06a6
f2b5
0edc
f8cb
f846
022b
0d62
0db3
0f0b
f65e
fc5f
02fa
0e1a
fd43
0f94
088d
f514
0676
f05c
0e8f
0acf
03de
fad4
0684
0b21
f281
0195
0d04
04fe
0524
fd9d
0c72
012a
0528
0a8d
f7cc
0e08
ff31
0506
0b50
0924
0dda
0c6c
f0ca
0547
fbb7
054d
f1a2
02ad
f7e9
0ec3
00cb
05c3
0adb
f31c
0ff0
05b3
fa52
f699
02e5
0f71
f0ba
04ba
0886
0612
105b
fcaa
0e02
0dbb
02cf
0b50
00df
0ab0
03e8
02d2
fbf8
f14d
f279
0a2f
f167
0c1b
f53f
038c
0cd8
fcdd
0729
009e
079d
0796
fa8a
0744
0d2c
f8d0
efe9
ff05
f24e
0bb7
ff4e
0874
f65a
f78f
0559
0b6d
03b4
fde7
02ee
019c
0aff
0321
f2ac
00f3
f56e
f9cf
f94a
f8f6
07d7
f178
f2f2
0422
0c9d
f075
0841
fcaf
f68b
02e3
0182
0200
f146
0bc6
0b25
07d4
01b0
02f3
0ed6
0110
0700
0cad
f442
f2bb
02c7
0706
ee4e
0b30
f14f
fea8
f0de
09dd
02ca
0c8b
0e09
ff73
fe62
067f
0b47
fcb2
f11b
f8ab
0a77
f1ee
f755
ff84
fd66
fce6
100e
fe25
0073
fe7f
efdb
0212
faaf
ff41
0a89
fd93
fba8
f4f9
f9b8
06ee
f889
0674
02be
0eb0
0e70
f1ed
021d
08da
fc67
fa5a
f943
06bb
0623
0a4e
f5b2
01e7
f547
fa21
0cac
f799
fbcd
fdaa
0a62
eeee
f5af
02b7
f4b5
0391
f402
f36f
07ad
0b38
f560
fcac
f5e8
033c
08eb
07c2
f257
0042
0baf
f739
f4e6
0a43
0dad
fdd9
006a
fa7d
0984
f5c5
f9dc
f0ee
ffcf
f582
0cf7
fbc6
0f81
0429
f243
fdb6
f27f
fe67
f497
f435
f7b7
0cb2
faed
03bb
f1ec
f881
0198
f2c3
0eff
0d8c
0e93
0c09
f31f
f5e2
fc46
f275
f107
f1ac
0755
0aca
fde3
0903
0856
f702
0c6b
fc4f
f03d
fa45
019e
fe04
f4f4
0cad
f32b
f4a7
042a
0928
f0d1
06c5
016c
ff6b
0265
0b2d
ffd5
023b
fbc2
02c8
0953
f5cd
fe14
fe5f
02dc
06bc
0f87
f404
04d5
0c0e
08b1
04e6
0b8c
fd6b
0c0b
017d
f443
0bf1
0d83
f965
f492
05c2
fb8e
fe4e
0883
f398
fb32
07c3
fcd3
f5e4
fa10
f22f
0a31
029f
069f
fef3
0fca
f584
0e4f
0e9d
ef9d
0deb
0c54
ff2e
fa3e
f58c
042c
fe17
f89a
0c29
0637
f5a9
0c10
f5a8
0635
f305
ff01
fc87
f56d
0274
0682
f3e0
099f
f0c2
0df1
f145
0013
f01c
fb68
0305
f3b4
09ad
0bb9
0da9
f211
f761
0d88
fcaf
fa26
0393
f58a
ff81
faf9
f527
f7b6
f5ec
0b9e
083a
f952
0008
f479
f9a1
fa75
0839
fb8a
f283
0e70
fb64
f824
04ee
f90f
f776
f893
f2d9
0d5c
ff80
09a6
f147
0685
fe14
031e
0d79
fc59
f342
09d9
fa3a
023f
f99c
0654
06ed
f06f
f8f5
fbd8
f618
0bdc
f110
f115
f87d
05b1
0313
f491
f7f8
0c50
0c98
f86b
f65e
f4dc
fd00
011a
f7bf
fe66
fa81
0651
0788
f725
f498
03f5
ff76
0a66
0dcc
f7a5
ff45
f7c7
0ef7
f9ef
f486
fd5b
fff2
0100
fcf0
f736
f457
f608
ff46
f4c5
01b5
02d3
0cca
08e7
f8de
f32a
f65e
f78c
f268
fb3b
0c80
f1a1
0b7b
f85f
fadf
f332
04e5
f140
0908
1017
065a
f947
0030
fd6a
0126
0759
f75f
f6ba
0212
f3de
f7a6
0391
fc3d
0305
02e0
0d6c
f9f4
ff0a
fbae
0444
f433
f1d0
fff3
023f
f6a4
040d
07f7
f117
0897
f977
f7b8
fc32
f0fd
fac2
fdfe
f48d
035f
fd39
ff75
fdff
0e80
febe
0f56
002d
fba0
