f944
f11f
06f4
0a68
0859
0203
00ca
005f
f998
0448
0896
f000
fff8
0fbe
065f
0beb
04a7
0bd6
fd6b
f3b3
f936
ff04
f03d
075c
f853
062e
0c81
fac2
f5f6
ff7e
061f
0f82
f73c
f3a0
0124
0efd
f0d9
0b33
0b0a
f3c0
0ed1
004d
f789
fcec
097e
00cc
f545
f931
0b1b
f35f
f855
f1b0
0ae0
02bc
fac9
f2ae
f2ee
ff99
0883
f162
fe29
0862
fb32
003b
0a9f
fa49
0510
f0fa
fa72
07d0
fb59
f49c
024c
f697
0936
f0d6
0988
f67a
f801
fd1e
0b72
ffa2
fc26
0dc7
f45f
f7c9
ff25
fa08
ff26
f734
f291
f667
fcf6
f389
0721
f39a
fe91
0b56
fd50
f141
0a94
f8b8
fa30
f58b
0f1f
007f
ff7f
fa54
f441
0463
f04e
fa5c
0758
0561
0bd1
ffe3
fe0e
0ac2
f6a7
f1be
053a
02ac
fc21
05ba
0e5c
f15c
f546
fef1
fa96
07cf
06e6
07e5
f8f5
f78b
0132
f4e1
00a1
fbdf
0652
07fe
f1d3
f862
0a96
06b8
f409
fa34
fc61
f919
fffa
012f
f841
f7e3
093f
ff47
fb4a
f640
fb3c
0c6f
fe5a
fd7a
fa3d
0188
f40a
feac
fd85
0ecf
fa38
f459
fd32
0295
f352
0d12
f04d
035c
0c1a
01cc
f1f2
0c24
0c15
f144
01b0
0acb
0442
f0ca
fb6e
f1c4
0045
fea3
fdd6
f047
ffa5
f7e7
0484
f6b9
0f56
0736
08a5
0919
fc9a
071a
0472
f7c3
0f81
f318
031f
08ab
f957
f595
ff44
f1d5
f6d6
064e
fc5f
ff26
0920
f201
0cef
fceb
0385
0071
f4aa
0a6e
086c
f376
056e
f4c1
0df9
0479
f82a
03cc
0b71
07a6
ff6c
001e
f06a
0511
f160
0000
02ae
fe63
f9ab
ff3c
0c17
03c0
f125
0532
07a8
0f8f
f54b
0ff0
f6ba
f7fe
f5d5
fe48
0b0a
f027
fc8d
f6f1
fce3
02a9
f2a6
faf1
065a
f809
f393
efa8
086c
06af
f788
f916
07e0
004d
0a72
0c18
fec8
fc10
f3a0
f303
f6ac
fe3e
0254
f0ad
0b5e
0d42
0ad7
fbb7
feb1
f2ab
00d1
0b91
0aa8
0d4e
0499
0afe
f9f3
f952
0bde
0c29
fd24
052a
0083
0cfd
021d
fe71
0888
0d19
f957
0832
f3b3
f34e
0838
f9ee
fe61
f94e
0125
f789
ff3e
f0ec
f7cd
ffb9
fdca
0608
ff9f
0a9e
f8f6
fb2e
0031
0b19
045e
04d2
0ae3
f788
f26d
fea5
0fd2
0135
0c05
fb61
0d6d
f7dd
f215
0625
ffc8
f8d5
fcfb
0a5a
f503
f10f
08e9
014a
0e2a
f8d0
0cf1
f3b7
0dae
f05b
f21d
047d
0942
fc46
042c
f83b
00e3
f833
fb1d
f917
fba0
0230
07ae
f5b1
f84b
f141
f9b3
f3de
f3b0
09cf
05f5
fb2c
f51c
0a4b
0494
08ed
0835
f3cc
fac8
0717
fffa
fd28
0234
096b
03d4
0f82
f018
f7e0
f9a3
f85f
0265
f727
090e
0742
fcce
f9f2
fc7c
f6ad
f4cf
f7fa
f9dd
f832
0bfb
f912
f209
f17d
fb48
f6c7
0436
f1a9
078a
0556
067b
f406
01d4
fbc8
f714
fc0f
0889
fc60
ff1f
056f
f64b
efd7
0775
f979
fcab
fa89
fe66
0df9
0947
fbf8
f18f
0439
f7cd
0644
02a6
f4ba
040f
f0c6
052a
f81c
0ea8
f979
0f42
f61f
0931
f5a8
050f
f31a
0fc6
0df7
0962
fd98
002c
f5a2
f251
081b
05a0
08d5
0130
fc34
fb47
f517
f14d
012f
ff40
08aa
ff2d
f778
fee4
ffb0
fb5d
fb54
0311
f9f0
092a
0609
f40a
0eb1
06ec
f178
fdc9
fe1b
0102
0b35
fdcb
fae1
f5fd
0a17
0ce2
fafc
01bd
088b
fafa
f9b0
02a4
0df3
020a
08b7
0655
fe0c
fa3b
0e9f
0774
f866
104e
0d48
0bc6
03e8
042a
fbc9
0f02
06da
02cb
fb79
f12e
0d57
ff4f
0d42
f936
f0f4
fede
05d3
0747
f4de
f790
0b23
0820
f032
f91d
fa7b
f879
0f28
fa4a
fd00
f512
00f6
061b
02d4
f3a4
fdf4
07a0
f242
030a
f773
f69a
0fd9
062c
f6ef
0b60
07d7
f0e7
fa8b
08e4
0b82
fb48
089d
0cfe
094f
0706
0bf6
fd47
0f8d
0fc3
f38b
faa4
f84d
f09e
fc40
f93e
f7a1
0306
fa0f
f75f
fb86
f7d2
fa40
fffc
0354
fcdb
0ff0
06b1
0bca
f413
fad0
092d
fda4
055c
fc99
f7d2
0cf6
0ed3
ff5d
03c7
09d2
05ce
ffc3
0d15
0a78
f67c
017d
0ab0
0404
0e75
06d0
07ef
0a7a
0677
0e0d
fbd7
04c9
ff09
fd9c
06bb
04ff
fadf
fb2e
fdac
fb16
0cae
02de
f390
ff32
f561
f5f3
0001
f277
0679
fbd4
0998
016f
0318
f9ec
f72b
f724
fcec
f231
f677
f6d5
0ae7
0e95
f139
07c7
f249
f6ab
0d54
f547
0043
0105
f28b
050f
f0c4
fc20
0a2e
fd11
f7a2
f400
0571
05e5
02a8
0c83
0b1c
0963
09cd
09b5
0e2b
f940
0963
01c6
f518
0eeb
03db
012e
fa7c
f645
fd31
0005
efcf
fcbe
0ba6
f216
030c
f7e1
f6a9
f09e
fb00
0f65
05be
f3a8
f061
03b7
f792
0143
0209
f10c
fcfb
f8d8
0480
0568
fce0
0db7
0e83
041a
fb92
f057
fd22
044f
0c4a
0885
0528
f810
fdc1
0866
f78e
f310
0263
025d
07f2
fb65
fc73
faa2
f959
fe84
f548
06f7
014b
f0cd
0763
0ba0
f146
f0bb
fd2a
fe49
fd79
f04f
06e1
f1c0
060e
088e
f26c
04be
f5b3
0b02
03fe
f828
fe7b
000e
0cf7
03bf
fd8a
0df0
fceb
f2cb
fc81
f103
0632
0a7e
07b2
f8bb
f292
0887
04e5
f545
02d2
0c55
fec9
faba
0a19
0352
0f71
ff8a
0a64
079f
0898
f604
f77c
091d
