0677
0af3
f7a8
f1fa
0be1
f118
fd9a
f43d
090b
f116
fa3f
fef4
04e6
071e
0154
fdbe
f988
f6a5
0baf
f0c0
01db
f9e2
f42d
f423
f6d1
0a50
f798
fa38
0748
026f
0b72
f830
0d12
0100
f531
f497
0ce0
01fe
0bf9
0bf4
05d2
04a2
0cc0
00ec
f418
f83b
f8f4
fd84
fb96
0929
0b3b
fc43
fdfd
0498
f85f
f5fa
f2c4
0c4c
fd42
f1e3
079f
01a7
f91c
fafd
0db6
fa46
0d0a
03e3
f31a
f8c1
0781
0a4f
f53f
fbb4
0918
0988
007e
f567
0d70
00ea
fd8b
0fd9
fc27
0cb6
f24c
ff0a
f3a6
0b39
fec9
f169
0f4b
01f7
ff38
f08a
ff91
0cc8
f177
f922
039a
f180
0670
f8e2
0bac
f29f
fdae
0c90
fa9a
0083
01c2
fdb4
f95d
f797
0772
0521
0ea4
f30b
f885
061c
f8fe
0043
0a36
07f7
0235
f2bb
f62f
f66a
f31d
fa27
feba
f4fa
ff10
f6ae
04a6
ff20
f718
f756
fc3e
00dd
fb73
0209
f6cc
0c71
f901
0147
fdda
0730
fdb8
0fec
f5cb
fdf1
f6d9
fc48
028c
0b36
0c97
0ad8
fee3
017d
06f9
00c5
006b
fcab
fde3
0800
0381
0744
031e
fba1
fe25
09f6
fb11
fabf
0bf2
0736
fdb9
023d
fe23
f042
f807
0c96
f743
f3be
064c
f7ef
fb31
fec4
f0c5
0ae5
08e8
f67d
f5d6
0188
f72e
fa80
0ae8
f744
047d
0ce6
fe32
f8c3
058c
f95a
0ea8
0c04
00e9
101d
fa87
0b42
0422
0c55
0a50
0197
f00a
f523
056f
f6b0
f2a7
f4cf
f613
0279
f006
fd72
0613
0981
f10f
0265
f622
fa44
04a7
f0a5
f06f
0ef5
0dec
f1d6
f43a
03d3
0c7a
f77d
00d3
f5e3
f802
f03e
f6b7
02a9
03cf
f210
0f91
0afe
f57c
fa99
0485
0aa8
0e0b
f9b3
f538
0cba
074b
0d4a
05ce
fd3c
0d9c
fa38
0cb9
f9fd
0a62
f04b
0c7f
01ec
fdbf
0741
fdd6
0a98
f144
f72e
fd45
f285
0058
f50e
072d
095d
fe56
0bcc
0975
08ad
088c
ff1f
faba
fc16
fa92
0823
0bb8
f92e
fce5
010e
0cfb
0f79
106b
fa20
06d6
05a6
0524
08e9
009e
092d
02c9
0af3
04df
f983
f2ed
f3da
fc4e
fe92
0ec8
f86d
046f
0920
faeb
0cce
f534
014c
04bc
fcee
03da
0145
efbd
01a4
fb7f
013b
fbd1
0481
02e2
f7aa
f90c
0be8
fbf3
0083
fb86
f362
07ee
f41e
1055
0dcd
05a4
0210
f831
0e7a
f01a
055e
f73e
0694
fc3d
f04d
fd93
0518
fa1e
f31f
0ae4
00af
0e11
00ca
f20c
f40a
f3b7
f6bd
06b6
00c7
ff6f
f799
f782
f995
f529
0897
ff75
f049
0443
0293
ffe5
0b8b
0643
0bc2
03c9
069b
f121
03c5
fba6
f1b5
024f
0790
026c
fbc4
f951
06fe
0a18
0ee2
f088
f730
f5b0
feda
f655
09b7
f38f
04b3
09d5
04bb
f0b5
0c8c
fda8
0090
00a8
07bb
f31e
0290
087f
fdb1
0432
f8e9
0f9b
feed
0596
0907
ff6b
0325
f17c
0ad1
01df
f739
062c
0bbf
f400
0498
f830
f789
06b9
05b7
f6c2
f177
f843
fd93
0a42
f18f
0dbb
f256
fe08
f09f
f427
f229
0df6
0b94
f87d
fa4a
0214
fe9d
053e
f6a7
01b0
f9bd
f038
0b8f
fd0d
f6ad
0185
f6ec
06ca
0289
feae
f3bc
f4be
f5e5
fbdc
f1ac
f879
02a1
fffb
fcee
08db
f944
0172
0540
00e9
0026
08c2
f368
06a2
f772
0a3e
093a
022d
ee06
0b12
fb9f
f9b1
fc5e
f469
0983
f4a4
0672
0c64
0a27
f9b9
fe69
0acd
0e60
0242
0f0a
f843
faea
fb82
0835
f98e
f436
04df
064d
fefe
f0c5
070d
0409
010d
090e
0e58
faa8
09f0
0f44
f9e4
f3ff
f2e0
0852
f789
f036
0993
0ccb
f9fa
0d42
0034
f2bf
060d
f80a
0562
f7e7
0f3a
efe3
0978
02d7
f4b2
05f3
029d
ef76
f8d5
ff08
f637
f84e
ff8a
0611
01c3
f20a
0052
f5b8
0225
f0d8
0d73
00a7
06fd
f3fd
02fa
0847
ff4c
fcd9
06bf
0774
fa0c
f689
f7da
0479
0b27
06f5
fc79
f44c
09f6
0e3b
fbae
ff52
fa01
f7a5
0aa1
0a71
f9c8
044b
0c50
f066
041f
05e4
0fad
f9fb
062b
0f0d
f3bc
fe2b
0d1c
f68c
0800
fde5
0777
f822
0a44
0496
0111
0142
ff46
0c1d
f6f6
f878
f92a
f069
f2ea
ff39
f527
0754
0ba5
f09a
f55d
013e
0af6
0c42
feef
f2e2
0d2e
02dd
f3c1
f0ba
f4ca
ffad
07f6
fb4d
0b79
f14f
079f
03af
094b
f25f
f93a
fdbb
06f8
0fb1
f773
fa8c
0c40
f3ba
052e
00f8
fd1b
f882
fadf
06f0
f77f
fa4a
fcc4
0c53
f3c4
05ab
f0d9
0afb
0a29
f2a9
0895
03e5
f1f6
f495
f7ae
f82a
fa8b
f4db
fb1d
05f9
0bb7
f3e2
fc39
fca1
04e1
091d
0e84
fb47
ff63
0e72
fc98
fd96
fe9d
fab7
08bc
ffee
0fb4
017f
f36a
f7d6
fb1f
00f3
f09c
f263
0bb4
01c3
f9a5
fa01
015f
0095
0b3d
0c4d
0738
0dc5
fad8
f259
f392
01d3
0b50
0344
074e
0f6b
f472
09fc
fd17
08b3
0fdc
00ea
0cad
f5ff
fe9c
0352
063b
0748
035f
0724
ff3c
09d6
ff8f
f5fa
0bf8
fcfb
f314
fc21
fa33
f64e
fcaa
f866
f882
f20c
0890
f876
01d0
0c1b
0384
f3ef
f367
fcd7
08c5
f3bb
fffb
0c37
f2cf
f81f
fa90
fc5d
08b3
066b
f5e2
02df
f572
0887
f962
f441
067f
fdcd
0723
0344
fac8
0616
0cd8
f2c0
fb55
0555
f526
0c26
0bcf
fc3a
fcc9
0141
0e4f
fe08
