0b27
f13c
f83a
fa74
0d30
f4c2
07ad
fbc4
f7cb
090b
0225
fa67
08a6
f153
0607
fe68
05c4
f367
fb0b
0e2b
f45d
f82e
0238
fa66
fb0e
f82a
f9aa
0bf5
010c
fc47
f725
f972
f9b0
0614
f599
03e8
0b76
009b
0f5d
f55f
0e6b
f137
0cc1
f04c
f0ef
04e6
f87f
0df6
0065
0e0b
f6b8
f9b4
0ee9
f65d
0e11
fb3c
0bd9
0fb5
04e7
039a
fd76
0205
0e78
06ad
0128
fc77
0fc7
03c7
f397
06bc
04bc
00c4
f523
0074
0879
0f5d
061d
fdf1
fa48
031f
f4fa
f4e2
06c9
f849
05eb
0aa3
0c05
0516
f679
f376
fdb8
0a2f
f65b
f5b8
f7f2
0f3f
0bbc
f4c7
fd9b
f33a
0883
0781
f590
03cf
f9e1
f765
fedf
05ca
f76e
0a32
085a
0b5d
fb1d
fe49
0619
fb65
f206
0ea5
f232
0230
f1a5
0fe7
fa77
062a
f955
f6ea
f8c5
0a5b
089c
f5e2
0f41
03cc
00e0
0e4d
0613
099f
03a7
0b5f
f9ce
0923
f036
0b6e
f314
f78e
0ec4
0f98
f1e5
f2a1
01fe
fad7
1007
0cc3
fed9
07f9
0565
f10a
09e1
006f
0a99
f38d
f4f7
0361
0a1f
f156
04bc
0fa5
0f97
fdab
fee4
023b
f3bf
042e
06d3
0957
fbb5
009a
f5ae
fa06
f209
f2db
0327
0498
08c9
fe9e
0289
f927
f750
f987
0111
fcf6
f0cb
0a7f
f768
f95f
0679
03e1
0923
fd38
f4c5
0ca3
0532
f9f9
fbc6
f6ba
08a9
0511
0711
0968
f37f
0410
0392
f678
f9e5
f94a
02d9
0b83
0f1a
f3d1
0af0
f888
fa00
ff4d
f252
0818
0d63
f6f6
0a8c
f8c1
00a6
0370
08cf
fd77
0384
0a1c
f058
03de
0c7b
f5c5
025b
0043
fb19
0e31
f5a9
08e7
f098
fc03
fcaf
0237
02a8
f7fc
fda7
f78c
f6ed
f5da
fd5b
0971
0e84
f561
0e62
0e30
0499
01be
0270
0893
f1db
0022
f7e4
fcff
fb8e
0635
0381
015e
f76c
0c6f
f5f6
fcc7
f39b
f944
0fb5
f232
06e0
0183
fe88
f270
0a65
0f8c
fcb0
fc40
f3ba
f738
03d2
f2c1
0f95
f50e
fe7d
fa82
020d
f6f8
047b
05fd
0a58
fcbf
fdec
0c4f
f310
f72f
fdf2
00a3
0dc3
f6a7
fd65
066f
f0fb
f803
fb9b
06d4
f41a
f6e2
07bf
043f
06db
07f4
0e05
060a
fa89
fdeb
f29e
0716
0dd9
f2b1
0e98
0c8d
046e
0a34
f87d
053d
0de9
049d
fcf4
0cb0
f210
036b
f7b2
fcbf
0a29
f0f4
06fe
fe21
f8a2
0de3
f6ef
fb61
00e6
0f07
f7de
0316
f5fc
f7f6
f72f
08e9
f93a
fb6e
078c
fb19
f10d
f011
f938
04eb
0d31
f36d
0b6a
087d
f588
ffc4
f36b
efba
09ff
fbf2
fb38
f6ca
0c27
0c78
fff4
f9c6
f2a1
fa85
062f
017e
0ee0
0d4f
f516
fe82
035d
fa64
ff8b
fca2
fc7a
fc7e
01a6
f486
04f9
050b
fc29
047e
0943
ff57
fa2b
f90c
095b
f9b5
fed7
f23e
f3d9
0604
f81b
091b
1060
0304
0e27
03b4
f505
ffcf
fce6
f43f
0fd5
f52f
f597
0b1d
fd0b
f587
f9c9
f1b4
0fa2
0a42
f27d
ff13
000d
fb7b
f728
0431
fee9
fd65
f807
01c2
f493
f2ba
fa86
063b
0bd7
0538
f30b
03fb
ff07
fceb
0ee5
0f51
0e2a
f550
0918
fe8c
0e6e
0ca0
f5d0
fc5e
fee3
fcd4
f0dc
f15a
f5aa
f38d
f36e
fbfc
06a5
fa81
fee8
fa36
fb9c
f1e5
0b47
0ef1
0423
094e
f63e
014b
0dcb
f8c5
f34f
0816
f1ec
0115
0c6c
f4aa
fcc8
f745
f3b9
0e23
f2e7
f578
01d6
f9bd
0175
fa2d
070c
f01f
f530
fd0a
000a
f0e0
f0c4
0530
fb5b
0e0d
f32d
0fd1
f582
f977
f401
f0f9
f87e
05a4
f401
f9c4
f940
0a5f
f140
02cc
f400
00da
f108
014a
0828
0526
0258
0672
0b72
f3e4
fa89
ff32
078d
0967
0cbb
00f4
fe8a
fdb9
0351
0374
05a1
096f
fa3a
0c56
036d
f470
fd86
02fa
f2fe
f2df
0615
fffe
01a7
ff7b
0074
0777
0980
f532
09a3
053c
f4fb
020c
05c9
f9da
f649
024a
f815
0c20
fe59
fd31
0fc3
0e77
1001
f287
084b
fbbb
04a7
f9fa
fee2
fd11
028b
ff66
0ad1
0cd6
fdb1
02b2
f517
f3c3
f49b
02f9
f961
08c4
ff57
f8a7
f18d
f194
0c5f
0370
fd4a
0275
f29e
0018
fbcc
0bf1
0cd3
fffe
fbce
f29c
0a9f
0209
0182
f83e
0b26
0698
f417
0f53
fc9c
0780
0092
f811
f854
f427
f367
0a61
f5da
ffad
05a1
0526
feca
09c4
07f7
0b0d
04d3
0c16
0428
f06d
023d
fd64
0e82
ff79
f138
f04f
f8cc
f5d1
095a
05aa
0346
0577
fb33
082a
f2da
fdfc
efff
0fb9
f1f9
f8a5
ff56
fbb8
f1f4
0148
0dae
fb53
0536
f892
fa36
f15a
086a
0ef4
033e
fe66
04bb
0ba3
005b
0db5
ff92
f289
fbb0
f357
0eed
fb04
f80f
f414
020d
0b04
f1ab
f959
0246
0d57
fc06
fc0b
0ab9
007f
fac3
f67d
ff62
0a39
f788
fe2b
f2ec
f0b6
fd6c
0c25
0448
08a7
f860
011e
ffb6
f123
0911
f986
01ff
f017
0cc0
0fbe
fb1e
f85c
0c4e
0405
f757
f75a
0805
0856
07d9
09a1
0d36
0c97
0c45
023c
0441
0147
0bb0
fa9c
f482
074b
ffa2
f8a9
f2ba
ffe6
fddf
06a4
09f8
f1e4
fba0
0439
fdf2
f260
066f
f794
fb22
0345
fcfb
fad9
0ce3
f82a
ff05
fbf7
f6cd
f541
03fa
0c95
f884
0eeb
f7d7
f0c8
0017
02a3
fb7d
0de4
09cf
0b72
0800
05e7
f9a6
0e60
f039
f2ac
f508
fadf
