0b8d
f005
0527
f141
0be5
f40a
f9ef
f0cb
0d53
01a5
07b7
fafd
fa23
0dce
0a37
fa40
0c95
fc02
0be4
0b9e
f656
fa13
0a25
f71e
0621
f8a7
fc58
f8d6
0c35
fdcb
fa70
f2b5
0846
00d4
0777
0dbb
f4c7
f1fb
f628
07d8
ff73
f283
02ba
09ef
0241
f90e
002b
f032
fc2c
0abd
ff60
f051
0e35
0fd6
0a52
f721
0f5c
fa7c
f32e
fcfa
f444
f96e
0986
f47b
0dd3
f458
01c7
0a9f
fb73
0408
0539
0f43
0a34
fa4f
fd4c
09cc
f360
0262
00af
f260
07e2
f3d4
031b
08d5
07df
f9b7
081b
f5d2
f939
0017
f225
015c
f95f
07f5
f25a
0a4b
0e52
fbcb
0340
f413
0e45
f3fe
f50e
f6de
f3c5
fc2a
09ff
ff0b
00b0
fee1
087a
0626
fd2b
f950
0a1d
07d2
0a31
0f3d
f15c
0963
0e22
0ae5
0677
0794
f871
fd00
f57c
f7de
f330
ef6c
0a42
f096
f905
ffbc
f4c4
0a5e
f433
f8c3
00f1
0fb7
0ae7
047a
f60d
08bd
fb4d
f111
f920
063b
0ec8
f960
f841
fc5c
fa61
0d78
0b5a
0d1b
ff8b
0346
f647
f1ea
f815
fe1f
0cd5
fb5f
f530
0d4d
f466
fa38
fe37
fdc1
0e77
0577
f8fe
0d23
f0e8
f294
f54c
0548
fbfb
0286
0e8b
fcfb
f006
f398
00b6
fc49
00eb
f888
f8a2
fbc7
fbbf
0e67
05e0
0b59
f66c
f94c
fc26
f81e
fe4a
0f19
03b9
0310
fec8
0a9c
efe0
050d
f83c
05b7
0e07
f5a8
f836
084a
f61a
0e40
f5e6
f1f3
02eb
f56a
0cc6
fb49
f741
0c28
f65e
fa4c
fe24
f93f
fab3
0117
09bc
f20e
02b5
f7d7
0e9d
f91b
066f
0680
090e
fe16
f0b0
fc76
0330
08b4
f301
0991
fc75
f6f5
0316
0642
0a76
0538
f54f
0d95
00de
0845
f04a
0bf4
053e
fed6
0d36
032c
f604
0628
f417
0340
fe8d
f848
0625
f7e1
fde4
f713
ff32
fb58
0c99
ee63
002a
f1c9
f24f
eec6
ff7f
0623
f75f
009b
ffd5
f130
f729
f8e8
02ca
ff00
fda9
fe90
f8e1
01e5
fead
0415
007c
f2f4
06e7
1012
0b53
f463
0339
02b7
f034
045d
f49a
0ae1
0366
f975
07c8
f429
00cd
0020
f177
0943
0178
fb8e
0fa6
08a1
0cbb
f8ba
f252
0491
0448
f71e
f677
fdd9
135e
f644
0c0a
08ed
f8d4
f82c
01b9
f683
f85f
f32d
01b8
0128
fa4e
03ac
ff25
0340
f290
f4eb
f994
02aa
0891
0b35
0caa
00dc
f251
ff85
11f2
fb22
fe08
07b9
f9e9
0faa
f7e5
fe01
fe40
f414
0a47
ff96
ff80
f243
0e8c
0713
f5e7
f337
f877
0bc6
02da
085a
fff7
fed4
fb44
03c2
f043
fb05
0ece
054c
ff22
119c
06ae
020d
f44f
f280
f111
0b3d
0e0a
05d3
fb85
f395
f097
0262
f4fe
f8be
0147
060c
fbfe
047c
1224
010d
023f
f26b
007a
f712
0b0d
14dc
09ff
02e7
0378
0345
f2a4
fac1
0e15
fc55
058d
0b02
050d
f38c
fd61
0e1b
0e4d
fe52
fef4
feea
0dde
f9b0
fc90
1141
f668
0167
0c77
faf5
128c
fd1a
fd80
041d
f67c
f9d6
0c8c
f273
0e24
f0e0
0cef
f346
098a
f2dd
fa74
f321
0665
fe8d
f927
00b8
05d3
0919
0d6b
01cc
0e76
f957
0f18
0868
06c7
0801
087b
0828
0705
fc41
f8c2
f28c
004a
058a
f2d0
0ec4
0e26
08d7
fed7
0095
054d
fb1e
f11e
09fb
0380
0d67
0a3b
0823
00fe
f5c9
0590
f982
f766
f89c
ff11
ff00
09b9
02ab
f8c2
f7f9
fd98
0713
fba5
ff6c
09e0
f78a
f116
f4c1
fe74
0b1e
00c9
fb90
f185
fcf0
0ca8
fa44
09d8
f4bc
f5bb
10cb
10b9
f2a5
09cc
ed52
f5e0
fed0
0612
0cde
0ab0
f57b
f501
03b7
01ff
f6fd
087a
fabd
f620
fb99
0508
ff91
fd8c
fbe0
08f0
fd96
fa6f
074b
0341
0f27
fb1b
050f
fcc9
ffba
08ad
f606
03ed
f87e
fa84
04ff
0560
04c2
ff1a
ff1d
072d
0226
f994
fe24
0ca8
fc23
ef74
0c64
f862
f261
fa86
0a5f
0657
f4d3
f35d
030e
ffcc
fc71
ff44
fd86
02cd
ffd6
f69d
06cf
fdcf
0d38
04fa
0b3c
fb02
ff33
007b
0d31
0a89
0687
f8ff
0898
feb4
ff95
fea7
f47c
01ba
ef81
0ab7
0c96
077c
fd1a
ffba
0d28
f2d3
0d3d
f5c9
0b8c
f10d
008f
fbb5
0d55
fe04
f955
fe5d
faf3
f821
fe5f
0779
0cfa
f9f0
ff64
fd13
0cb3
0c5c
f8ee
f0ae
f325
0d7f
fef2
f371
0c73
0faf
f959
f540
03ce
0b32
0b8f
016c
ff7a
fb95
f39a
fa8b
ff59
0514
00f1
022d
0dca
f06d
0066
f414
0504
0295
f715
04a2
f2af
0cec
0fb8
f9f3
f4c5
0c9c
058b
f65c
f245
0dec
0c6c
0c9f
0f7e
f353
fac2
0bd1
0c39
f07f
f06f
f6f1
0325
0319
f458
fdef
fa18
fd3f
f1b2
f598
f9b0
f2e0
02fd
0922
f4ff
0ca3
03ac
f080
0838
f3b0
0ef4
f52b
0293
f562
f54e
0cff
fe92
091c
fb13
07a3
faf4
04eb
f90b
06ec
f105
f569
09c1
ef56
0cb5
0df1
0f93
fb04
0479
f32b
f103
f75c
f248
03f2
fddd
0398
01cc
066f
fb5f
014c
0315
0d00
f9c0
0c9b
0966
f5ac
075b
0eb8
08ea
0351
efe2
07b2
f303
f4b1
fd40
0b8a
08e3
fec1
f569
0eea
019b
fe3d
ff8e
08b6
0da6
0cdf
fcbb
f875
f711
0118
06b6
f52c
0f0a
f576
0df1
0964
00b6
061d
0d21
f0a9
f3b3
0629
063a
f45c
f710
f1d9
0357
f9f9
fc03
f1f2
0603
