034c
facc
09b9
fed7
08f2
05da
0887
0f73
0c1e
fa8c
fa99
f931
025a
fbd5
f65b
f974
0645
086c
0882
041f
f2ad
fd84
f442
fb0c
f1e7
f30a
fc17
f28d
f950
f426
f77d
f1f9
092b
fbb1
f20f
fe77
053f
07de
0163
0760
f939
f6e3
fb54
06a1
f1ce
05b5
02e7
092b
0e52
0386
f45d
0ea7
f621
fba0
f220
017b
f02e
f0c4
f770
0cb4
f7a1
06dc
0879
00d4
fe87
f084
08b6
0314
00ac
017b
000a
0adb
f4bd
f5cb
0a92
050c
0b83
0cc5
02df
fca2
f4b5
f9a6
019c
f362
f0eb
0a77
f117
f256
f53b
03bd
0096
f5f1
f56a
fd2c
fe58
fdf6
0e44
f091
f456
f447
0198
f7fd
fa94
f41c
fcc0
0b07
0e3f
00fe
0a5b
0a35
08b7
f312
0403
f0a2
f475
f0ef
fe37
f474
0179
00c9
04ab
f9e5
0993
ff2c
f52e
fb18
f700
0f14
fb87
f534
f45a
fa8f
090b
ffdb
fb2c
f260
fe26
041b
0f11
fe3d
f5db
f69a
fd5d
0558
f6f2
0903
0ad1
00fb
f5b3
0707
0f61
fcd8
0476
f45c
0a78
0d65
ff86
072e
f88c
082a
06fd
0158
0fc4
0cbc
0b75
f473
0bc0
0af4
f8eb
f006
011d
f00a
f04c
f0ab
f427
f8a3
fd5e
fdfd
fcdc
0851
fd32
f175
0c64
f577
0bd9
0c24
f72a
f3d2
0ecd
0f24
f48e
f650
0b05
039f
05cf
02b6
014c
0f21
fe37
f20e
f146
feb0
0cc3
04b8
01c3
0104
0b5b
03e5
f0d9
f744
0965
ff53
f2b9
0c21
0153
0029
0e98
fff3
f6c2
faeb
0d23
02f1
f19d
044e
fb0d
fff2
ffcf
0c4e
fb1f
0174
fbd6
f329
f722
f4ca
044c
ff10
f211
07ce
089d
0d10
015c
0589
f3c7
09b6
ff24
f89d
0785
fd95
fce2
0ecc
fd44
0208
08bc
0a36
f28a
f78c
0957
0d16
fcff
03c6
f70e
09e0
002e
f1e7
f074
f444
0189
ff5e
081f
031d
0113
042c
f70a
f14b
fc03
0ec4
0498
0d87
0d88
fa2f
043c
0bcb
0507
0482
0eed
04d4
0db2
0d23
05da
1078
0591
02b1
fbb8
fb35
f17d
04e3
068f
08c0
f670
f5dc
f636
f18b
0f29
05ac
f59f
05f1
f73c
f141
fafe
0ee6
f496
09f5
0f94
00f7
0316
f719
f804
0cc0
f573
0fd2
0df6
fe50
ee48
0a73
ff9d
f4a1
f3f3
0600
06f6
f2a8
f35d
ff13
094d
fcca
f019
f4c8
0b95
fea7
fe7b
0254
ff1e
06aa
f1a8
f475
fe68
0a65
0f64
0b25
0e8c
01b5
ff9b
097f
0c85
f924
fbd2
072e
0618
f984
002a
fcf0
05ee
0065
ff1a
0e45
086c
fd2e
0909
0ece
f956
06f7
07ac
fec9
07c8
04fb
0dbe
f79f
1016
06ef
ff8c
fdef
02ba
0269
05a6
f2fe
f77f
04b9
0f27
f69d
f966
f2c2
0589
f94f
0fd4
fc6f
ff83
0658
f573
ff45
f217
fc3a
01b9
ff6a
fbb7
030e
ff2f
fc9e
0941
fd85
fa57
fd18
fff9
fc88
f64d
0bd9
0cb3
f8fe
0961
004d
04d6
0b3d
056c
f43b
f44f
05ad
0818
f02b
0aa5
fe9a
fb8c
0603
0bfc
fb3a
0201
09f0
01d0
f7f5
0838
0862
f3b1
fd57
f5bd
f107
f0e5
f15e
0022
00c0
09dc
008b
fe0d
0fb2
f451
0ed7
0b82
fcba
0e85
ff47
f096
f4da
f197
fecb
0e1e
f969
0ed9
f2e3
fb50
0242
030e
f203
f6ed
01c5
00a8
0abb
fee3
0181
f55b
ff17
02df
f3ac
054b
0268
0e36
0149
fd99
047b
fd32
f49b
0daa
0ad8
fec0
f4ce
f6d8
f4e1
f1cc
087c
fe6a
fe85
f9eb
f5c4
03df
0283
f364
0c1c
f6cd
f79d
f21d
08ac
0dee
0f7d
0f34
f06d
1035
f417
00b9
0b0e
f78c
f514
fee6
f5a7
f0a0
f31d
fa72
f5db
f251
03a5
f11f
0296
0118
fda8
f1eb
ff39
f10c
01cd
0c5a
fcf1
08e1
fac0
f20f
06bc
0ba6
0036
fd7f
0cee
0f61
0ed7
05c6
fbe3
00b5
0d6e
0160
f567
f378
06e4
fb46
07b1
f3a1
fc72
f115
fb79
fef1
0b62
f2a9
fff1
0e2f
fe96
f42c
0c92
fba7
fe07
f56b
f113
f0a2
f70e
f917
f2a0
0de1
f92b
0f5b
f7d3
f8e6
00be
0a28
0829
f65f
f2b7
07dd
09dc
fa8d
084b
f83d
0921
f714
f949
07dd
fe56
02e2
01fb
f6e3
0c56
0c34
039b
0f13
fd63
0b69
ff2c
022e
083e
ff7a
07a3
f5e2
f194
f1d5
f59b
f1b7
0b76
f01d
072f
f8b2
061b
f9ce
04f7
fc01
005e
f6c4
ff72
f4e7
0f46
0a7f
0910
0429
0037
0e56
f865
fc4c
01df
f963
04d5
061e
0f5f
098c
03b9
f3d3
fd2c
0bc3
f32a
f7ab
0a55
f544
0a65
f05b
f2d1
f567
02e1
02a5
09f2
f9da
f7a0
0305
f552
fbfc
035b
07f7
f575
0a64
f645
0453
f3a4
f1dc
0da9
fd40
0955
f756
0607
fe3d
f5ea
fc49
fc0b
0df5
0f5f
fa34
fc1f
f173
f23a
f144
f403
f256
07b7
fdc6
f8fc
0bb4
f5d3
f777
0122
0c93
f2a8
ff63
0231
ff2f
f1f5
0459
f2af
f2ee
f27c
f3fc
fae4
0734
0204
f936
0e11
0327
f3ea
004f
f7bd
0a20
03f5
ef68
f58d
f652
0750
f84f
f78f
0a57
ffe9
f6ce
03eb
f2de
ff91
f509
0e93
fd8c
f151
07b5
f532
0b43
f7d3
fe0a
fd26
f010
08aa
053e
febf
fd03
f046
f9ac
f7e7
f4aa
f2f1
f2c5
041c
0d98
f6e3
0d19
03a7
079f
0571
0254
f311
f1bd
f75a
f56e
fa2d
008b
0094
0a0b
0482
0c92
f306
f228
fccb
f160
0b82
052d
fc2e
0325
f30b
fbe2
066c
f819
0a03
03b1
0843
f7be
05d0
f2a5
fe51
