f231
f133
f6cc
fdd7
f02e
f370
0346
09fd
f120
f261
0740
0891
fe28
f435
0c02
0bbd
f642
0d72
0f5e
07a8
00fb
0cfd
f7e2
0e61
02ca
0dbc
0b34
f13a
09e5
f577
fb78
0aa5
f049
fca8
f1fc
02a0
0069
f268
08b5
0772
f8ac
066e
f330
0183
0d48
0fda
f78e
f05b
067d
0cc5
0940
f8ea
096a
f44b
0d00
fcb2
09b5
039a
f8fa
f8e2
fa04
f2e1
f50e
f12d
0eaf
fe3f
f66c
f6d2
f72a
00a7
0bf2
0733
00da
05bb
02d6
0b5d
0657
0078
f1bd
fd4a
0ce1
0f3e
015f
0bd9
f038
0d86
0ad4
f4ac
02ab
048d
07f7
f120
fbd8
08cf
0603
f5ae
f82f
f638
f9a1
fe04
07c2
f23f
05db
05a2
0784
0210
f6d4
091c
028b
f0bb
fd63
f3c3
fa63
f096
023d
0805
f911
025b
0e0d
feeb
0269
fe08
0aaa
0c3a
0d6b
f3a9
f993
0e05
0e76
023e
faec
0f7a
f4bb
f589
fb72
f321
03c8
0e5e
f156
0b7b
08c5
f585
04f9
f3ff
f031
fbac
fa7c
f7d5
f5d0
0059
0301
0de5
f963
f27f
04d9
f74e
015a
fa78
0991
fa7b
fb0b
0910
f6cf
03a4
f0f9
f9c3
04eb
f9a7
f734
fc51
f6d2
f9cc
f8fd
f5c0
f4d1
f0a2
f489
09c8
089d
00f5
038f
f06b
fe20
0f8f
05d1
ff07
f88e
fc92
f091
0f50
0511
0579
0ea2
0fb4
0c2b
0c64
fd65
fb8f
04ab
fd81
f613
ffd0
0fc5
047f
faee
0983
f18d
f26d
0dda
0178
0403
070d
0a3b
f2fe
0516
0774
0b38
06d6
0d49
f7cb
f50e
04d4
00d4
fd03
0712
f246
f1c3
0df1
f012
04e0
052c
fb8c
0f3f
0a55
ff75
fd07
02d8
0d8f
fff6
0ee6
f726
02b8
092e
ef29
08f6
0098
0187
0d21
f8e0
0f96
fa1f
0a6b
0493
0e10
035f
096c
f1d8
fda4
0719
f220
f6c3
0b55
f9d0
fa76
0b3c
f086
fa26
f8d9
fc5a
0563
f930
ff23
0ab7
026a
f52b
f839
f9a6
f9e1
feb4
f520
fba2
f584
ff34
0752
0b24
f168
04fa
038d
f936
f510
f3e6
fccf
faf0
00c4
f69a
0538
fafe
076b
f401
07b1
fb26
f26b
f459
0864
f9fa
f96b
03ca
0d86
0fe1
0136
fbab
0f15
fd7d
f2b2
0c35
f112
08f0
0b12
f57e
ef15
032c
079e
1074
045f
eeb0
0345
0445
094b
0799
fda1
04ca
0f0f
0b59
f28f
0d9b
0530
f844
0063
fc7e
0170
0560
f1bd
f312
0112
0ad4
077f
0524
0d31
02c6
fc29
0753
f912
f90b
f192
fa92
06d5
0e8f
fd4a
f353
0722
f727
0d2d
f097
05e2
0db9
f38d
0127
ff47
0241
042b
095b
f12a
f7e3
fbf3
0283
0cae
fe2f
0733
f75e
08b1
f3e5
f8a6
fe9a
f47e
0a0a
f25c
053c
0205
f6c7
0e05
00e0
0122
f580
0eee
f255
f4a5
07cf
fef0
f27c
f03f
068d
f4e5
0acc
ef33
0a5a
0452
1057
f30a
f349
f7d4
08a2
f6f2
0dc8
fae7
0685
f919
0339
0b0c
0ef6
07a2
04de
0f50
0bf1
086e
05f5
f138
fb02
ffdb
0e58
fd3d
0486
0814
f249
f72f
1021
f9cb
056f
f523
01f2
0177
fea6
f6f6
0bcb
f411
f4bc
0291
f399
fcf0
00b0
0547
0591
f287
f024
04b0
fb2f
fa36
fa95
f1bf
f6b9
03a3
f280
0fa8
03a7
f3a1
fba2
fbd0
f35d
078e
0180
0c8f
f94c
f24f
0065
f4cb
f9f0
fdff
f6ec
fe7a
fe70
030a
f07d
0f29
fcf4
05ab
f59d
f1dd
f510
faa9
f7b6
f604
0e68
07eb
f974
f30b
0c8c
007f
f091
fbdf
f47b
01b9
fcaf
0fa9
0ba6
faaf
0616
fe57
f719
0d81
0520
f07c
f266
058a
f6a5
0d1e
fd70
0205
079b
f4a6
0bd4
f5d7
f69f
0460
fcf2
fb02
0b58
fa87
f270
0ded
fd77
f99b
0411
0f98
0059
f008
f09e
016a
f499
040b
faec
08a4
0f5a
fbec
fcf8
0000
fcf2
058a
f8cf
f47a
fcd1
f44f
f634
05fe
07c4
f471
f1ee
f8b1
0a05
f2fc
0d34
f899
f484
008f
fcff
088b
0596
fe7e
061c
0d22
f48b
fd87
0355
fae3
01ad
f166
fc22
f5d6
f674
0480
fdc6
f9c9
f32a
ffb6
09a1
0310
f5a8
fd77
04f0
f8fd
f56f
f5e6
f7db
f2da
f4de
0181
0202
fd4e
f2b6
f0b9
012f
f7a1
f375
f7e3
034f
f5d1
0aef
0957
01b9
fe1e
f8bc
f18b
0fa0
f02b
f0e6
08ca
07a6
f39d
f0d7
0238
09c6
0c67
f1d1
f61e
f77b
f56a
0b2d
efef
f0d7
fe0b
f9d1
ff07
0747
0755
0607
f421
f6bf
f741
f614
0215
00a0
fcfe
05ed
f938
f89d
f857
030a
0fce
f7a2
099a
0b3b
f84e
f9b1
ff32
077f
0098
fa13
004e
f255
0501
0bdc
fc57
0a6c
fe42
ff84
0b19
f648
0a6d
f222
0562
f7f4
0646
0bf0
03e3
fe74
f3ef
04f3
f998
fded
058a
0821
0d27
f49b
f92c
f9e8
0aca
0da1
09e5
09cc
019b
f06e
0717
f751
07b5
0b3f
0fab
f432
f2af
ffc6
f19c
0beb
08f6
fa0d
ff37
00ef
f82d
0e8f
fd2f
f61b
0a20
0f91
f164
f557
fe05
0ccf
0e3b
f9f7
f814
062b
f8a2
f5bf
fca9
0b8a
f94a
0014
f79b
0f23
0c46
08b5
094c
0d02
fc39
fb5e
ff46
096f
0697
fbcc
ff06
f983
f759
f632
f3b1
016f
04a8
f3eb
010c
f4f1
f52f
fe1d
f9a2
0078
f70f
02b6
050e
079c
0952
0d5a
f74e
00a2
f865
073c
f699
f361
ff66
fbd6
f26f
fd06
0e10
0f94
f5c9
0a61
ff47
fdd2
0271
f396
0960
f019
0385
0c94
05c0
f041
024a
039c
f600
f46e
f36d
