fb6c
030a
0fcf
0cee
f122
0032
0c81
fe30
0d0a
07de
fc0d
f982
f3a0
0398
f9ed
0fa5
06b8
07ae
fae4
070c
0d3c
02e3
091a
0c63
01a1
0392
f669
0d84
f96c
0810
f48e
07e6
07b8
08e2
f9e6
022a
f2bd
fff3
0bd0
f449
f510
0655
02ac
f301
0f46
0149
09a4
0a3a
f376
0e6f
0caf
f3d1
0bbd
fbe4
fa0f
0a20
ff5e
0698
f62b
0f88
f5a5
03f8
f64b
07dc
fde8
0a0d
f654
093d
f264
0ca3
f4a0
0e33
fa17
fa8e
f265
f7d4
0061
02d3
0503
f0f2
f865
f985
f55a
02bc
fab8
0af3
ff62
fcfc
f6a8
0e37
0974
0ddd
f6d1
fa06
02ee
feda
0898
f6f2
0d7f
fa41
fc18
f905
ffd9
ff35
f559
f8ca
0411
0ce4
01c6
0c68
064c
fd85
08fe
f240
f316
f01a
f69d
f695
06d7
fd75
f258
0c42
0270
f23c
0c72
0946
05cf
f06d
043b
f2dd
fa59
0a27
fb2d
fdb9
02f1
fc8d
ff83
fc75
0ced
fbe7
f38c
f273
0b5f
058e
0745
f053
f936
f916
074b
fd92
f468
0aff
f206
f565
0ef8
f9d9
0724
fe5d
05d6
0879
f2d2
0ac6
04a8
f3f1
fe67
fdd6
f821
f584
f8ba
060c
ff7d
05d1
fc6e
0ebd
06c5
fc1c
0a24
f51c
0c57
f963
0ccf
0866
0512
fd37
fe72
f14f
0773
f469
030a
f421
0301
0d6a
f70e
f569
0bb2
f12d
0d66
01b0
0971
0721
056e
f8a8
f44c
f443
05cd
f58a
f85a
09aa
08f2
f6e0
fcc1
0ec8
0dd1
0f87
f4df
09b0
0ac4
f717
0980
fc8e
0b0d
0713
05d7
03da
ff90
03ae
06b8
f94e
f7bd
fc9b
052f
0ebe
0c38
fe20
063d
068b
08e1
f5ee
fa32
068f
0fd5
08c7
ffec
0e51
0531
0e34
f4bf
f5e8
fd7c
fe4f
f810
fe7e
fcd8
075f
fcab
fe2b
f996
0954
08bb
f753
104d
ff82
0ba0
f96b
fa67
ff47
0d70
f10c
fbcc
0005
048b
feb1
061c
f940
02a8
0b9c
fdfe
fe85
f15d
0226
0cde
076b
023c
0eef
f504
08b2
f697
ff5d
f374
fdc8
0f79
f8bf
1076
0137
0345
fa93
08af
fc03
fdf7
1273
fb39
0cba
f88b
10c3
0f7e
f347
fceb
0a00
f852
f5f3
0e71
05ce
f45c
f909
0012
f71c
1096
0875
0188
0e4f
ff42
0ad8
f397
0748
0ef1
0dd4
0875
f945
0e5f
0dc8
ff07
f890
0668
0a7c
f557
08c0
0158
ffda
f4de
fb0f
0df5
10b4
0f82
0f71
fc7f
ff6e
0f93
f473
f582
ffb8
f9d6
04c5
f7d0
0ff5
0242
0add
f807
026f
04e3
ffb3
f467
f6b0
fa3e
0154
faf7
091f
0d9d
fa91
fbf1
fccd
f8f8
f442
0634
0b40
0537
07c1
0b2d
0d61
0138
041f
f959
005d
01c1
ffa1
fec6
fb7f
f219
f144
0294
04bc
fa58
0e99
f04b
0495
0af8
067d
fd23
f8a7
ff95
f0e3
f356
fe73
f91a
f64d
f351
f88a
fd8a
f836
0dd0
ff2f
087e
0dfa
f6ee
07dc
f950
fdf3
f1aa
f201
fbde
fe64
06c8
097e
0f3d
f5b8
f0c4
0dad
09a7
f2eb
0ae8
0475
fb17
06a4
fd63
0a26
efca
04a5
0e4a
0ffa
0ef4
f212
02bc
056d
f98c
f14a
0cf8
fee1
f5c7
fb06
f27b
0794
ff77
f1c5
07d4
0090
f015
045f
fff1
0c44
f57b
f955
0db0
f948
fbaf
0f62
00cf
fcfa
0ed8
077e
f4a3
fa3a
fd94
f021
0b83
fd76
00c2
0856
05fe
0eda
0286
00e8
0b1c
f18f
100e
f1aa
ffda
f919
02ee
0e31
08d9
f6f2
09a1
1082
040d
fedc
0794
020f
f5d6
0a87
f26b
ff28
0bb9
09e9
0dc0
f298
f174
f644
f4d6
f6ad
f7f7
f0cf
0105
fad1
0558
077b
f445
0b4e
074d
f827
f69f
f38e
03dc
f60a
f5f7
090f
0d48
f8ab
07cf
fc45
0674
000c
0806
0cb5
070e
ff81
0d09
f2e6
efed
0ad3
030d
0da1
0d52
09e2
f04b
0b9a
027c
f394
0df3
0cf3
fdca
fce6
f2c8
0731
f046
01c5
01d4
ff94
0e51
f460
fe32
f9e0
fb28
f5bc
045b
0bb4
0487
f8bf
01d5
fbfb
0825
f6c5
0550
f429
0991
fcbf
f3aa
f808
f46e
fab3
f31f
0d0a
f774
0a1f
052d
0eed
0b4c
fe36
fd3d
0425
04b8
fc57
0244
ff35
081a
0495
f40d
ff39
046b
fa73
f2bc
0200
026c
f19d
00fb
07e5
0097
0478
0822
001e
0ae2
062c
f6bf
0d79
064b
0bf4
f06a
0dc1
08cf
f656
0217
01e6
00fc
f978
fc28
078d
f242
0340
064f
0a07
f5d1
0c17
f423
fd3f
0494
fd8e
f05e
0bc7
fb77
0d47
098d
fc28
f035
f932
06b9
0778
0b71
fce7
0e6c
f822
f168
f253
ff71
0dc9
038d
fad3
f939
111d
f390
0adc
0398
fc84
ff27
0aa2
03d0
fcfc
f8ea
0789
f3c0
f41f
0829
fc9d
fa00
092c
fb75
f77c
f18e
f508
0c20
f3ee
f712
f7bc
0e16
0318
f5c3
fedf
12be
076d
0c25
f773
033b
f3de
053b
0ed6
0a20
0bd6
fe33
f39d
f7d8
0436
f083
0965
f10b
f420
097f
f679
f112
0e7b
0cc2
03f4
0d0a
fadf
0c5e
0439
0ea2
091d
0730
008a
f550
fde1
00f0
f316
f30d
fd48
0182
fc8c
f980
00ec
f738
fa88
ff0e
f117
ffb9
0f33
faad
0557
09db
f28d
0bca
fa6b
0f60
0b45
015b
03c3
0ba7
f6ae
042b
0798
f71d
f9d1
f7fc
0713
f38b
05b9
fcd2
05f2
0215
0b8a
04ee
0528
fbda
f852
f7ab
056f
09d2
f453
f9be
fdd6
06e9
f3d6
09c1
fee7
feab
f8c1
0c8e
f0f3
f4e9
fb5e
fa69
f35b
f022
fb3e
fb26
fa6a
f51e
0f1e
