f8c6
0ee4
f465
1000
0993
0b8f
0f8a
faa6
ff06
f659
0346
f770
f652
05f3
fdbf
099e
ff28
0652
f195
053e
0ff0
0f61
0976
0859
0375
0a29
f170
fce6
0798
f1f1
f808
0180
fff9
0bab
0910
0cd0
03ca
0988
f628
0632
0810
fc15
0af1
fa6c
02a9
09e3
f2d0
02bd
0349
05d1
0210
f02f
f08e
0c10
f350
fd72
069e
0269
f1d8
f2c6
f3fa
065d
f6ad
0a19
f81e
fa9b
074d
0472
f31b
fd51
ff2e
045b
f0ad
f8ad
f953
ff5f
0670
0b49
0232
0388
06c1
fdf9
0bf7
083c
02ac
018f
0534
f859
fec1
f1b8
fa68
fe24
efe0
0c2d
f55f
f6f3
06aa
01e6
0dcf
101a
f709
0a64
0833
06bb
0e49
f6f7
0c39
0546
0153
f970
0d72
f81b
0a12
fbc4
0ff8
0a17
0eef
f201
f10a
0b7b
032a
f54f
0407
f123
f2a1
09e2
f8da
f24f
f588
0052
f50d
f347
fd16
0bd0
f3de
fdd2
0d95
015d
f550
07a4
f400
0837
07d3
f110
0921
f8b0
faaa
061a
0275
fdc9
f98b
ff53
f805
faff
0efb
06f4
0426
035a
f213
099f
feb6
05f7
f803
077d
03b0
fcdc
0354
fd1d
f66f
0899
f8cf
0fa3
06c3
06c0
0f8c
f2d9
f4f8
01cb
f49b
f5d8
fd90
08d2
0de1
0aa6
f071
086f
f833
02d2
01d1
ff5a
0599
fa6e
0218
f7a9
f0e7
026b
00f6
0ae8
ff34
f67f
fbe0
f757
f7a4
f429
0763
0894
fb2f
07f4
f0aa
02b5
f392
f90d
f053
06a9
f9ac
fbc1
f67b
ff6f
ff9f
0895
051a
fb92
f563
033b
f57c
0e21
07a5
fc7e
f010
0058
f79b
fa1d
08bd
ff77
f372
0b12
faaf
09f5
faee
0b8c
066e
fe0e
f04d
fdc5
fbb7
f3aa
088e
04d4
0e7f
fefc
f3ad
0b61
ffce
f27c
0d24
f1d7
f5a2
0e41
0897
0c2f
ef47
fd3a
0997
0bc0
0511
0ed2
f2ef
0124
fc59
f572
fe69
f1c0
fb1d
0753
f595
01a3
f5e6
0d47
0c67
fc21
ff6e
07c7
060c
f8fa
f1a9
07f8
0874
f140
f5b5
fead
052e
00e2
fc11
f76c
0fd5
08f1
f8b0
fa15
0491
0462
07e6
fb58
fc73
f4d0
f20e
04dc
0de9
0956
f68a
0175
00b8
f1d5
f6fa
f01e
0667
01ce
0bc1
0a98
0f2b
0c0f
fab5
0e70
0988
fdb2
0f91
0717
fb41
04f2
fa58
fd12
f50a
098e
f04e
0a72
f307
ffaa
0eb2
f225
0373
0a81
f295
f0bb
fdff
0e5f
f818
f7b3
12be
062a
0d54
ff9f
0a43
023d
03e7
0a9c
f7c7
f17d
fc12
fe7b
f250
f5c1
052f
0a0b
0b7b
0fcf
f2ad
022c
fb64
f4c6
f1ae
0a67
f9e6
073b
0b08
f93c
0a78
f56d
05a4
f7d2
0c3e
f7cf
f4b5
0dac
f729
f176
05fd
ff7c
ff35
fae5
08f7
0550
0a0f
0475
0bfe
fd86
facd
0973
0098
08d0
104a
0092
06e0
0111
0eeb
0419
fa3b
05bf
08bd
f616
1148
fda5
0bb5
ff4d
fdab
fe1c
0b5b
fd2d
01c6
065f
0be3
f47a
0610
04fd
026a
020b
f32b
f144
0c51
f391
fe56
0591
fc79
fefc
0117
022d
0564
08a0
fc9d
0b58
f99a
125c
07bd
f645
0a8e
fc19
f4f7
f226
0e27
f5ab
fdf5
07c1
f39f
07de
0c1f
0620
f5ba
0ced
fcdf
fbc8
f0b1
006b
f02a
0006
f182
0b5f
0135
f960
0cd2
feed
0fce
0546
0ae4
f3bd
0917
fa8e
f164
fd6a
fa1f
f29f
fb15
f9e5
f248
fb4d
06ee
07c0
f5b0
03a9
027e
eb15
ec75
0052
004a
0d9b
00ed
f9f1
0302
f1c3
f6b7
0ab1
f862
fc70
0d61
f3aa
026d
07f5
f66e
f1e9
fc3f
f327
07b2
05f6
0ab5
077d
f3f3
0581
03d0
f6b0
0b0e
06de
0a13
fa94
05a3
fd35
0cc0
0017
0c1d
f9d3
fcdb
0aff
f415
fffe
f3f5
f19a
f4b1
06ec
0a07
fd73
0ebc
0d4a
060a
09ce
ff78
ed3c
08c1
f5eb
fafb
0da2
f5cc
093a
05ab
0bd7
fe75
f18b
fc6d
ffe1
078e
fdc7
07a3
068c
fdc9
0bbf
00f8
0f02
f451
092a
f1a5
f7c7
f4ed
0356
0079
f171
0ccb
0244
0213
fa59
11cf
0c4f
f67f
f5b2
fe42
f9e4
f2e4
030b
f4ee
0d03
01f7
f35a
0950
fc66
f646
f3f1
0708
043f
fd0a
0cc8
fdf5
f364
f3dd
f15c
059a
f61c
f96e
1103
0778
0432
0d00
fc0c
0e5f
f9db
fa82
0bfb
0a81
f74e
0e85
f50a
fd9a
fb2a
0ce0
0e0f
face
00c6
f48e
f156
f909
0362
0667
0444
0e88
f9f9
f81c
09b0
f75c
fc34
fe1c
0dc3
f656
0944
0123
f73b
f7fb
f9bb
f1dd
ffbd
f5be
0f0a
0b79
f542
fe88
fae2
f14a
f918
f667
06c8
f11a
f675
f5f9
0699
0860
fcea
077e
f790
074a
0869
0bb1
fd37
fbd6
fc64
face
0052
06f3
0331
fb03
f226
fe0e
0e80
0ec4
0612
000f
ff76
ff97
0583
0baf
f87d
078c
0a37
00e0
0333
0d0a
0256
0277
0141
0ab4
f576
ff14
0d55
0734
f5a1
f173
06b6
fa2c
f0ff
fea8
0d89
0aeb
0a9b
0796
004d
0807
fc18
0a37
035a
04e4
0c4a
f6a2
0b5d
f364
0a4d
feec
ff0a
0d59
f015
0ba1
fccb
f86d
0c73
06fa
f7f9
0c0b
f5b0
f7fb
0399
f650
f54e
03e9
0265
ffb2
08a2
06fc
077e
094e
0b2f
f62b
0242
085a
0158
f201
f31d
0d08
08f4
0e86
0f10
0158
06c3
0617
f134
0c2d
f6a5
0a07
f256
0f20
f1e4
f636
0588
f27b
fbe8
0ed6
0ada
f2b6
03d2
f329
f532
009a
0190
f633
0bd7
03be
0d0a
fe59
f142
f42a
0b70
f7fe
0d5e
f6b0
fdfa
