0554
06c8
f82f
0b81
03aa
0128
0c8a
fdfe
0ed4
f974
09a1
f8dc
fd82
fee3
0735
f4f2
f16c
f173
f80f
f00e
079d
04b7
fe6b
05d9
08e0
fd2d
f475
090e
f1d3
f3ef
04f4
0c50
0267
08af
08d7
fa34
f375
03d0
085a
ff0c
f847
00ee
0fab
02bf
0e53
05c6
f1d2
fd0d
0686
02b8
fc87
0e91
0ddf
0541
fbe3
f7d1
0f71
017b
0467
0a87
0f30
061a
05bd
0b4d
fb04
04f8
fe96
0337
f8c1
0c07
f6a0
0cd3
f4e9
ffd9
fb93
02b8
0297
0dfc
f203
f391
01f5
f7f0
0566
057d
0eb3
01d3
f983
f167
00d0
0b22
f8ee
fc3c
0604
0a8c
0758
01a2
0e30
0af9
f467
f745
f87a
0b27
fbdb
002d
ff88
f52f
f191
0f90
fa94
0551
fd82
fb26
0688
fb5c
f39c
08e0
f352
0433
f680
f8e2
00fe
f4fc
09f0
fd81
0c3e
056e
f601
03f6
f31d
0071
fa82
f228
03b2
febc
f0f7
0950
fdc9
f184
f8bb
f3ce
0b5e
0ddf
feb4
0af7
0b30
089d
fae4
06de
04c9
f57e
03db
06ee
07f9
050a
f1a7
01b1
fb82
08f1
f396
f5b0
03e0
0da2
06ab
036d
0b6d
01a5
fee7
f915
081c
00a9
02d5
f4fd
fe53
043e
f084
0ab4
f001
0b17
fcd7
0629
0af5
04bc
090f
0d45
02c6
09d5
f37f
0b95
0dae
fd05
00f7
0c48
f5a9
f4e6
fd20
f319
f950
00a0
0aff
f301
fd83
f03c
fbc1
0d32
f0c5
0893
0cb0
0497
f8c4
f838
f2f7
0f66
feb2
0803
1142
02a6
0358
0a2a
034c
f686
05ae
0032
ff64
0a2f
fd7a
0a3a
f1aa
f67f
0927
00cd
09f5
0008
ff27
0c35
f87e
0973
0fd4
ff86
0b96
0718
12ba
fa0f
05da
f69e
f8bb
0303
f754
099f
f574
0cdb
0226
fcc2
f89d
f6d8
0ef9
f967
f8be
fcc0
02b8
0503
0dfd
0996
fba6
0746
0ac3
0eba
f499
04ca
0f13
fbf8
0cb1
0263
f5e6
0583
0692
f735
0fb9
06b8
f2e3
fe48
06ea
f9f7
0daa
0c15
f43f
0cdb
f2f7
0f79
f483
fac2
f7b9
fc1f
0adf
0260
1166
fcbd
f2b2
f8d8
f450
0047
f5b9
f328
fce9
feae
f40a
fb0c
f029
f37b
0d64
0d43
0ea1
0714
f3e8
0f37
018f
fb9d
0aa7
0299
1030
fae0
0d31
0672
0e29
0f66
f5c3
f9d3
0a2a
08c2
0a08
0cfb
10dd
f29b
fedd
f835
0884
fd85
09a0
0ac7
ff70
fb6e
f7e0
fab9
00d1
0885
f5fd
0e59
f9c2
01b4
04fb
f9a5
0b11
088f
09f7
fdad
08eb
0a56
0861
082e
ffb6
0915
0d58
0b7e
0f82
04ae
0ab0
0108
f28f
0704
0d7b
f809
f84a
00cf
f3b8
f419
f1f4
ffdf
fdcb
0ab4
0dba
f461
0898
f36b
0c3e
0f0e
fee4
028c
0552
0f0d
0765
0676
f348
006c
00af
030b
f3e8
0aa5
f5cf
046e
0937
0a35
f4ef
0c6d
0bde
eedb
f102
faf7
f36d
01d8
f594
fef6
0be3
f615
f451
05a2
067e
fda1
0b8a
0d9a
fdd6
04c7
fe1b
f87a
ffb3
f87d
f58e
fa81
0c11
0efd
fe32
05c8
f39f
0216
04b8
f31c
f006
f859
05a2
f131
1072
f50e
00f2
f954
0db0
fb25
09e1
f612
070b
fff9
01b2
f6d5
09bb
f1e9
0a5d
f69d
f92b
f319
0c49
0a7f
fb3d
f93e
f2ce
0606
f3c3
0475
f8fb
0768
f2f8
0e19
fd81
050c
f5e2
0cca
0e25
f640
ff4d
f385
f92a
fddc
088f
ff3b
03d8
07c0
f261
f263
0b42
f5f1
f652
f805
03c5
f5ce
0674
fefa
05e0
02d1
009e
f3cc
0bf5
faf0
0883
f475
fa4b
08bb
f51f
02ba
0aee
0c23
fe29
fb59
069f
0074
04fb
00f7
fc23
f254
fe0c
00d2
f13a
fa50
ff7f
03f4
fb47
f6d7
fd3d
f9fa
f95e
f1cd
fb6e
f25b
ff04
f400
096c
02ab
f896
fdf0
0d32
0767
0dd7
05e6
fb46
fd28
08ca
f4ab
06a3
098b
f3b7
fe95
f95a
0280
f7a7
0813
0187
fa2b
0874
016f
f11b
0bdc
f582
fbe5
ffcc
05ad
fa56
018d
f051
f728
f4fc
0b13
02b9
08da
038c
0b69
f66f
fbcb
0891
f9dd
f83a
f482
fbd7
03ea
ff6e
0c32
0045
ff0b
f25b
0047
f53b
fdcc
0d71
f655
0800
05e9
02a3
f8f9
0a8b
0636
0a75
fa30
fd3a
0d8d
0d72
fe26
fc17
ff0a
f2b6
f2ba
08d0
0bfc
039f
ffe9
f567
0e16
0944
0a32
fc93
08d2
07b9
0c38
f8a4
fae3
f207
0053
f440
f9da
fb4c
f125
0d2d
0ce7
f2f9
fa98
07e5
0f45
f501
f302
f958
003b
f49d
0727
f67e
fa0c
f165
0018
0ed4
0bed
fa91
f5f8
f8a1
fbea
0814
0bdd
fc2b
0508
0cff
f59d
034b
f87b
01a8
0092
0736
f873
fc73
f3b7
f7ac
01e9
fb7b
effa
f553
f60c
fdd3
0466
0cf6
f147
01c0
0069
fc74
fc82
0ab9
f5aa
0774
0661
0205
08d9
ffd0
057d
0d92
0e9e
0630
fec7
fcce
1132
ff0f
fca1
083d
f7e8
052c
088d
fd3e
ff93
0b68
fe62
029b
0b6c
f250
f6e6
f945
05fa
0d1c
fec9
00c5
f346
fa27
0600
0d37
07a6
f2c5
f90d
f23b
fcb7
0b66
0d02
fbfb
063b
fce9
08c4
0cd9
0f84
f284
f848
ff1f
0dab
f292
ff3d
fe5e
02c2
fa56
0bd5
fe63
0755
068e
0910
f807
09f1
f407
01b2
f629
f4ae
1000
064e
fe2c
00f0
0f8d
f2ca
0dd7
08cc
073b
0468
03c9
f9bd
0bbb
fff2
05be
fc8f
f0d5
0eb0
fd69
0455
061c
fd64
f168
f172
047e
04cb
f8e4
0215
0900
0575
f431
021f
f03a
f2f1
f548
0e15
fff6
07c8
041c
0644
