097b
12e2
0007
fc27
fd02
fc09
0212
025b
fdef
0f6b
f528
fae7
0930
efcb
f19e
0017
1961
fd5a
0000
fe27
013a
fa5b
04b3
0e0e
ffc7
0b76
050d
fa8e
f505
048d
0c74
f9d9
f761
012e
013e
f3e2
0b97
0350
f8c8
0a15
f2e9
025f
072e
077d
f6ed
0328
fdde
fb4b
0683
0728
05dd
eff2
01f0
0171
faff
04dd
f47a
f786
0b98
f8d9
ed62
fa31
0aa1
f115
