f08c
ff32
0b51
0770
f5ed
f94a
f1f1
0209
f46d
0a51
f166
fea3
f5a3
01e2
080b
fa5a
08fd
f5ae
09e5
0ca4
f25b
fb37
fe2e
0df9
f07c
02bc
07e1
005d
0920
0b66
fb41
f611
fb29
f0b7
018d
0b7b
0b30
f544
0e1a
08d2
fb53
0009
0aab
ff52
f59e
0a02
f88d
f77d
06cb
09ec
fc25
fdc6
0ae7
069b
ff70
0b25
fd23
0443
f514
0427
f349
fbe7
f348
f655
0f33
f6a0
f381
0d77
0f76
0c7d
fad9
042f
fc69
f864
f95d
0718
f813
f9d2
fb9c
fe34
f6dc
0a80
0656
ff9e
070b
0551
f4d0
04f3
09c6
f5b0
0ca0
fb33
0b24
fd32
fa62
f9b6
0691
f512
fc53
0e51
f215
056c
000c
0ed4
030d
f276
f40c
f0e2
05f1
0bfb
f71a
081b
06b2
fa2e
01b9
fde8
055d
f5a9
f414
f32a
0daf
ff88
f383
fb2d
04de
f379
02cd
fd9e
0f28
fc9f
08bd
0766
0513
0111
f494
fb43
04dd
f89c
0170
0f44
fd95
0cef
0601
feda
f51f
0e1c
f4db
fd99
06d5
fb2c
104a
f104
09d0
0cf3
f3c7
fc3f
f40b
f53c
07e4
f889
f06e
0d89
048d
0970
0eb3
fad5
f8cb
0e55
fc9c
0f5d
0b7a
03c1
f6e4
0f74
f7e3
07fc
05c5
032c
09ca
fd0a
fc87
04f3
f08c
0cb7
0f84
0bc4
029f
0e35
0422
f537
fe1c
0f5b
0bd3
fdec
02fe
ff24
0728
f5af
0dce
f618
fc22
1009
0f4c
02e3
f354
f933
f1fe
f93f
1022
f8fc
f403
09bf
fa7f
f8ef
f66a
f18d
03b7
0560
053d
f0da
fec1
f60d
0202
00e4
f20a
0504
f8dd
0de9
06ad
f1f6
fbf6
0670
fd76
f3c9
f2ee
0db6
fe1a
0401
ffdf
0284
f1fa
0682
0d34
05b7
0115
0135
fa4c
f4c9
fbd3
f193
fd6c
f3e4
05b2
00a9
f5ec
f8bd
f8e2
0927
108c
f28f
0339
fa8d
0a7c
091f
00de
0695
ff1f
fcde
066b
0230
0bb4
064a
f760
0a92
fbab
0cab
0bb3
01c2
0d85
07bc
fbcd
f9d8
054f
fa4b
fefc
0dd5
0766
ff4f
0ca9
0be8
0cd8
fad6
f875
06f0
09f1
09ef
0c23
066b
0203
f21e
0d4f
f2e6
fb19
0da6
f116
02f6
f319
fde7
05aa
fce1
071f
07f4
feb7
081f
0bad
f8d1
f6be
faa7
fcab
f4be
01ef
09a5
02df
ff16
fb30
00c6
fb46
0604
0e6c
f762
f855
f331
ffe8
0419
f60c
f45e
f9e2
fc5e
fe7f
f462
0637
05e8
07d8
f375
031a
01e3
0e71
00dc
10bc
0a90
12ca
023a
084a
fc42
11c1
0a71
0e3d
f852
052f
fcf0
f329
f4a9
fbce
fe83
fe23
f9b1
0181
0925
09b2
05d2
f4d9
06dc
f27d
fdb2
fe2c
030d
0af6
0bd9
079e
079e
0e04
f851
12a6
ff05
04c8
f3d6
09f0
f230
018c
07e1
0027
f1c1
04d3
f4ef
0e11
fe15
f53c
fb7b
ef6c
0d2b
f9bc
f227
0079
f918
09a2
f58e
fa5c
f822
1176
0134
f41b
09ee
f348
fccc
f17d
fb90
0d42
fd3c
0f0b
f169
fa4c
ffa8
fbf8
f7c1
0612
f0d3
0844
051c
fe12
fb92
f6b9
06fa
f82d
f54f
0bd5
0eaa
f932
f6d8
0408
0d92
0d4f
0f59
0bd6
0786
0e29
f96f
f824
f31e
0076
09cd
0aa8
04cf
0530
08d0
001b
02d6
ffe8
f801
0d04
0ca5
0081
fc77
092c
0582
022d
fee9
f284
0c19
086e
f629
0dd2
f3b0
fb61
0870
08b3
0bbc
02e9
fef2
03ad
fd78
09c0
ff9b
f34e
0423
0c9d
02f4
059b
f0d7
0c79
0a0d
0e2e
0260
0739
f7c5
0114
f173
f2d4
02b0
0bd4
0268
057c
f349
0087
fa8e
fa19
f901
09b3
0b6e
fa48
f7de
01fe
f53a
f2cb
f7a7
f624
0185
f238
08bc
f191
f1ec
fcde
f02b
f30f
f10e
f2d5
0917
044a
f2d8
f89c
0b4c
062d
f87b
f32b
055b
f860
f8a5
0fb9
03f0
ffa5
f211
04f5
ffa5
f922
fdba
f406
ffc6
f0f2
f3f3
ff4a
0dc5
fcfb
f849
fccb
f682
07f9
f035
0029
f61b
f8a3
0ce5
0e0f
0e3a
f1bb
0128
010c
0d93
0c04
0114
f482
0255
0132
feba
0c45
02f9
0835
ff35
f326
042e
f7dc
febf
090c
057d
09a9
ff6b
fef8
fd2c
ff15
0dde
fd0f
f3c3
f1b1
03e4
0456
0795
0647
f4d4
01bd
fcbc
f660
f9bd
f72b
0b4f
f5a7
01c5
fbd9
08c0
fee6
0690
090b
f245
0f7f
f951
f0d8
fe3f
0cd5
f953
f485
0209
011c
f890
074f
f932
faa9
f43d
0833
f52d
0be0
0737
f2b1
0bad
f46c
f389
0b76
09a5
f3a0
f308
0c20
0ad4
00f8
0666
f4e9
f4f3
fd0f
fcdd
fdd6
f56f
0441
076e
fd76
f1b9
0e8f
fe5a
fefa
059e
fb38
0e4e
fcd8
0b24
0383
f738
0478
0738
0f69
0570
1067
f4b2
0920
f26d
038d
0f22
0d1c
04e9
0012
0365
f3e1
fff6
07bc
0bd5
0e6c
f6e2
fe6b
fa5c
f8d4
082e
045c
04cf
fdd8
0731
0e4b
fa76
feba
02fe
0349
f9fc
0cc0
fdf9
f6be
fd1c
f9e7
f2f0
fa03
0620
0353
fdcd
0a3a
ff15
fd82
0242
088c
f57f
0b15
01a0
0ca4
fb09
f48b
028d
fc8f
0fd3
08c2
f6ee
0843
065e
0b3b
fbc2
03a9
0618
f7ee
0b2c
fdea
0430
ff00
0802
004e
f3a7
0f38
f6b5
f73c
f353
0912
fe5d
0806
0344
f584
0de0
f102
f987
f0e6
ffae
0742
0d90
fcc4
f928
046e
08ac
f6a1
faf8
fcbf
f4e8
0c31
0ef6
015d
fb8c
fc48
f7a9
f332
f716
f262
03d4
04b7
04f5
f192
fe41
fffb
f2c8
fcad
08f3
f407
0e49
0dd6
094d
01a7
f4d7
09ed
f9e8
