f6c1
00d8
f3cc
0f9e
f79c
fd7a
f143
0be2
0385
fc5d
f903
0fd6
0dd4
0ac2
fc73
07ae
0a15
04f6
fd9a
0c4c
f569
f613
0bd6
fb41
0f2d
00d2
07fd
f32c
f3b3
fabb
09f0
f00f
066e
0b11
0193
f274
f6c6
03b5
f46b
02a3
fce2
fe89
0323
f105
f554
fc6b
f8f9
ff05
f822
0b3b
006a
f68e
f70a
0bae
f928
f2fc
f2d3
0631
09e7
0449
0309
f203
0686
f755
018f
06b5
0e08
067b
00ed
f71c
01fe
00fe
0580
0c39
0060
f664
0b90
f574
03ca
f6d8
0968
00c1
feae
0ffa
0869
0295
01c7
02d4
f654
0352
0aa0
f458
031d
10a7
fe58
0b61
f9d9
fe1e
09c0
0b64
fb81
0652
03a4
03b7
f75d
fe8e
f4f4
0b02
031d
09a0
f5f7
f1d0
f5a8
065a
0fb8
04af
faa6
f6e8
f54f
0714
f168
1028
f50f
0c62
0ad2
084c
0caa
02d9
0dc9
0b0f
0421
0007
016c
f4e1
00f4
fa0a
f81b
f80d
0f72
f061
0abb
f9a8
fb2f
fe14
fa2a
1031
f2b6
f2f1
10b0
0e04
0ebb
f363
09b4
fc89
081e
0172
fe83
fd91
f736
0c31
f4ad
0291
0139
ff02
fbf7
f404
fa34
0da0
0dfb
0740
0f24
01fb
0724
f684
0d55
f4ab
f942
0489
faae
1054
0c5d
03c0
0e41
0435
ff81
008d
05ca
04a7
0ab8
01b5
f51b
f7df
fe8b
f83c
f23a
0396
fbf1
f66c
f673
0acc
0975
083a
f85e
f839
f99a
0ef8
f3d2
0dd8
07f8
0863
008f
0172
f94f
fd60
f4c2
f61f
04c5
f88c
f343
f26f
06c8
0010
f7a6
f513
0104
f3dd
f75c
0195
0312
0f09
02f8
0f5e
06d2
0c15
f8ee
0e8b
f8ea
0a53
038a
f5c2
fa33
03df
fea0
fdd7
05d0
05a8
08da
f801
f6ff
07bb
f32f
f1d0
0893
0d5f
0e8f
023b
fef6
012f
02b6
0ba1
0181
0aee
01b6
09f3
f684
0dea
f69c
08fa
07b4
f22a
031d
f67f
0519
fda0
00d9
0470
0597
fc92
0682
0702
01dd
04e8
fa6e
f2c3
f47d
0402
ff1a
f294
0470
f368
fcc7
03f7
fce3
fb21
f8ac
0bf5
06b9
f3ea
f441
0ea6
fb34
0ae1
087b
f579
0c9c
0f7f
fca3
078a
0dc0
f4e5
fc23
06ea
f5af
f349
fd96
0700
00eb
0416
f5f9
08e9
02d2
0aa1
06e7
0760
0b7e
02ec
028d
050b
087b
0000
f55f
f80d
f2c3
0c3d
f03d
f3be
0a63
ffe7
061e
f54b
0de9
f7f6
f244
f2e6
ffc8
eea1
02f3
eb5e
0440
f035
044a
ef62
fa79
fba0
07d7
fb2c
f695
03f1
f278
f33f
0475
0a63
05b2
04b4
fc89
facb
0614
0aad
f900
fbe6
0130
f467
f992
fce7
f674
0021
087e
f40a
f1d3
091b
fa17
fc1e
f473
fc35
f8b9
f8e6
f3fe
0187
f79d
f609
f4ba
f2df
09fe
0379
f678
053c
f5e6
0cef
eff4
08b2
02f8
f086
f460
f73a
fbc2
03a7
0961
047b
0700
0bdd
fc1a
00ec
f4e4
fa22
f3c4
0c76
08eb
0182
0a0b
fa44
0c2a
f2d3
f993
0318
09ba
0dce
fca0
f398
0cb8
000c
063a
04e6
ecc3
0215
fbc8
febc
ff46
0663
fd92
09ec
0b99
f160
ffc0
0c5e
0c01
0778
fd8d
f624
0374
07e0
fe5b
f302
06ca
ffd9
ff84
0664
f2b6
fda0
f72d
f49e
057e
084a
0081
0ad6
096b
0462
f40d
f960
0bfb
fb2a
fcaf
0a08
ff96
f714
0638
0bf5
fd2b
01e8
0fd4
1000
fe71
01c8
019d
f851
fe12
f2f6
f45d
0ee0
f7de
06b7
072d
05a6
fcda
fe56
f7e8
fc24
0412
0fb2
100c
0a6e
fb96
f8b0
f793
026d
fa90
f12e
09ce
fdf8
01c2
0c5e
01d9
04f9
fbcc
fe33
08dc
f27a
0f49
f6a8
0747
0af3
0735
fa0d
0203
0871
0b39
0c96
04b1
f8a6
0914
0e2c
f7f2
f919
0668
f85c
f077
fcb8
0f18
f18f
f561
fd8a
0547
f7e9
064d
f254
0525
f821
07ef
072e
099e
0cf4
0268
f4c6
fd15
0128
fafd
074d
f6f8
fc0b
fdcf
fe5c
fb2c
ff73
f672
f349
1067
f3be
0d6b
07e5
08f1
fac9
f907
0255
098b
0109
129e
08a0
f4d2
039e
fbb7
f664
0e6a
0a3c
0720
fd1d
f28e
032e
0b63
f2e0
f916
0618
0df5
080e
04e1
028c
0151
f382
f997
fddc
0cda
ffb8
f77c
05b6
0d01
06a9
f809
0f67
0c98
0628
0724
f718
0098
0406
f6c2
f3f5
f076
0a83
0e78
f20a
0588
f190
0b29
fb1c
0739
f51a
07be
f7a2
0968
fcac
045a
f460
fde1
f581
fb7e
ffec
f2ac
0814
1040
f4b5
fb2b
013a
09b7
f69b
f005
f5c7
0f94
0519
03f8
0073
04dc
f433
0837
0d9b
f24d
033d
fdf2
fd09
feec
f4fc
051d
0a28
02c0
faca
f37f
02e2
04b8
f0c7
00f5
fda6
f953
05fb
0b44
fc67
0a4f
0d40
f907
0c79
038b
f3fb
077b
fa4e
0b3a
0e5f
0230
081b
f7f6
04d9
00ad
f2e2
fb63
07ac
f838
05a8
030c
00f5
f9fa
094c
f204
0a1b
01c0
f2e1
f470
0404
047c
f39b
ff35
f7e9
00c6
02d1
0ce9
0a11
054c
0983
04a2
feae
0186
0f1c
ffe0
0671
0f6e
0628
fa2a
ffac
f1cb
f514
f92b
fce5
096a
f6e6
fc7a
fbe8
fbd3
094d
fc36
f8b8
fd55
01a5
f521
f45b
fd40
f651
f9b0
1041
f62c
0c11
0222
0a56
fb49
fb30
f8f0
0d4e
fcae
0f11
f961
f8bd
0ad7
09e4
0ade
0959
f050
fa43
fc63
0ee6
f64a
f788
f12e
fc6e
f1fb
fbf1
0f93
f61c
f085
04fc
0222
0e1b
0615
0562
fd65
04b3
ffaf
0e5f
fb48
f510
024c
f3e5
